<unk>	0
<s>	0
</s>	0
.	-2.74301
▁the	-3.24815
▁I	-3.32459
▁to	-3.61693
,	-3.70961
'	-3.87469
▁a	-3.89122
▁you	-3.9613
▁is	-4.26228
▁and	-4.29936
▁of	-4.34073
?	-4.37972
▁it	-4.49842
s	-4.50039
▁in	-4.50389
▁for	-4.76009
▁that	-4.85132
t	-4.89865
▁have	-5.01259
▁are	-5.15229
▁be	-5.16027
▁can	-5.1771
▁with	-5.17776
▁my	-5.18052
▁on	-5.19836
▁will	-5.25283
▁this	-5.27328
▁me	-5.28733
▁The	-5.32748
▁your	-5.37473
▁	-5.43219
▁so	-5.4331
▁we	-5.46754
▁was	-5.47512
▁It	-5.5462
▁not	-5.5661
m	-5.60191
▁but	-5.63727
▁at	-5.64453
▁as	-5.67077
▁like	-5.6771
▁do	-5.7131
▁We	-5.7314
▁there	-5.82542
▁time	-5.83251
▁from	-5.85234
▁if	-5.89979
▁want	-5.91952
▁about	-5.92786
▁go	-5.97895
▁You	-6.00145
▁because	-6.01381
▁by	-6.01689
▁think	-6.02564
▁an	-6.02695
▁get	-6.04629
▁when	-6.08621
▁don	-6.10384
▁know	-6.15687
ll	-6.21639
▁am	-6.24174
▁Please	-6.26948
▁would	-6.28248
▁has	-6.29706
▁If	-6.31504
▁one	-6.36525
ing	-6.36922
▁good	-6.37004
▁This	-6.39249
▁all	-6.3995
▁our	-6.40027
▁out	-6.43146
▁more	-6.44652
▁take	-6.458
▁now	-6.46921
▁need	-6.47617
▁after	-6.48117
▁people	-6.49912
▁should	-6.49962
▁or	-6.50015
▁what	-6.50632
▁up	-6.51989
▁work	-6.53173
▁There	-6.53498
▁make	-6.55047
▁going	-6.55056
▁What	-6.57452
▁been	-6.57703
▁just	-6.58234
▁who	-6.61651
▁they	-6.63015
▁here	-6.64374
▁today	-6.66117
▁please	-6.66576
d	-6.67123
▁product	-6.72544
▁My	-6.72722
▁see	-6.73179
▁Korea	-6.7431
▁right	-6.75417
▁too	-6.75542
▁first	-6.7857
▁any	-6.79027
▁much	-6.79203
▁other	-6.79936
▁company	-6.81031
▁day	-6.81372
▁many	-6.81979
▁how	-6.82245
▁only	-6.82615
▁he	-6.82827
▁How	-6.83071
▁use	-6.83262
▁very	-6.83716
▁them	-6.85038
▁lot	-6.85299
▁send	-6.85351
▁well	-6.86483
▁Do	-6.86757
▁He	-6.86896
▁us	-6.87462
▁next	-6.88681
▁had	-6.88923
ve	-6.88955
▁than	-6.90644
▁come	-6.90797
▁also	-6.92697
▁no	-6.94301
▁were	-6.94569
▁give	-6.95565
▁some	-6.96251
▁which	-6.96525
re	-6.99837
▁A	-7.00375
▁Can	-7.00953
▁order	-7.02383
▁let	-7.02405
▁tell	-7.03685
▁since	-7.05606
▁new	-7.05855
▁could	-7.05947
▁check	-7.07634
▁again	-7.07687
▁school	-7.08439
▁last	-7.09883
▁back	-7.10267
▁before	-7.10786
▁long	-7.12195
▁really	-7.12939
▁Yes	-7.14034
▁did	-7.14525
▁way	-7.15451
▁made	-7.16183
▁her	-7.16469
▁But	-7.16849
▁his	-7.17721
▁Then	-7.17846
▁got	-7.18781
▁When	-7.19204
▁That	-7.20698
▁their	-7.22045
▁didn	-7.23689
▁place	-7.23882
▁even	-7.24321
▁feel	-7.25148
▁food	-7.25728
▁where	-7.26734
▁person	-7.26816
▁Korean	-7.27228
▁English	-7.28099
▁tomorrow	-7.29185
▁days	-7.2924
▁week	-7.29577
▁hard	-7.29737
▁sorry	-7.29997
▁hope	-7.3035
▁home	-7.30799
▁friend	-7.31124
’	-7.32229
▁2	-7.32932
▁these	-7.33681
▁most	-7.34041
▁room	-7.34063
▁possible	-7.3444
▁two	-7.34596
▁look	-7.3513
▁him	-7.35534
▁always	-7.35568
▁better	-7.36519
▁1	-7.36921
▁year	-7.37985
▁help	-7.38654
▁Is	-7.38894
ed	-7.3901
▁won	-7.3909
▁They	-7.40364
▁So	-7.40715
▁buy	-7.40723
▁change	-7.41438
▁friends	-7.41593
▁through	-7.41763
▁eat	-7.42109
▁Let	-7.42983
▁number	-7.43018
▁In	-7.4333
▁over	-7.43932
▁life	-7.43937
▁love	-7.45034
▁best	-7.45304
▁She	-7.45633
▁used	-7.46014
▁why	-7.46276
▁same	-7.46563
▁things	-7.46624
▁into	-7.46697
▁went	-7.47746
▁while	-7.47903
▁products	-7.48505
▁find	-7.50052
▁problem	-7.50316
▁different	-7.5039
▁money	-7.51624
▁3	-7.52021
▁something	-7.5357
▁house	-7.54264
▁each	-7.5427
▁call	-7.54527
▁price	-7.54833
▁around	-7.55369
▁try	-7.56224
▁meet	-7.56615
▁little	-7.56727
▁then	-7.57215
▁she	-7.57549
▁every	-7.57554
▁business	-7.57799
▁pay	-7.5781
▁ask	-7.58076
▁together	-7.59057
▁Why	-7.59216
th	-7.60683
▁put	-7.6137
▁still	-7.61561
▁soon	-7.63573
▁happy	-7.64428
▁family	-7.64428
▁say	-7.64585
▁sent	-7.65194
▁said	-7.65202
▁off	-7.65801
▁does	-7.66548
▁information	-7.6833
▁meeting	-7.68912
▁trip	-7.69295
▁came	-7.69576
▁As	-7.69998
▁must	-7.70335
▁yesterday	-7.7084
▁movie	-7.71209
▁already	-7.71302
▁without	-7.71403
▁great	-7.71801
▁class	-7.72504
▁Are	-7.72626
▁thought	-7.73259
▁bus	-7.73358
▁being	-7.74008
▁name	-7.75064
▁book	-7.75504
▁heard	-7.76241
▁may	-7.76504
▁such	-7.76814
▁And	-7.77206
▁phone	-7.77473
▁car	-7.77675
▁keep	-7.78474
▁picture	-7.7901
e	-7.7908
▁away	-7.79135
▁doesn	-7.79154
▁Thank	-7.79242
▁using	-7.80009
▁important	-7.81331
▁understand	-7.81812
▁left	-7.81824
▁never	-7.82621
▁team	-7.82679
▁years	-7.83009
▁working	-7.83731
▁night	-7.84822
▁card	-7.86037
▁talk	-7.86075
▁live	-7.86721
able	-7.86759
▁study	-7.86816
▁morning	-7.86972
▁down	-7.87074
▁job	-7.87198
▁another	-7.87358
▁show	-7.87671
▁visit	-7.88196
▁late	-7.8827
during	-7.88521
▁sure	-7.88921
▁No	-7.89346
▁kind	-7.89709
▁anything	-7.89865
▁once	-7.89986
▁world	-7.91242
▁looking	-7.92261
y	-7.92305
▁contact	-7.93256
▁cannot	-7.93547
▁schedule	-7.93757
▁water	-7.94302
▁reason	-7.94317
▁Could	-7.94525
▁month	-7.94706
▁until	-7.96105
▁country	-7.96193
▁due	-7.97184
▁10	-7.97444
▁store	-7.98305
▁Because	-7.98359
▁between	-7.99329
▁getting	-8.00415
▁big	-8.00896
▁office	-8.01036
▁become	-8.01056
n	-8.01088
▁5	-8.01428
▁doing	-8.01513
▁email	-8.01516
▁leave	-8.0172
▁seems	-8.0201
▁high	-8.02251
▁wait	-8.02999
▁service	-8.04057
▁part	-8.04542
▁yet	-8.04556
▁couldn	-8.04916
▁Don	-8.05493
▁hotel	-8.06058
▁thing	-8.06371
▁test	-8.0715
▁bad	-8.07816
▁mind	-8.08169
▁difficult	-8.09211
▁free	-8.09323
▁case	-8.09915
▁bit	-8.10273
▁color	-8.10425
▁told	-8.11276
▁minutes	-8.11584
▁Did	-8.11601
▁bring	-8.12076
▁date	-8.12616
▁start	-8.13139
▁size	-8.13391
▁received	-8.13586
▁Where	-8.14262
▁care	-8.14417
▁often	-8.14614
▁delivery	-8.14815
▁receive	-8.15023
▁might	-8.15054
▁After	-8.15604
▁later	-8.1574
▁wanted	-8.15936
▁below	-8.16173
▁having	-8.1619
▁restaurant	-8.16775
▁For	-8.17434
▁enough	-8.17514
▁play	-8.17523
▁students	-8.17618
▁makes	-8.17842
▁stay	-8.18011
▁done	-8.18284
▁children	-8.1847
▁called	-8.18656
▁its	-8.19537
▁took	-8.19967
▁wrong	-8.20289
▁front	-8.20853
▁nice	-8.20914
▁However	-8.20932
▁payment	-8.21677
▁4	-8.21809
▁someone	-8.22091
▁plan	-8.22164
▁bought	-8.22445
▁small	-8.23025
▁end	-8.23127
▁clothes	-8.23373
▁design	-8.23566
▁ago	-8.23648
▁experience	-8.2397
▁okay	-8.24134
▁reservation	-8.24294
▁old	-8.24872
▁wish	-8.24877
▁those	-8.24943
▁charge	-8.25196
▁request	-8.25243
▁amount	-8.25671
▁ordered	-8.25917
▁available	-8.25956
▁set	-8.26367
▁few	-8.26605
▁early	-8.26862
▁various	-8.26877
▁game	-8.27218
▁making	-8.27805
▁taking	-8.27806
▁Our	-8.27857
▁watch	-8.28098
▁beautiful	-8.2841
▁three	-8.28848
▁dream	-8.28849
▁floor	-8.28849
▁myself	-8.29168
▁drink	-8.2947
▁enjoy	-8.29719
▁coming	-8.2989
▁course	-8.30024
▁Your	-8.30238
▁station	-8.30484
▁asked	-8.30961
▁travel	-8.31485
▁changed	-8.31652
▁man	-8.31767
▁exchange	-8.31787
▁Also	-8.31981
▁saw	-8.32183
▁Have	-8.3238
▁read	-8.32495
▁cost	-8.32916
ly	-8.33237
▁own	-8.33712
▁parents	-8.34091
▁process	-8.34561
▁famous	-8.35075
▁side	-8.35083
▁Seoul	-8.35318
▁looks	-8.35814
▁learn	-8.36264
▁dinner	-8.36474
▁times	-8.37068
▁Would	-8.37491
▁sleep	-8.37535
▁hair	-8.37608
▁far	-8.37755
▁second	-8.3812
▁stop	-8.38654
▁system	-8.38939
▁hours	-8.39038
▁future	-8.39478
▁contract	-8.39509
▁refund	-8.39731
▁everything	-8.39771
▁report	-8.41259
▁fun	-8.41339
▁skin	-8.4204
▁believe	-8.42305
▁found	-8.42381
▁issue	-8.42497
▁usually	-8.42548
▁account	-8.42721
▁though	-8.42722
▁cold	-8.43158
▁rest	-8.4353
▁photo	-8.43577
▁situation	-8.4375
▁moment	-8.43826
▁coffee	-8.45219
▁To	-8.4575
▁Today	-8.46352
▁music	-8.46615
▁busy	-8.4679
▁customer	-8.47032
▁body	-8.47152
▁address	-8.47328
▁thinking	-8.47449
▁special	-8.47551
▁write	-8.47588
▁started	-8.47906
▁attached	-8.47934
▁department	-8.4819
▁both	-8.48416
▁recommend	-8.48827
▁message	-8.49064
▁customers	-8.50103
▁gave	-8.50219
▁trying	-8.50345
▁haven	-8.50609
▁mean	-8.50669
▁face	-8.51173
▁Since	-8.51212
▁alone	-8.51546
st	-8.51584
▁B	-8.51618
▁reply	-8.52102
▁quickly	-8.52146
▁items	-8.52615
▁open	-8.52694
▁program	-8.52827
▁First	-8.53061
▁tired	-8.53084
▁item	-8.53096
▁speak	-8.53215
▁isn	-8.53344
▁student	-8.53446
▁file	-8.53569
▁matter	-8.538
▁whether	-8.5433
▁purchase	-8.54546
▁document	-8.54558
▁sales	-8.5476
▁move	-8.54781
▁Japan	-8.55166
▁subway	-8.55625
▁fee	-8.55711
▁data	-8.55821
▁airport	-8.5602
▁planning	-8.56242
▁prepare	-8.56321
▁arrive	-8.5642
▁These	-8.56454
▁market	-8.57514
▁heart	-8.57868
▁sample	-8.57948
▁checked	-8.58033
▁line	-8.58113
▁ever	-8.58192
▁ticket	-8.58401
▁living	-8.58413
▁May	-8.5847
▁vacation	-8.58812
▁hospital	-8.58831
▁lost	-8.58891
▁flight	-8.59044
▁near	-8.59319
▁result	-8.59462
▁event	-8.59977
▁popular	-8.60203
▁pictures	-8.60344
▁project	-8.60383
▁pretty	-8.60625
▁felt	-8.60645
▁others	-8.60653
▁close	-8.61112
▁6	-8.61199
▁takes	-8.61268
▁list	-8.61407
▁waiting	-8.62112
▁nothing	-8.62122
▁summer	-8.62542
▁fine	-8.62832
▁weekend	-8.62863
▁building	-8.63512
▁hand	-8.63695
▁comes	-8.63766
▁birthday	-8.64185
▁sending	-8.64188
▁under	-8.64204
▁return	-8.64343
▁chance	-8.64392
▁within	-8.64432
▁studying	-8.64458
▁teacher	-8.64739
▁main	-8.6497
▁easy	-8.64973
▁bag	-8.65074
▁introduce	-8.6512
▁computer	-8.6564
▁among	-8.65721
▁talking	-8.65879
▁mother	-8.65988
▁hot	-8.66127
▁China	-8.66156
▁city	-8.66323
▁words	-8.66579
▁Even	-8.6661
▁S	-8.66982
▁short	-8.67266
▁All	-8.67321
▁Which	-8.67702
▁problems	-8.67705
▁finish	-8.67709
▁became	-8.67749
▁area	-8.67764
▁answer	-8.68239
▁Monday	-8.68343
▁sell	-8.68398
▁party	-8.68402
▁lunch	-8.68413
▁proceed	-8.68552
▁video	-8.68557
▁shipping	-8.68795
▁inside	-8.68827
▁instead	-8.68914
▁apply	-8.69043
▁tried	-8.69776
▁remember	-8.70134
▁hear	-8.70186
▁worried	-8.70385
▁provide	-8.70437
▁Now	-8.70521
▁interested	-8.70549
▁full	-8.70585
▁Tom	-8.70742
▁delicious	-8.71235
▁else	-8.71251
▁idea	-8.71292
al	-8.71298
▁weather	-8.71305
▁Friday	-8.71459
▁wear	-8.71956
▁eating	-8.72028
▁women	-8.7213
▁20	-8.72134
▁seen	-8.72377
▁Okay	-8.72381
▁walk	-8.72471
▁woman	-8.7264
▁decided	-8.72713
▁outside	-8.72845
▁meal	-8.73078
▁performance	-8.73345
▁favorite	-8.73395
▁related	-8.734
▁bank	-8.73778
▁air	-8.73807
▁Mr	-8.73855
▁group	-8.73985
▁present	-8.74536
▁additional	-8.74934
▁saying	-8.74983
▁young	-8.75029
▁mail	-8.75184
▁train	-8.75443
▁everyone	-8.75483
▁child	-8.75834
▁30	-8.75962
▁point	-8.76099
▁eyes	-8.76499
▁light	-8.76504
▁taste	-8.76596
▁story	-8.7692
▁Does	-8.76977
▁hour	-8.76996
▁past	-8.77406
▁seem	-8.77637
▁Japanese	-8.77823
▁quite	-8.77901
▁On	-8.77909
▁university	-8.77953
▁Chinese	-8.77963
▁requested	-8.78458
▁months	-8.78517
▁arrived	-8.7853
▁choose	-8.78668
▁turn	-8.78778
▁paper	-8.79156
▁model	-8.79363
▁health	-8.79536
▁invoice	-8.79902
▁dollars	-8.80016
▁center	-8.80034
▁ready	-8.80052
▁yourself	-8.80258
▁gift	-8.8033
▁easily	-8.80516
▁true	-8.80672
▁support	-8.80968
▁menu	-8.81777
▁New	-8.82109
▁following	-8.8229
▁language	-8.8232
▁clean	-8.82932
▁appreciate	-8.83022
▁questions	-8.83033
▁discount	-8.83103
▁father	-8.83442
▁paid	-8.83578
▁expensive	-8.83689
▁forward	-8.83735
▁sister	-8.83906
▁means	-8.8396
o	-8.84414
▁goes	-8.84535
▁anymore	-8.8473
▁pick	-8.85227
▁watching	-8.85381
▁thank	-8.8563
▁cancel	-8.85631
▁finished	-8.8565
▁mom	-8.85712
▁head	-8.86051
▁box	-8.86071
▁major	-8.86555
▁delivered	-8.86637
▁brother	-8.86657
▁rice	-8.86742
▁table	-8.86754
▁foreign	-8.86984
▁members	-8.87091
▁worry	-8.87155
▁books	-8.87209
▁base	-8.8722
▁Of	-8.87428
▁advance	-8.87476
a	-8.87507
▁period	-8.88247
▁explain	-8.88429
▁People	-8.8848
▁hurt	-8.88572
▁spend	-8.88646
▁culture	-8.8883
▁least	-8.89085
▁seat	-8.89289
▁per	-8.89297
▁happened	-8.89577
▁met	-8.8962
▁Who	-8.89697
▁production	-8.89732
▁currently	-8.90294
▁public	-8.90365
▁difference	-8.90386
▁One	-8.90547
▁credit	-8.90723
▁Saturday	-8.90891
▁guess	-8.9098
▁winter	-8.91152
▁countries	-8.91341
▁material	-8.91489
▁companies	-8.921
▁documents	-8.92293
▁whole	-8.92493
▁works	-8.92523
▁quality	-8.92722
▁current	-8.92764
▁transfer	-8.92899
▁type	-8.92999
▁share	-8.93229
▁human	-8.93648
▁needs	-8.93737
▁lots	-8.93873
▁similar	-8.93935
▁rather	-8.93957
▁prepared	-8.94795
▁bed	-8.94798
▁applied	-8.95085
▁playing	-8.9521
▁strong	-8.95488
▁wasn	-8.9556
▁question	-8.95664
▁real	-8.95944
▁middle	-8.9601
▁machine	-8.96011
▁letter	-8.96158
▁red	-8.96167
▁add	-8.96252
▁afternoon	-8.96459
▁manager	-8.97522
▁exercise	-8.97659
▁feeling	-8.97898
▁places	-8.98016
▁shipment	-8.98342
▁needed	-8.9853
▁exam	-8.98572
▁shop	-8.98646
▁C	-8.98784
▁image	-8.98966
▁TV	-8.99234
▁worked	-8.99325
▁says	-8.99838
▁extra	-8.99854
▁sometimes	-8.99903
▁recently	-8.99923
▁along	-8.99964
▁happen	-9.00223
▁chicken	-9.00347
▁several	-9.00418
▁song	-9.00443
▁according	-9.00586
▁necessary	-9.00755
▁power	-9.00779
▁medicine	-9.00831
▁shopping	-9.00922
▁sad	-9.01353
▁Will	-9.01357
▁deliver	-9.01389
▁longer	-9.01402
▁quantity	-9.01423
▁black	-9.01432
▁run	-9.01507
▁Sunday	-9.01513
▁development	-9.01601
▁less	-9.0164
▁top	-9.01672
▁social	-9.01842
▁anyone	-9.01947
▁website	-9.02017
▁regarding	-9.02126
▁expected	-9.02148
▁learned	-9.02221
▁Sorry	-9.02269
▁relationship	-9.0233
▁personal	-9.02359
▁method	-9.02444
▁stock	-9.02657
▁presentation	-9.02743
▁gets	-9.02834
▁dog	-9.02843
▁taxi	-9.0285
▁total	-9.02866
▁afraid	-9.02953
▁Yeah	-9.03118
▁materials	-9.03363
▁break	-9.03657
▁park	-9.03688
▁news	-9.03832
▁Incheon	-9.03837
▁T	-9.04026
▁above	-9.04399
▁daughter	-9.0445
▁interesting	-9.04595
▁writing	-9.04825
▁glad	-9.04836
▁space	-9.04846
▁boyfriend	-9.0489
▁Thanks	-9.04916
▁M	-9.05127
▁movies	-9.05364
▁club	-9.0549
▁checking	-9.055
▁forget	-9.05567
▁sold	-9.05574
▁education	-9.05581
▁holiday	-9.05632
▁confirm	-9.05656
▁rate	-9.05742
▁online	-9.058
▁client	-9.05989
▁opinion	-9.06343
▁husband	-9.06469
▁lives	-9.0654
▁field	-9.06594
▁college	-9.06828
▁final	-9.06945
▁shoes	-9.06962
▁form	-9.07006
▁fast	-9.07285
▁age	-9.07847
▁Hello	-9.07862
▁large	-9.08116
▁application	-9.08176
▁goods	-9.08238
▁evening	-9.08277
▁parts	-9.08305
▁E	-9.08373
▁Therefore	-9.08404
▁photos	-9.08447
▁correct	-9.0845
▁completed	-9.08514
▁camera	-9.08547
▁miss	-9.08759
▁earlier	-9.08761
▁review	-9.08874
▁white	-9.08896
▁ship	-9.08901
▁staff	-9.09126
▁mistake	-9.09126
▁At	-9.09575
▁reading	-9.09692
▁cut	-9.09809
▁probably	-9.09856
▁details	-9.10085
▁girlfriend	-9.10118
▁weight	-9.10302
▁points	-9.10844
▁kinds	-9.10886
▁express	-9.11413
▁cell	-9.11538
▁cause	-9.11571
▁un	-9.11721
▁Philippines	-9.12142
▁colors	-9.12311
▁baby	-9.12333
▁held	-9.12507
▁looked	-9.1263
▁level	-9.12857
er	-9.12966
▁written	-9.13038
▁site	-9.13126
▁Sure	-9.13216
▁enter	-9.13574
▁guys	-9.13756
▁girl	-9.13765
▁factory	-9.13804
▁refer	-9.13823
▁receipt	-9.13966
▁goal	-9.13991
▁interview	-9.14246
▁offer	-9.14483
▁pass	-9.14516
▁listen	-9.14533
▁environment	-9.14655
▁original	-9.14727
▁taken	-9.14748
▁history	-9.14936
▁kids	-9.15101
▁marketing	-9.15404
▁results	-9.15666
▁giving	-9.15736
▁employees	-9.15855
▁directly	-9.15911
▁view	-9.16482
▁married	-9.16489
▁shows	-9.16698
▁fact	-9.16924
▁dish	-9.17058
▁street	-9.17114
▁traditional	-9.17223
▁wife	-9.17276
▁via	-9.17332
▁control	-9.17342
▁sick	-9.17455
▁weeks	-9.1751
▁cash	-9.17881
▁healthy	-9.17976
▁research	-9.18
▁careful	-9.18057
▁art	-9.18201
▁P	-9.18218
▁follow	-9.18223
▁o	-9.18373
▁warm	-9.18582
▁simple	-9.18811
▁deal	-9.19008
▁passed	-9.19143
▁condition	-9.19169
▁sign	-9.19192
▁sound	-9.19231
▁Here	-9.19395
▁comfortable	-9.19521
▁son	-9.19647
▁wonder	-9.1974
▁touch	-9.19884
▁tour	-9.20191
▁increase	-9.20399
▁samples	-9.20454
▁including	-9.207
▁accident	-9.20714
▁wants	-9.20737
▁contents	-9.20973
▁value	-9.21004
▁abroad	-9.2132
▁door	-9.21849
▁tonight	-9.2198
▁Isn	-9.22132
▁employee	-9.22197
▁men	-9.22574
▁solve	-9.22754
▁By	-9.22813
▁training	-9.23
▁word	-9.23082
▁attend	-9.23188
▁meat	-9.23289
▁costs	-9.23807
on	-9.24018
▁drive	-9.24067
▁lose	-9.24193
▁submit	-9.24195
▁delayed	-9.24252
▁low	-9.24403
▁example	-9.24534
▁traveling	-9.24572
▁ride	-9.24578
▁games	-9.2486
▁p	-9.24924
▁supposed	-9.25514
▁Fro	-9.25607
▁spicy	-9.25716
▁behind	-9.26146
r	-9.26171
▁post	-9.2621
▁fish	-9.26282
▁half	-9.2636
▁changes	-9.26423
▁fall	-9.26471
▁cake	-9.26535
▁sports	-9.26837
▁accept	-9.2692
▁decide	-9.26935
▁previous	-9.27211
▁asking	-9.27267
▁sea	-9.27293
▁single	-9.27319
▁University	-9.27449
▁Tell	-9.27498
▁America	-9.27619
▁pain	-9.27664
▁positive	-9.27747
▁learning	-9.27793
▁Just	-9.27818
▁dishes	-9.27932
ble	-9.27989
▁God	-9.28033
▁located	-9.28116
▁season	-9.28139
▁participate	-9.282
▁function	-9.28222
clock	-9.28236
▁police	-9.28331
▁Busan	-9.28335
▁government	-9.28502
▁natural	-9.28878
▁trust	-9.2898
▁interest	-9.29084
▁brand	-9.29177
▁character	-9.29302
▁choice	-9.29379
▁content	-9.29538
▁equipment	-9.29564
▁breakfast	-9.29588
▁package	-9.29684
▁against	-9.29786
▁attention	-9.29813
▁page	-9.29893
▁either	-9.30114
▁Kim	-9.30138
▁Some	-9.30514
▁doctor	-9.30515
▁hands	-9.30587
▁cream	-9.30684
▁15	-9.30797
▁given	-9.31088
▁practice	-9.31282
▁Wednesday	-9.31287
▁effect	-9.31389
▁activities	-9.31475
▁sense	-9.31545
▁society	-9.31689
▁prefer	-9.31888
▁key	-9.31909
▁improve	-9.31936
▁hate	-9.31965
▁broken	-9.31997
▁ones	-9.32261
▁separately	-9.32391
▁running	-9.32392
▁inform	-9.32471
▁His	-9.3276
▁road	-9.33023
▁text	-9.33161
▁style	-9.33531
nd	-9.33543
▁ability	-9.34272
▁reasons	-9.34394
▁effort	-9.34426
▁complete	-9.34441
▁Although	-9.34496
▁luggage	-9.34654
▁Excuse	-9.34698
▁ice	-9.34858
▁actually	-9.34957
▁management	-9.35172
▁cook	-9.35263
▁technology	-9.35419
▁exactly	-9.35659
▁local	-9.35678
▁Be	-9.3582
▁festival	-9.35885
▁shipped	-9.35895
▁100	-9.361
▁South	-9.36418
▁tickets	-9.36562
▁decision	-9.36597
▁Christmas	-9.36597
▁driver	-9.36656
▁wearing	-9.36908
▁Take	-9.36911
▁boss	-9.36913
▁tea	-9.36959
▁skills	-9.37156
▁overseas	-9.37355
▁gone	-9.37409
▁known	-9.37414
▁required	-9.37605
▁grade	-9.37609
▁clear	-9.377
▁seeing	-9.38262
es	-9.38294
▁Should	-9.38407
▁visited	-9.38564
▁prevent	-9.38926
▁watched	-9.38963
▁included	-9.39128
▁mentioned	-9.39294
▁expect	-9.39304
▁guide	-9.39396
▁driving	-9.39519
▁cup	-9.39669
▁agree	-9.39672
▁save	-9.39742
▁join	-9.39749
▁poor	-9.3998
▁Go	-9.40194
▁happiness	-9.40257
▁11	-9.40277
0	-9.40346
▁provided	-9.40534
▁location	-9.40567
▁Jeju	-9.40585
▁soup	-9.40646
▁D	-9.40666
▁lower	-9.4071
▁treatment	-9.40811
▁five	-9.40812
▁four	-9.40831
▁consider	-9.40852
▁traffic	-9.41004
▁seats	-9.41316
▁wouldn	-9.41359
▁sweet	-9.41386
▁almo	-9.41424
▁played	-9.41479
▁12	-9.41481
▁perfect	-9.41488
▁Internet	-9.41532
▁catch	-9.41538
▁basic	-9.41566
▁professor	-9.4157
▁international	-9.41579
▁suddenly	-9.41769
▁Thursday	-9.41873
▁confirmed	-9.42105
▁rooms	-9.42245
▁starting	-9.42266
▁plans	-9.42279
▁Maybe	-9.42286
▁released	-9.42348
▁apologize	-9.42383
▁hold	-9.42432
▁daily	-9.42515
▁brought	-9.42523
▁older	-9.42616
▁mine	-9.42628
▁booked	-9.42842
▁fit	-9.43005
▁conversation	-9.43203
▁transportation	-9.43254
▁position	-9.43264
▁ways	-9.43568
▁Man	-9.43613
▁types	-9.43646
▁thanks	-9.43721
▁library	-9.43795
▁Well	-9.43811
▁exist	-9.43937
▁An	-9.44143
▁smile	-9.44252
▁except	-9.44257
▁hasn	-9.44389
▁app	-9.44429
▁continue	-9.44513
▁screen	-9.44564
▁fill	-9.44995
▁plane	-9.45007
▁drinking	-9.45009
▁animals	-9.45085
▁opportunity	-9.45092
▁internet	-9.45099
▁memory	-9.45352
▁beach	-9.45571
▁exact	-9.456
▁memories	-9.45614
▁grow	-9.45639
▁sauce	-9.4576
▁moved	-9.45961
▁born	-9.46229
▁aren	-9.46235
▁normal	-9.46491
▁license	-9.46633
▁trouble	-9.46646
in	-9.46659
▁uncomfortable	-9.46673
▁fell	-9.46728
▁issues	-9.46792
▁calling	-9.46831
▁passport	-9.4686
▁serious	-9.46917
▁finally	-9.4696
▁United	-9.472
▁exhibition	-9.47336
▁beginning	-9.47424
▁semester	-9.47487
▁soccer	-9.47737
▁match	-9.47772
▁pm	-9.47773
▁compared	-9.47784
▁developed	-9.4782
▁wedding	-9.4801
▁nearby	-9.4801
▁media	-9.48017
▁becomes	-9.48168
▁shape	-9.48267
▁version	-9.48408
▁common	-9.48523
▁younger	-9.48672
▁cooking	-9.487
▁classes	-9.48717
▁listening	-9.4874
▁concert	-9.48769
▁immediately	-9.48814
▁ingredients	-9.48818
▁staying	-9.49045
▁beer	-9.49228
▁sale	-9.4924
▁certificate	-9.49591
▁ID	-9.50093
▁convenient	-9.50183
▁desk	-9.50355
▁helps	-9.50364
▁especially	-9.50448
▁studied	-9.50724
▁selling	-9.5106
▁entrance	-9.51166
▁general	-9.51312
▁stress	-9.51381
▁moving	-9.51417
▁fire	-9.5148
▁Tuesday	-9.51493
▁bread	-9.51497
▁whenever	-9.51638
▁blue	-9.51844
▁cool	-9.51902
▁appointment	-9.52015
▁properly	-9.5213
▁role	-9.52294
▁straight	-9.52363
▁impossible	-9.52399
▁gives	-9.52462
▁rain	-9.52468
▁higher	-9.52492
▁liked	-9.52521
▁law	-9.5257
▁Everyone	-9.52679
▁added	-9.52832
▁understanding	-9.53498
▁leaving	-9.53528
▁energy	-9.53809
▁medical	-9.54102
▁film	-9.54102
▁hit	-9.54134
▁protect	-9.54192
▁oil	-9.54391
▁allowed	-9.54432
▁member	-9.5458
▁progress	-9.54585
▁Park	-9.54636
rd	-9.54753
▁heavy	-9.54948
▁preparing	-9.54957
▁ate	-9.54991
▁customs	-9.55005
▁responsibility	-9.55243
▁States	-9.55358
▁huge	-9.55585
▁safe	-9.5587
▁stand	-9.55992
▁walking	-9.56139
▁changing	-9.56147
▁depend	-9.56175
▁cover	-9.56184
▁teach	-9.56241
▁unique	-9.56393
▁safety	-9.56404
▁death	-9.56406
▁deposit	-9.56588
▁Most	-9.56696
▁fried	-9.56728
▁purpose	-9.56966
▁register	-9.57035
▁dress	-9.5708
▁separate	-9.57438
▁temperature	-9.57532
▁kept	-9.57575
▁shouldn	-9.57794
▁biggest	-9.57868
▁snow	-9.58004
▁Not	-9.58022
▁Hong	-9.58518
▁terms	-9.59027
▁April	-9.59058
▁error	-9.5931
▁lead	-9.59445
▁town	-9.59464
▁state	-9.5948
▁feels	-9.59503
▁fresh	-9.59617
▁happens	-9.59643
an	-9.59823
▁swimming	-9.59965
▁nature	-9.59989
▁completely	-9.59994
▁detailed	-9.60026
▁stuff	-9.60404
▁detail	-9.60458
▁With	-9.60503
▁spent	-9.60595
▁Island	-9.60744
▁bill	-9.60756
▁shall	-9.60843
▁confirmation	-9.61047
▁twice	-9.6118
▁American	-9.61201
▁board	-9.61373
▁foods	-9.6143
▁personality	-9.61496
▁lived	-9.61658
▁achieve	-9.61701
▁fixed	-9.61865
▁milk	-9.62102
▁button	-9.6212
▁cat	-9.62327
▁Look	-9.62339
▁window	-9.62736
▁solution	-9.62738
▁communication	-9.63032
▁step	-9.63114
▁standard	-9.63172
▁turned	-9.63217
▁handle	-9.63246
▁subject	-9.63307
▁August	-9.63344
▁knew	-9.63346
▁green	-9.63347
▁promise	-9.63495
▁action	-9.63621
▁direction	-9.63651
▁talked	-9.63716
▁insurance	-9.63734
▁Oh	-9.63765
▁parking	-9.6392
▁third	-9.63952
▁supply	-9.63989
▁homework	-9.64006
▁develop	-9.64244
▁certain	-9.64275
▁industry	-9.64299
▁sit	-9.646
▁wrote	-9.6462
▁angry	-9.64627
▁wine	-9.64792
▁orders	-9.64864
▁York	-9.64874
▁dangerous	-9.64908
▁specific	-9.64917
▁bathroom	-9.64946
▁cute	-9.64948
▁purchased	-9.65041
▁status	-9.65245
▁ball	-9.65381
▁January	-9.65563
▁boy	-9.65585
▁canceled	-9.657
▁enjoyed	-9.65801
▁loved	-9.65878
▁physical	-9.65885
▁meaning	-9.65973
▁carry	-9.66035
l	-9.66149
▁expenses	-9.66211
▁eye	-9.66278
▁focus	-9.66302
▁reduce	-9.66324
▁foreigners	-9.6635
▁include	-9.66385
▁etc	-9.66728
▁mobile	-9.66776
▁t	-9.66873
▁response	-9.66878
▁starts	-9.66885
▁rent	-9.67178
▁further	-9.67191
▁couple	-9.6721
▁smell	-9.67452
▁knowledge	-9.67513
▁shown	-9.67545
▁construction	-9.67654
▁US	-9.67838
▁thoughts	-9.67946
▁diet	-9.67957
▁bigger	-9.68158
▁atmosphere	-9.68164
▁feelings	-9.68184
▁drama	-9.68294
▁chocolate	-9.68523
▁success	-9.68594
▁copy	-9.6868
▁opened	-9.68682
▁caused	-9.68693
▁North	-9.68914
▁estimate	-9.6904
▁act	-9.69069
▁variety	-9.69147
▁mountain	-9.69171
▁throw	-9.693
▁official	-9.69526
▁leader	-9.69593
▁regular	-9.69689
▁missing	-9.69733
▁helped	-9.69763
▁conditions	-9.69782
▁operation	-9.69801
▁considered	-9.69906
▁map	-9.70058
▁effective	-9.70135
▁attach	-9.70163
▁carefully	-9.70182
▁draw	-9.70199
▁approval	-9.70354
▁services	-9.70482
▁build	-9.70538
▁code	-9.70581
most	-9.70775
▁Facebook	-9.7082
▁spring	-9.70897
▁forgot	-9.71032
▁fashion	-9.71051
▁sky	-9.71124
▁March	-9.71148
▁security	-9.71161
▁guy	-9.71212
▁discuss	-9.71232
▁tax	-9.71335
▁inspection	-9.7134
▁island	-9.71402
▁print	-9.71442
▁strength	-9.71442
▁fix	-9.71442
▁blood	-9.71554
▁global	-9.71626
▁repair	-9.71644
▁visiting	-9.71678
▁bar	-9.7169
▁unit	-9.71732
▁score	-9.71771
▁kid	-9.71798
▁translation	-9.71921
▁flowers	-9.71998
▁avoid	-9.71999
▁Her	-9.72
▁conference	-9.72334
▁U	-9.7254
▁competition	-9.72614
▁lack	-9.72693
▁cases	-9.72804
▁museum	-9.72944
▁cafe	-9.72953
▁sleeping	-9.7306
▁buyer	-9.73161
▁nervous	-9.73179
▁Next	-9.73228
▁reserve	-9.73424
▁vegetables	-9.73462
▁create	-9.73499
▁active	-9.73567
▁experiences	-9.73706
▁dark	-9.73782
▁president	-9.73802
▁damage	-9.73822
▁helpful	-9.7391
▁scene	-9.73974
▁pack	-9.74042
▁maintain	-9.74236
▁chose	-9.74498
▁policy	-9.74819
▁figure	-9.74908
▁dad	-9.74932
▁curious	-9.74951
▁fully	-9.75041
▁cheese	-9.75073
▁entered	-9.75091
▁manage	-9.75153
▁respect	-9.75153
▁voice	-9.75172
▁update	-9.75262
▁financial	-9.75285
▁urgent	-9.75288
▁regret	-9.75346
▁registered	-9.75407
▁reach	-9.7551
▁July	-9.75657
▁planned	-9.75685
▁b	-9.75692
▁national	-9.7585
▁Europe	-9.7598
▁wonderful	-9.7599
▁satisfied	-9.76024
▁deep	-9.76085
▁wake	-9.7658
▁ground	-9.76615
S	-9.76692
▁French	-9.76723
▁agency	-9.76745
▁lie	-9.76756
▁makeup	-9.77064
▁hurry	-9.77081
▁February	-9.77082
▁surprised	-9.77124
▁surgery	-9.77443
▁speaking	-9.77563
▁addition	-9.77762
▁H	-9.77914
▁destination	-9.77947
▁According	-9.78112
▁hobby	-9.78163
▁buying	-9.78187
▁registration	-9.78209
▁hang	-9.78241
▁pizza	-9.78318
▁closed	-9.78464
▁behavior	-9.78669
▁stage	-9.78701
▁Canada	-9.78895
▁empty	-9.789
▁somewhere	-9.78919
▁convenience	-9.78932
▁users	-9.78941
▁Actually	-9.79261
▁Right	-9.79268
▁itself	-9.79331
▁alcohol	-9.79415
▁military	-9.79629
▁issued	-9.79825
▁search	-9.79857
▁sentence	-9.799
▁forever	-9.80044
▁device	-9.80133
▁broke	-9.8023
▁bright	-9.80494
▁putting	-9.80505
00	-9.80537
▁advice	-9.80736
▁responsible	-9.80746
▁produce	-9.8076
▁amazing	-9.81097
▁pork	-9.81112
▁influence	-9.81124
▁Kong	-9.81181
▁harder	-9.81399
▁private	-9.81469
▁Sometimes	-9.81506
▁promotion	-9.81532
▁ahead	-9.81674
▁representative	-9.81686
▁war	-9.81703
▁cheap	-9.81827
▁successful	-9.81847
▁beauty	-9.81865
▁themselves	-9.8187
▁realized	-9.81979
▁individual	-9.82001
▁piece	-9.82047
▁access	-9.82187
▁drawing	-9.82225
▁caught	-9.8224
▁wash	-9.82524
▁stomach	-9.82598
▁earth	-9.82652
▁faster	-9.82665
▁50	-9.82691
▁lecture	-9.82746
▁partner	-9.82798
▁songs	-9.82869
▁wondering	-9.82878
▁raise	-9.8289
▁sounds	-9.82924
▁September	-9.82999
▁visa	-9.83165
▁owner	-9.83293
▁considering	-9.83602
▁across	-9.83816
▁Or	-9.83997
▁increased	-9.8403
▁events	-9.84257
▁record	-9.8441
▁appropriate	-9.84462
▁Every	-9.84537
▁Koreans	-9.84648
▁stores	-9.84856
▁pool	-9.84859
▁million	-9.84875
▁church	-9.84906
▁excited	-9.8491
▁academy	-9.84925
▁professional	-9.85123
▁topic	-9.85251
▁graduation	-9.85312
▁shower	-9.85382
▁Put	-9.85466
▁apartment	-9.85586
▁pieces	-9.85587
▁win	-9.85727
▁tastes	-9.85822
▁strange	-9.8603
▁massage	-9.86057
▁sitting	-9.86104
▁missed	-9.8623
▁communicate	-9.86239
▁October	-9.86487
▁F	-9.86653
▁exit	-9.86714
▁pressure	-9.86735
▁bottom	-9.86881
▁remove	-9.87148
▁rich	-9.87153
▁painting	-9.87187
▁section	-9.8753
▁flower	-9.8754
▁notice	-9.87586
▁honest	-9.87598
▁quiet	-9.87659
▁cheaper	-9.87701
▁keeps	-9.87736
▁Make	-9.87811
▁reserved	-9.87857
▁hurts	-9.87874
▁returned	-9.87898
▁sudden	-9.88078
▁Station	-9.88085
▁follows	-9.88089
▁frequently	-9.8809
▁France	-9.88138
▁produced	-9.88257
▁advertisement	-9.88316
▁Didn	-9.88351
▁Lee	-9.88406
▁precious	-9.88457
▁glass	-9.88478
▁safely	-9.88503
▁limit	-9.8852
▁N	-9.89044
▁patient	-9.89161
▁release	-9.89326
▁scheduled	-9.89457
▁stopped	-9.89702
▁slowly	-9.89706
▁tree	-9.8978
▁suggest	-9.89945
▁smartphone	-9.89946
▁die	-9.8996
▁Once	-9.90113
less	-9.90136
▁Day	-9.90247
▁damaged	-9.9027
▁dance	-9.90656
▁rules	-9.90724
▁dry	-9.90813
▁becoming	-9.90839
▁prices	-9.90951
▁Germany	-9.90955
▁Try	-9.91004
▁actor	-9.9102
▁al	-9.91107
▁weekends	-9.91126
▁domestic	-9.91173
▁distance	-9.91217
▁hall	-9.91306
▁entire	-9.91315
▁cars	-9.91389
▁occurred	-9.91763
▁feet	-9.91852
▁24	-9.91932
▁contacted	-9.92198
▁opening	-9.92205
▁anywhere	-9.92215
▁till	-9.92242
▁suit	-9.92437
▁inconvenience	-9.92536
▁proud	-9.92566
▁normally	-9.92617
▁Australia	-9.9289
▁science	-9.92945
▁actual	-9.93374
▁provides	-9.93401
▁mouth	-9.9343
▁delay	-9.93432
▁deadline	-9.93464
▁treat	-9.9365
▁tourist	-9.93741
▁agreement	-9.93763
▁worse	-9.93829
▁connected	-9.93919
▁increasing	-9.94059
▁waste	-9.94137
▁drinks	-9.94177
▁examination	-9.94194
▁quit	-9.94248
▁cultural	-9.9431
▁activity	-9.94347
▁loss	-9.94447
▁doll	-9.9447
▁holidays	-9.94504
▁chair	-9.94627
▁marriage	-9.94652
▁easier	-9.94711
▁receiving	-9.94722
▁graduate	-9.94874
▁minute	-9.95007
▁sheet	-9.9518
▁restaurants	-9.95227
▁structure	-9.95339
▁fault	-9.95396
▁40	-9.95397
▁guest	-9.95518
▁salary	-9.95562
▁simply	-9.95567
▁analysis	-9.95579
▁showed	-9.9563
▁filled	-9.95667
▁fan	-9.95862
▁likes	-9.96075
▁press	-9.9621
▁quick	-9.96235
▁experienced	-9.96355
▁worth	-9.96494
▁areas	-9.96707
▁ideas	-9.96764
▁wallet	-9.96824
▁hungry	-9.96871
▁reality	-9.96876
▁definitely	-9.96878
▁plastic	-9.96973
▁W	-9.97066
▁recommended	-9.97141
lthough	-9.97166
▁charged	-9.97245
▁range	-9.9733
▁select	-9.97355
▁installed	-9.97389
▁soft	-9.97664
▁yellow	-9.97746
▁beef	-9.97868
▁opinions	-9.97966
▁girls	-9.98262
▁borrow	-9.98271
▁growth	-9.98297
▁effects	-9.98343
▁adults	-9.98396
▁modern	-9.98531
▁World	-9.98643
▁standing	-9.98661
▁June	-9.98672
▁built	-9.98675
▁adjust	-9.98797
ng	-9.99047
▁lonely	-9.99081
▁Come	-9.99129
▁contains	-9.99204
▁created	-9.99285
▁asleep	-9.99332
▁golf	-9.99362
▁truth	-9.99479
▁speed	-9.99531
▁disappointed	-9.99537
▁continuously	-9.9954
▁limited	-9.99604
▁wind	-9.99771
▁double	-9.99842
▁depends	-9.99884
▁nowadays	-9.99981
▁noodles	-10.0001
▁likely	-10.0002
▁lesson	-10.0004
▁programs	-10.0013
▁fight	-10.0024
▁pants	-10.0051
▁improved	-10.0071
▁meals	-10.0072
▁realize	-10.0077
▁procedure	-10.0083
▁passion	-10.0089
▁weak	-10.009
▁gym	-10.0115
▁luck	-10.0121
▁budget	-10.0122
▁ten	-10.0128
▁singer	-10.0131
▁leaves	-10.0141
▁round	-10.0148
is	-10.0153
▁characters	-10.0153
▁Due	-10.0163
▁201	-10.0164
▁showing	-10.0176
▁cosmetics	-10.018
▁shuttle	-10.018
▁Everything	-10.0181
▁theater	-10.0191
▁foot	-10.0201
▁spread	-10.022
▁explanation	-10.0222
1	-10.0225
▁suitable	-10.0231
▁currency	-10.0274
▁boring	-10.0274
▁funny	-10.0275
▁heat	-10.0279
▁sugar	-10.0311
▁region	-10.0313
▁elementary	-10.0319
▁trade	-10.0332
▁career	-10.0335
or	-10.0349
▁dessert	-10.0362
▁excellent	-10.0364
▁re	-10.0369
▁internal	-10.0376
▁risk	-10.0386
▁emergency	-10.0413
▁selected	-10.0419
▁task	-10.0439
▁connect	-10.0449
▁Before	-10.046
▁occurs	-10.046
▁himself	-10.0461
▁useful	-10.0461
▁benefits	-10.0463
▁player	-10.0474
▁patients	-10.048
▁s	-10.0487
▁wall	-10.0499
▁cleaning	-10.0507
▁grandmother	-10.0512
en	-10.053
ir	-10.0533
▁towards	-10.055
▁coupon	-10.0554
▁December	-10.0555
▁baseball	-10.0556
▁Good	-10.0558
▁holding	-10.0558
▁birth	-10.057
▁anytime	-10.0571
▁install	-10.0579
▁dogs	-10.0579
▁died	-10.0584
▁particular	-10.0601
▁expense	-10.0603
▁network	-10.0604
▁served	-10.0623
▁numbers	-10.0635
▁average	-10.0635
▁Vietnam	-10.0651
▁arrival	-10.0655
▁remaining	-10.0658
▁Last	-10.0661
▁anyway	-10.0664
▁favor	-10.0664
▁designed	-10.0698
▁begin	-10.0699
▁attitude	-10.0701
▁background	-10.0701
▁earn	-10.0729
▁ran	-10.073
▁stayed	-10.0739
▁confident	-10.0749
▁feedback	-10.0754
▁Whil	-10.0756
▁maybe	-10.0757
▁whatever	-10.0757
▁option	-10.0767
2	-10.0792
▁six	-10.0793
▁economic	-10.0796
▁Give	-10.0797
▁appearance	-10.0805
▁paying	-10.082
▁collect	-10.0825
▁fruit	-10.0829
▁workers	-10.0832
i	-10.0838
▁Samsung	-10.0846
▁smoking	-10.0847
▁server	-10.0852
▁spot	-10.0854
▁weird	-10.087
▁solved	-10.088
▁dreams	-10.0881
▁balance	-10.0891
▁upset	-10.0897
▁manual	-10.0899
▁players	-10.0902
▁aware	-10.0909
▁Asian	-10.0921
ion	-10.0934
▁length	-10.0942
▁village	-10.0943
▁occur	-10.0944
▁article	-10.0947
▁efforts	-10.0952
▁G	-10.0959
▁baggage	-10.0961
▁functions	-10.0966
▁snacks	-10.0966
▁fabric	-10.097
▁messages	-10.0974
▁impressive	-10.0992
▁stories	-10.0994
▁letters	-10.0996
▁bottle	-10.0998
▁reference	-10.1003
se	-10.101
▁calls	-10.101
▁thankful	-10.1043
▁land	-10.1045
▁proposal	-10.105
▁volume	-10.1054
▁someday	-10.1057
▁closer	-10.1067
▁clients	-10.1069
▁gas	-10.1077
▁characteristics	-10.1088
▁named	-10.1093
▁grateful	-10.1094
▁accommodation	-10.1099
▁movement	-10.1099
▁200	-10.1103
▁allow	-10.1107
▁Second	-10.1108
▁setting	-10.1108
▁grades	-10.1146
▁includes	-10.1149
▁laptop	-10.1151
▁direct	-10.1162
I	-10.1184
▁Kimchi	-10.1196
▁Check	-10.1197
▁studies	-10.1198
▁cellphone	-10.1202
▁legal	-10.1206
▁corner	-10.1207
▁whom	-10.1207
▁differences	-10.1216
▁legs	-10.1225
▁tough	-10.1238
▁Tokyo	-10.1247
▁facilities	-10.1247
▁cooperation	-10.1247
▁confidence	-10.1248
▁slow	-10.1254
▁helping	-10.1256
▁link	-10.126
▁piano	-10.1272
▁Thailand	-10.1298
D	-10.1298
▁accurate	-10.1299
▁Two	-10.1299
▁washing	-10.1303
▁joined	-10.1311
▁ok	-10.1327
▁newly	-10.1337
▁smart	-10.1346
▁inquiry	-10.135
▁note	-10.1356
▁math	-10.1372
▁kitchen	-10.1374
▁replace	-10.1391
▁recent	-10.14
▁proper	-10.14
▁scared	-10.1403
▁files	-10.1406
▁gate	-10.1412
▁Like	-10.1416
▁packing	-10.1423
▁jobs	-10.1423
▁K	-10.1443
▁England	-10.1453
▁ended	-10.1461
▁organization	-10.1462
▁Through	-10.1486
▁display	-10.1491
▁usual	-10.1506
▁assignment	-10.1514
▁Sha	-10.1526
▁resources	-10.1537
▁demand	-10.1546
▁concept	-10.1554
ation	-10.1558
▁Airport	-10.1558
▁economy	-10.1559
▁bother	-10.1569
▁boxes	-10.1575
▁term	-10.1577
▁opposite	-10.1582
▁star	-10.1592
▁fans	-10.1601
▁c	-10.1603
▁clearly	-10.1616
▁title	-10.1618
▁clothing	-10.1619
▁animal	-10.162
▁female	-10.1621
▁negative	-10.1622
▁cooked	-10.1626
ness	-10.1635
▁Th	-10.1646
▁volunteer	-10.1653
▁teaching	-10.1655
▁November	-10.1664
▁Among	-10.1665
▁fare	-10.1666
▁expression	-10.1675
▁toilet	-10.1677
▁smaller	-10.168
▁secret	-10.1681
us	-10.1688
▁drop	-10.1692
▁acting	-10.1705
▁upon	-10.1711
▁serve	-10.1714
▁Finally	-10.1718
▁failed	-10.1721
▁dust	-10.1728
▁informed	-10.1737
▁overall	-10.1741
▁cards	-10.1751
▁automatically	-10.1772
▁began	-10.1774
▁storage	-10.1809
▁images	-10.1818
▁drunk	-10.1821
▁duty	-10.1825
▁relevant	-10.1826
▁raw	-10.1848
▁Hotel	-10.185
▁concentrate	-10.1867
▁woke	-10.1882
▁airline	-10.1892
▁director	-10.1893
▁password	-10.1897
▁appear	-10.1926
▁tend	-10.1935
▁submitted	-10.1937
▁placed	-10.194
▁steak	-10.195
▁juice	-10.1951
ach	-10.1955
▁familiar	-10.1955
▁remind	-10.1969
▁fees	-10.1979
▁keeping	-10.1982
▁London	-10.199
▁purchasing	-10.1993
▁wrap	-10.2002
▁applying	-10.2003
▁user	-10.2005
▁container	-10.2005
▁accepted	-10.2007
▁pray	-10.202
▁impact	-10.2045
▁Currently	-10.2045
▁bags	-10.2049
▁Year	-10.2062
▁essential	-10.2065
▁conditioner	-10.2067
▁sun	-10.2076
▁participated	-10.208
to	-10.2082
▁upload	-10.2095
▁truly	-10.2101
▁mood	-10.2111
any	-10.2138
▁processed	-10.2143
▁languages	-10.2152
▁branch	-10.2153
▁slept	-10.2157
▁confused	-10.2158
▁gain	-10.2159
▁14	-10.2167
ting	-10.2181
▁fever	-10.2214
▁force	-10.2216
▁lucky	-10.2221
▁target	-10.2225
▁consumers	-10.2228
30	-10.2229
▁import	-10.223
▁mistakes	-10.2233
▁lovely	-10.2241
▁India	-10.2257
▁Mom	-10.2258
▁lines	-10.2265
▁Unfortunately	-10.2269
▁downtown	-10.227
ic	-10.227
ose	-10.2271
▁wide	-10.2271
▁elevator	-10.2287
▁salad	-10.2289
▁updated	-10.2291
▁smoke	-10.2294
▁reasonable	-10.2303
▁calm	-10.2306
▁R	-10.231
▁L	-10.2317
▁web	-10.2318
▁surface	-10.2324
▁drank	-10.2326
▁Alright	-10.2326
▁percent	-10.2326
▁humans	-10.2337
▁guests	-10.234
▁valuable	-10.2344
▁lately	-10.2345
▁booking	-10.2345
▁promised	-10.2351
▁25	-10.2352
▁latest	-10.2364
▁videos	-10.2378
▁Taiwan	-10.2383
▁ceremony	-10.2383
▁manufacturing	-10.2384
▁sincerely	-10.2385
▁celebrate	-10.2391
▁impression	-10.2401
▁agent	-10.2413
▁500	-10.243
▁Amazon	-10.244
▁community	-10.244
▁Italy	-10.2441
▁concerned	-10.2446
▁introduced	-10.2455
▁riding	-10.2459
▁Aren	-10.2487
▁counter	-10.2504
▁noise	-10.2506
▁actions	-10.2516
▁connection	-10.2518
▁13	-10.2522
▁rights	-10.2528
▁fat	-10.2528
▁laundry	-10.2556
▁fruits	-10.2556
▁trend	-10.2561
▁overtime	-10.2568
▁rid	-10.257
▁vehicle	-10.2576
▁John	-10.2603
▁Sir	-10.261
▁bored	-10.2615
▁advantage	-10.2626
▁warehouse	-10.2627
▁profit	-10.2634
▁ocean	-10.2638
▁stadium	-10.2642
▁shot	-10.2652
▁values	-10.2657
▁16	-10.2661
▁minimum	-10.2674
▁battery	-10.2675
▁mixed	-10.268
▁however	-10.2682
g	-10.269
▁requests	-10.2692
▁developing	-10.27
▁accounting	-10.2703
▁gold	-10.2709
▁salt	-10.2728
▁toward	-10.2728
▁pen	-10.2731
▁seafood	-10.2733
▁complicated	-10.2733
at	-10.2742
▁treated	-10.2743
▁Third	-10.2744
▁singing	-10.2744
▁throughout	-10.2747
▁neck	-10.2754
▁tight	-10.2778
▁Lastly	-10.2794
▁possibility	-10.2854
▁i	-10.2866
▁stressed	-10.2866
▁tourists	-10.287
▁investment	-10.2876
▁explained	-10.2878
▁installation	-10.2885
▁usage	-10.2887
▁musical	-10.2889
▁plate	-10.2903
▁alright	-10.2915
▁incident	-10.2918
▁finishing	-10.2922
me	-10.2924
▁neighborhood	-10.294
▁leg	-10.2977
▁dead	-10.2979
▁divided	-10.2981
▁features	-10.2985
▁flavor	-10.2998
▁scent	-10.3013
▁attending	-10.3015
▁Send	-10.302
▁claim	-10.3038
▁challenge	-10.3047
▁hearing	-10.3048
▁artist	-10.3059
▁disease	-10.3059
▁push	-10.3093
▁Was	-10.3094
▁memorable	-10.3095
▁taught	-10.3096
▁ourselves	-10.3096
▁Keep	-10.3099
▁crowded	-10.3101
▁perfectly	-10.3101
▁translate	-10.3102
▁approved	-10.3104
▁mall	-10.3107
▁contacting	-10.3121
▁growing	-10.3129
▁cargo	-10.3129
▁respond	-10.3138
▁tasks	-10.3157
▁components	-10.3157
▁teeth	-10.3158
▁carried	-10.316
▁annual	-10.316
▁evidence	-10.3219
▁regardless	-10.3219
▁extremely	-10.322
▁Thus	-10.3227
▁suggested	-10.3228
▁king	-10.3237
▁causes	-10.3239
u	-10.3256
▁Singapore	-10.3275
▁knows	-10.3279
▁height	-10.3316
▁eaten	-10.3319
▁sensitive	-10.3345
▁City	-10.3345
▁handsome	-10.3346
▁firm	-10.3353
▁tracking	-10.336
▁airplane	-10.3376
▁profile	-10.3376
▁units	-10.3393
k	-10.3396
▁raining	-10.3397
▁tall	-10.3397
▁deeply	-10.3411
▁commercial	-10.3412
▁totally	-10.3417
▁chat	-10.3426
▁enjoying	-10.3451
▁passing	-10.3455
▁scenery	-10.3472
▁difficulties	-10.3474
▁International	-10.3477
▁attractive	-10.3478
▁personally	-10.3483
▁overcome	-10.3483
▁seller	-10.3515
▁10,000	-10.353
▁Especially	-10.3536
▁slightly	-10.3537
▁sharing	-10.3537
▁situations	-10.3539
▁de	-10.3543
▁ring	-10.3566
▁egg	-10.3571
▁cancellation	-10.3571
▁methods	-10.3577
▁pasta	-10.3582
▁entering	-10.3583
▁designer	-10.3587
▁boat	-10.3591
5	-10.3594
▁Paris	-10.36
▁strategy	-10.36
▁Really	-10.3601
▁Other	-10.3601
▁losing	-10.3609
▁everyday	-10.3609
▁rule	-10.361
▁highly	-10.3619
▁bicycle	-10.3633
▁preparation	-10.3635
▁uses	-10.3649
▁stars	-10.3651
▁welcome	-10.3652
▁invite	-10.3652
▁departure	-10.3665
▁modified	-10.3665
▁advertising	-10.3666
▁exercising	-10.3666
▁tennis	-10.3667
▁regularly	-10.3669
▁glasses	-10.3671
▁marked	-10.3675
▁cheer	-10.3675
▁suffering	-10.3676
▁discussion	-10.37
▁groups	-10.3701
▁ramen	-10.3702
▁approach	-10.3704
▁nose	-10.3709
▁kimchi	-10.373
▁understood	-10.3732
▁V	-10.3738
▁cable	-10.3741
▁sing	-10.3748
▁freely	-10.3748
▁monthly	-10.3751
▁chosen	-10.3751
▁cultures	-10.3762
▁mostly	-10.3768
▁judge	-10.378
▁maximum	-10.3796
▁exciting	-10.3796
▁anniversary	-10.3798
▁participating	-10.3798
▁See	-10.3819
▁mark	-10.3854
▁apart	-10.3858
▁series	-10.3863
▁gotten	-10.3868
▁export	-10.3869
kg	-10.3875
▁requires	-10.3888
▁extend	-10.3897
▁hometown	-10.3907
▁meaningful	-10.3929
▁habit	-10.3931
▁pleasure	-10.3932
▁naturally	-10.3935
▁notify	-10.3938
▁printing	-10.3958
▁brain	-10.3974
▁experiment	-10.3994
▁families	-10.3998
▁certainly	-10.4
▁comments	-10.4007
▁stops	-10.4032
▁names	-10.4037
▁texture	-10.4041
▁trash	-10.406
▁consist	-10.4061
▁political	-10.4064
▁grandfather	-10.4064
▁packaging	-10.4065
▁operating	-10.4066
▁models	-10.4069
▁highest	-10.407
▁army	-10.4072
▁trees	-10.4074
▁teachers	-10.4077
▁eggs	-10.4098
▁snack	-10.4101
▁classroom	-10.4109
▁plant	-10.4115
▁marry	-10.412
▁shared	-10.4129
▁difficulty	-10.4131
▁Kakao	-10.4131
▁Hi	-10.4131
▁loud	-10.4135
▁revised	-10.4144
▁offered	-10.4155
▁Nation	-10.416
▁consideration	-10.4174
▁potential	-10.4181
▁complex	-10.4196
▁CEO	-10.42
▁awesome	-10.42
▁software	-10.42
▁eventually	-10.4201
▁evaluation	-10.4203
▁computers	-10.4206
▁Use	-10.4227
▁saved	-10.4234
▁actors	-10.4239
▁adult	-10.424
▁river	-10.4251
▁log	-10.4266
▁terrible	-10.427
▁homepage	-10.427
▁allows	-10.4274
▁flow	-10.428
▁fits	-10.4288
▁surely	-10.4292
▁kindly	-10.4292
▁nights	-10.4297
▁sets	-10.4302
▁circumstances	-10.4305
▁burden	-10.4309
▁friendly	-10.4313
▁restroom	-10.4314
▁adding	-10.4344
▁involved	-10.4345
▁stairs	-10.4349
▁23	-10.4365
▁umbrella	-10.4385
▁draft	-10.4387
▁foreigner	-10.4391
▁emotions	-10.4396
▁promote	-10.4401
▁loves	-10.4404
▁creative	-10.4407
▁mass	-10.4416
▁mainly	-10.4419
▁finding	-10.4428
▁technical	-10.443
▁officer	-10.4442
▁electronic	-10.4452
▁crime	-10.4454
▁source	-10.446
▁nation	-10.4464
▁O	-10.4474
▁regulations	-10.4478
▁puppy	-10.4479
▁Gangnam	-10.4479
▁ordinary	-10.448
▁stuck	-10.448
▁label	-10.4483
▁previously	-10.4485
▁originally	-10.4486
▁camping	-10.449
▁survey	-10.4518
▁headache	-10.4524
mm	-10.4524
▁band	-10.4527
▁senior	-10.4529
▁fear	-10.4532
▁Han	-10.4537
▁imagine	-10.4538
▁1,000	-10.454
▁peace	-10.455
▁Yesterday	-10.455
▁Jesus	-10.4551
▁discussed	-10.4563
▁factors	-10.4563
▁succeed	-10.4574
▁master	-10.4585
▁happening	-10.4586
▁powder	-10.4598
▁mix	-10.4598
▁male	-10.46
▁relieve	-10.4606
▁bike	-10.4608
▁switch	-10.4612
▁speech	-10.4618
▁coat	-10.4621
▁Children	-10.4621
▁Department	-10.4621
▁importance	-10.4622
▁foundation	-10.4625
▁distribution	-10.4626
▁reflect	-10.4636
▁covered	-10.4642
▁track	-10.4643
▁worker	-10.4647
▁Get	-10.4652
▁desire	-10.4654
▁falling	-10.4665
it	-10.4667
▁shirt	-10.4671
▁corporate	-10.4674
▁cats	-10.4674
▁crazy	-10.4693
▁dancing	-10.4694
▁Congratulations	-10.4696
▁kindergarten	-10.4699
▁organized	-10.4708
c	-10.472
▁operate	-10.4731
▁orange	-10.4744
▁fair	-10.4764
▁depressed	-10.4766
▁dirty	-10.4768
▁Until	-10.4769
▁cities	-10.477
▁seriously	-10.4771
▁2015	-10.4772
▁appeared	-10.4779
▁object	-10.4792
▁signed	-10.4804
▁lying	-10.4813
▁signature	-10.4815
▁introduction	-10.4818
▁traveled	-10.482
▁arrange	-10.4826
▁spending	-10.4836
▁property	-10.4839
▁thoroughly	-10.484
▁stick	-10.4861
▁jacket	-10.4875
▁knowing	-10.4879
▁pattern	-10.4882
▁uniform	-10.4885
▁transaction	-10.4888
▁contain	-10.4892
nna	-10.4898
▁tests	-10.4902
▁comfort	-10.4906
▁Chuseok	-10.4912
▁basketball	-10.4913
▁inventory	-10.4913
▁pleasant	-10.4914
▁scary	-10.4914
▁mask	-10.4926
▁temporary	-10.4936
▁graduated	-10.4936
▁21	-10.4943
▁improvement	-10.4963
▁meant	-10.4969
▁compare	-10.4985
▁autumn	-10.4986
▁uploaded	-10.4996
le	-10.501
h	-10.5014
▁require	-10.5019
▁capital	-10.5025
▁arm	-10.5032
▁statement	-10.5042
▁skill	-10.5047
▁DHL	-10.506
▁options	-10.5061
▁Google	-10.5062
▁income	-10.5064
▁perform	-10.5067
▁Both	-10.5075
▁USA	-10.5075
▁cross	-10.5082
▁designs	-10.509
▁PM	-10.5099
▁degree	-10.5114
▁quotation	-10.5115
▁tool	-10.5127
coming	-10.5129
▁ends	-10.5134
▁Still	-10.5137
▁conducted	-10.5141
▁download	-10.5166
▁recognize	-10.5176
▁channel	-10.519
▁contest	-10.5191
▁honor	-10.5193
▁electric	-10.5196
▁permission	-10.5198
▁represent	-10.5205
▁matters	-10.5215
▁fly	-10.5217
▁ordering	-10.522
▁Students	-10.5223
▁lessons	-10.5224
▁King	-10.5229
▁picked	-10.5244
▁dates	-10.525
▁projects	-10.5252
▁bowl	-10.5253
▁turns	-10.5255
▁origin	-10.5265
▁newspaper	-10.5267
▁stew	-10.5268
▁Time	-10.5282
▁freedom	-10.5288
▁dropped	-10.5288
▁Recently	-10.5288
▁pink	-10.5291
▁depart	-10.5292
▁tasty	-10.5293
▁crying	-10.5299
▁engineering	-10.53
▁joy	-10.5302
▁suits	-10.5307
cm	-10.5312
▁laugh	-10.5322
▁tag	-10.5334
▁runs	-10.5335
▁processing	-10.5341
▁click	-10.5341
▁affect	-10.5345
▁consumer	-10.5347
▁population	-10.5347
▁spirit	-10.5352
▁Hanbok	-10.5365
▁welfare	-10.5365
▁absent	-10.5366
▁Secondly	-10.5368
▁moisture	-10.5368
▁muscles	-10.537
▁packed	-10.5385
▁larger	-10.5387
te	-10.5394
▁cleaned	-10.5399
▁measure	-10.5407
▁Call	-10.5412
▁relationships	-10.5417
▁port	-10.5425
▁raised	-10.5434
▁sport	-10.544
▁Instagram	-10.5443
▁celebrities	-10.5443
▁satisfaction	-10.5443
▁Mary	-10.5449
▁wood	-10.5459
▁soap	-10.5459
am	-10.5467
▁concern	-10.5479
▁monitor	-10.5479
▁garden	-10.5484
▁sentences	-10.5488
▁novel	-10.5502
▁pocket	-10.5502
▁School	-10.5504
▁terminal	-10.5504
▁nurse	-10.5504
▁delete	-10.551
▁court	-10.5514
▁happily	-10.5521
▁Someone	-10.5524
▁Wouldn	-10.5543
▁followed	-10.5547
▁translator	-10.5582
▁parcel	-10.5582
▁doubt	-10.5584
▁teams	-10.5587
▁gifts	-10.5597
▁Women	-10.5599
▁childhood	-10.56
▁Spain	-10.5601
▁reservations	-10.5603
▁Am	-10.5607
▁Show	-10.5607
est	-10.5629
▁Asia	-10.5651
▁organize	-10.5659
▁exhausted	-10.568
▁century	-10.5681
misunderstanding	-10.5684
▁upper	-10.5685
▁arriving	-10.5685
▁shooting	-10.5688
▁environmental	-10.5705
▁searching	-10.571
▁quarter	-10.5734
▁friendship	-10.5745
▁Italian	-10.5747
▁answers	-10.5756
▁plenty	-10.5759
▁pollution	-10.5759
▁constantly	-10.576
▁capacity	-10.5761
▁impressed	-10.5761
▁greatly	-10.5791
▁PO	-10.58
▁shame	-10.5804
▁guarantee	-10.5808
▁fishing	-10.5809
▁appears	-10.5828
▁rental	-10.5834
▁urgently	-10.5844
▁subjects	-10.5849
▁displayed	-10.5849
▁lights	-10.5862
▁upgrade	-10.5889
▁thousand	-10.5904
▁certification	-10.5906
▁spare	-10.5914
▁compensation	-10.5916
▁wanna	-10.592
▁kindness	-10.5925
as	-10.5933
▁searched	-10.5936
▁inconvenient	-10.5954
▁nor	-10.5968
▁feature	-10.5973
▁hire	-10.5975
▁frame	-10.5975
▁paint	-10.598
▁resort	-10.599
▁sells	-10.5993
▁shops	-10.5995
▁Nowadays	-10.6003
▁transferred	-10.6004
▁beforehand	-10.6005
▁worries	-10.6008
▁printed	-10.6019
ers	-10.6022
▁pet	-10.6025
▁expressed	-10.6031
▁systems	-10.604
▁pot	-10.6043
▁comment	-10.605
▁block	-10.6052
▁soul	-10.6057
▁60	-10.6058
▁consultation	-10.6072
▁plays	-10.608
▁external	-10.6084
▁priority	-10.6086
▁comfortably	-10.6086
▁directions	-10.6095
▁Wait	-10.61
▁mad	-10.6107
ased	-10.6115
▁th	-10.6121
▁Human	-10.6121
▁brush	-10.6124
▁Has	-10.6132
▁expecting	-10.6133
▁mode	-10.6147
▁talent	-10.6148
▁suffer	-10.6151
▁sites	-10.6159
▁path	-10.6159
▁attachment	-10.6161
▁weren	-10.6164
▁Great	-10.6169
▁somebody	-10.6171
▁sushi	-10.6171
▁multiple	-10.6172
▁testing	-10.6181
▁logo	-10.6184
▁led	-10.6194
▁walked	-10.621
▁gather	-10.6212
ar	-10.6215
▁records	-10.6215
▁plants	-10.6217
▁exchanged	-10.6224
▁De	-10.6236
▁route	-10.6236
ity	-10.6237
▁spa	-10.6239
▁pencil	-10.6239
▁sticker	-10.6242
▁booth	-10.625
▁significant	-10.6252
▁opportunities	-10.6253
▁phenomenon	-10.6253
▁established	-10.6257
▁worst	-10.6264
▁Talk	-10.6271
▁dye	-10.6276
▁row	-10.6289
▁German	-10.629
▁yours	-10.6309
▁presents	-10.6317
spite	-10.6319
▁refrigerator	-10.6326
▁announcement	-10.6328
▁generation	-10.6329
▁waited	-10.6337
▁arrives	-10.6349
▁posted	-10.6361
▁citizens	-10.6367
▁Dur	-10.6393
▁buses	-10.6395
▁reported	-10.6397
▁commission	-10.6413
▁perm	-10.642
▁dramas	-10.6421
▁input	-10.6422
▁lock	-10.6424
▁loving	-10.6426
▁lady	-10.6426
▁nearest	-10.6428
▁efficiency	-10.6429
▁turning	-10.6432
▁count	-10.6438
▁brown	-10.6439
▁largest	-10.644
▁buildings	-10.6445
▁smooth	-10.6449
▁Ho	-10.6463
▁prize	-10.6477
▁devices	-10.6477
▁advantages	-10.6489
▁failure	-10.6498
▁platform	-10.6498
▁interior	-10.6509
▁Tomorrow	-10.651
▁Another	-10.6511
▁grew	-10.6513
▁About	-10.6514
▁employment	-10.6515
▁horse	-10.6529
▁ideal	-10.6537
▁seven	-10.6542
ever	-10.6551
▁colleagues	-10.6573
▁Russia	-10.6585
▁courage	-10.6585
▁bear	-10.6591
▁shoulder	-10.6592
▁relief	-10.6595
▁dawn	-10.6596
▁facility	-10.6596
▁diverse	-10.6599
▁therapy	-10.6607
▁leads	-10.6619
▁paintings	-10.6636
▁hole	-10.6639
▁factor	-10.6641
,000	-10.6642
▁Olympics	-10.6658
A	-10.6666
▁pop	-10.6667
▁perfume	-10.6668
out	-10.6671
▁m	-10.6678
▁conduct	-10.668
▁illegal	-10.6682
▁Happy	-10.6684
▁nail	-10.6688
▁actively	-10.6691
▁educational	-10.6693
▁gained	-10.6693
▁meetings	-10.6699
▁stable	-10.6699
▁rush	-10.6709
▁moon	-10.671
▁lover	-10.674
▁coke	-10.6747
▁beside	-10.6747
▁Doesn	-10.6759
▁combination	-10.677
▁rock	-10.6771
▁British	-10.6772
▁dormitory	-10.6772
▁forest	-10.6778
▁J	-10.6781
▁affected	-10.6782
▁paste	-10.6783
▁determined	-10.6787
▁prove	-10.6803
▁kill	-10.6804
▁managed	-10.6809
▁sir	-10.681
▁Stop	-10.6813
ary	-10.6823
▁listed	-10.6828
4	-10.6839
▁ignore	-10.6849
▁mirror	-10.6854
▁reaction	-10.6855
▁outdoor	-10.6855
▁Shanghai	-10.6862
▁defective	-10.6865
▁everywhere	-10.6865
▁ABC	-10.6866
▁goals	-10.6871
▁besides	-10.6874
▁apple	-10.6884
▁brands	-10.6888
▁sight	-10.6888
▁rough	-10.6895
▁leading	-10.6907
▁perspective	-10.6944
▁advanced	-10.6949
▁remote	-10.695
▁Any	-10.6951
▁Professor	-10.6952
▁Furthermore	-10.6952
▁Lotte	-10.6954
▁disappeared	-10.6957
▁gathered	-10.6958
▁Instead	-10.6964
▁returning	-10.6969
▁arms	-10.6983
▁exists	-10.6999
▁schools	-10.7
▁East	-10.7007
▁sides	-10.7015
▁camp	-10.7018
▁lens	-10.7018
▁attractions	-10.7022
▁postpone	-10.7029
▁scale	-10.7029
▁swim	-10.704
▁pair	-10.7041
▁f	-10.7041
▁appreciated	-10.7042
▁Daegu	-10.7042
▁beyond	-10.7042
▁penalty	-10.7043
▁leadership	-10.7043
▁dolls	-10.7043
▁immigration	-10.7044
▁SNS	-10.7044
▁handling	-10.7044
▁fastest	-10.7046
▁attendance	-10.7052
▁tools	-10.7058
▁deleted	-10.7059
▁author	-10.7074
▁proceeded	-10.7089
▁w	-10.7107
▁decrease	-10.7114
▁benefit	-10.7122
▁revise	-10.7124
▁host	-10.7127
▁noodle	-10.7127
▁muscle	-10.7128
▁cry	-10.713
▁Company	-10.7134
▁universities	-10.7134
▁rude	-10.7135
▁chatting	-10.7135
▁choosing	-10.7136
▁smoothly	-10.7136
▁creating	-10.7136
▁providing	-10.7136
▁determine	-10.714
▁assigned	-10.7142
▁correctly	-10.7145
▁additionally	-10.7148
hose	-10.7164
he	-10.7172
▁degrees	-10.7173
▁agreed	-10.719
▁joint	-10.7203
▁pull	-10.7219
▁markets	-10.7219
▁menus	-10.7222
▁typhoon	-10.7223
▁suggestion	-10.7223
▁practical	-10.7225
▁cousin	-10.7225
▁competitive	-10.7227
▁Besides	-10.7227
▁faith	-10.7227
▁Moreover	-10.7227
▁embarrassed	-10.7227
▁supporting	-10.7228
▁dating	-10.7235
▁thin	-10.7238
▁houses	-10.724
▁sizes	-10.7244
▁recognized	-10.7247
▁translated	-10.7251
▁represents	-10.7253
▁cloth	-10.7254
▁Love	-10.726
▁reviewing	-10.73
▁modify	-10.7306
ch	-10.7308
▁smells	-10.7315
▁audience	-10.7316
▁earthquake	-10.7316
▁seminar	-10.7317
▁bottles	-10.7317
▁patent	-10.7318
▁leather	-10.732
▁Welcome	-10.732
▁personnel	-10.7321
▁phones	-10.7325
▁hello	-10.7326
▁shoe	-10.7329
▁accounts	-10.733
▁thick	-10.7331
ies	-10.7334
▁traveler	-10.7344
▁relax	-10.7349
▁yen	-10.7368
▁theory	-10.7369
▁elements	-10.7382
▁fail	-10.7382
▁Air	-10.7386
▁labor	-10.7404
▁hat	-10.7409
▁custom	-10.7411
▁discrimination	-10.7415
▁pregnant	-10.7415
▁membership	-10.7415
▁designated	-10.7418
▁lunchtime	-10.7419
▁successfully	-10.7422
▁salty	-10.7424
▁5,000	-10.7429
▁papers	-10.743
▁launch	-10.7451
▁onto	-10.7453
▁grab	-10.7459
▁closest	-10.7475
▁increases	-10.7491
▁danger	-10.7498
▁conclusion	-10.7508
▁skirt	-10.7509
▁manner	-10.751
▁Spanish	-10.751
▁inner	-10.7515
▁chef	-10.7518
▁blind	-10.7527
▁offers	-10.7527
▁recorded	-10.7529
▁touched	-10.7541
▁valid	-10.7548
▁separated	-10.7557
▁continued	-10.7564
▁symptoms	-10.7567
▁sleepy	-10.7579
▁remain	-10.7581
▁engineer	-10.759
▁PC	-10.7594
▁tip	-10.7596
▁stamp	-10.7598
▁afford	-10.7603
▁magazine	-10.7604
▁album	-10.7605
▁romantic	-10.7605
▁heading	-10.7606
▁television	-10.7606
▁session	-10.7607
▁supplies	-10.7608
▁admission	-10.7609
▁flying	-10.7622
3	-10.7623
▁cooperate	-10.7623
▁producing	-10.7629
▁grown	-10.7654
▁severe	-10.7681
M	-10.7691
▁shipper	-10.7694
▁filter	-10.7697
▁uncle	-10.7699
▁ingredient	-10.7701
▁roll	-10.7702
▁potato	-10.7702
▁pepper	-10.7703
▁guitar	-10.7703
▁authority	-10.7703
▁bridge	-10.7703
▁wrapping	-10.7704
▁injured	-10.7704
▁indeed	-10.7704
▁collection	-10.7704
▁practicing	-10.7705
▁salmon	-10.7705
▁Nothing	-10.7707
▁charges	-10.7709
▁Line	-10.771
▁focused	-10.7722
▁hide	-10.7724
▁finger	-10.7732
▁radio	-10.7732
▁requirements	-10.7738
▁sort	-10.7746
▁answered	-10.7753
▁passengers	-10.7755
▁22	-10.7757
▁lies	-10.777
▁powerful	-10.78
▁stupid	-10.7801
▁component	-10.7801
▁receipts	-10.7804
▁dollar	-10.7806
▁exams	-10.7807
▁steam	-10.7808
▁steps	-10.781
▁jam	-10.7811
▁Hey	-10.7814
▁basis	-10.7815
▁stronger	-10.7815
▁errors	-10.7823
▁pages	-10.7827
▁alive	-10.7832
▁reduced	-10.7844
▁estimated	-10.7844
▁discounted	-10.7846
▁boarding	-10.7847
▁era	-10.7853
▁cotton	-10.7864
▁writer	-10.7865
▁lend	-10.7881
▁Un	-10.7886
▁obtain	-10.7896
▁wire	-10.7898
▁electricity	-10.7904
▁parties	-10.7905
▁strongly	-10.7912
▁proceeding	-10.7922
▁gap	-10.7925
▁War	-10.7932
▁pleased	-10.7942
▁achieved	-10.7949
▁hardly	-10.7961
▁interests	-10.7968
▁50,000	-10.7985
▁machines	-10.7999
▁cherry	-10.8
▁cosmetic	-10.8002
▁extension	-10.8003
▁grilled	-10.8004
▁blanket	-10.8004
▁regulation	-10.8005
▁remains	-10.8005
f	-10.8013
▁Firstly	-10.8018
▁towel	-10.8023
▁Jane	-10.8027
▁accomplish	-10.8029
▁attended	-10.8032
▁touching	-10.8076
▁beans	-10.809
hanging	-10.8095
▁secure	-10.8098
▁harm	-10.8099
▁hidden	-10.8101
▁basement	-10.8102
▁nobody	-10.8104
▁closing	-10.8105
▁Anyway	-10.8105
▁iPhone	-10.8105
▁begins	-10.8107
▁generally	-10.8108
▁intention	-10.8108
▁format	-10.8115
▁expert	-10.8117
▁connecting	-10.8132
▁worn	-10.8135
▁wore	-10.8149
▁digital	-10.8164
▁belt	-10.8169
▁efficient	-10.8203
▁inquiries	-10.8203
▁pride	-10.8204
▁levels	-10.8208
▁salon	-10.8213
▁printer	-10.8218
▁rainy	-10.8226
▁IT	-10.8226
▁invited	-10.8227
▁weekdays	-10.824
▁belly	-10.8245
▁visitors	-10.8246
▁d	-10.8252
▁relatives	-10.8255
▁cap	-10.8261
▁practiced	-10.8266
▁requesting	-10.8284
▁liquid	-10.8301
▁defect	-10.8303
▁continuous	-10.8305
▁painful	-10.8305
▁High	-10.8306
▁gradually	-10.8306
▁Earth	-10.8307
▁everybody	-10.8308
▁UK	-10.8308
▁hamburger	-10.8312
▁journey	-10.8313
▁Onl	-10.8315
▁cancer	-10.8323
▁speaker	-10.8335
▁removed	-10.8345
▁fields	-10.8353
▁cookies	-10.8357
▁supported	-10.8357
▁lobby	-10.8392
▁attack	-10.8395
▁Though	-10.8395
▁escape	-10.84
▁describe	-10.8403
▁Festival	-10.841
▁maintenance	-10.8411
▁frustrated	-10.8411
▁verify	-10.8411
▁entry	-10.8411
▁smiling	-10.8411
▁relatively	-10.8412
▁unlike	-10.8412
▁boiled	-10.8414
▁bills	-10.8417
▁freight	-10.8417
▁invitation	-10.8417
▁conflict	-10.8418
▁administration	-10.8418
▁protection	-10.8424
▁race	-10.8436
▁initial	-10.844
p	-10.8455
▁sum	-10.8459
▁wave	-10.8462
▁Won	-10.8467
▁chart	-10.8489
▁cups	-10.8491
▁Me	-10.8498
▁2016	-10.8512
▁awkward	-10.8515
▁babies	-10.8516
▁KakaoTalk	-10.8516
▁identify	-10.8516
▁cried	-10.8516
▁skip	-10.8517
▁cutting	-10.8521
▁forms	-10.8521
▁Ok	-10.8522
▁Young	-10.8525
▁performed	-10.8527
▁assistant	-10.853
▁arranged	-10.8545
do	-10.8547
▁shy	-10.8554
▁smartphones	-10.8557
▁equal	-10.8565
▁soldiers	-10.8573
▁ending	-10.8579
▁examine	-10.8579
▁300	-10.8593
▁introduc	-10.8604
▁sharp	-10.8615
▁tested	-10.8622
▁goodbye	-10.8622
▁specifically	-10.8623
▁Turn	-10.8631
▁White	-10.8635
▁ski	-10.8636
▁wheel	-10.8637
▁saving	-10.8638
▁academic	-10.8638
▁reached	-10.8642
ry	-10.8643
▁iron	-10.8644
▁independent	-10.8648
▁attract	-10.8653
▁examples	-10.8679
▁aspects	-10.869
▁recover	-10.8705
▁repeat	-10.8707
▁disappear	-10.8715
▁load	-10.8716
▁emotional	-10.8729
▁pharmacy	-10.873
▁Fortunately	-10.873
▁noisy	-10.873
▁hiking	-10.873
▁sightseeing	-10.8731
▁prohibited	-10.8731
▁briefly	-10.8731
▁potatoes	-10.8733
▁mouse	-10.8735
▁schedules	-10.8736
▁Beach	-10.8736
▁launched	-10.8737
▁wherever	-10.8738
▁lipstick	-10.8739
▁criminal	-10.874
▁Ma	-10.874
▁gathering	-10.8748
▁teenagers	-10.8753
▁listened	-10.8765
▁drawn	-10.8768
▁split	-10.8781
▁individuals	-10.8793
▁aunt	-10.8823
▁central	-10.8828
▁weakness	-10.8836
▁tuition	-10.8839
▁clearance	-10.8839
▁Tower	-10.8839
▁elderly	-10.8839
▁Itaewon	-10.8839
▁strict	-10.8842
▁31	-10.8849
▁Indian	-10.8865
▁replaced	-10.8869
▁fighting	-10.887
the	-10.8874
▁flat	-10.888
▁enable	-10.8881
▁stone	-10.89
▁forgive	-10.8913
▁discounts	-10.8926
▁Re	-10.893
C	-10.8941
▁Osaka	-10.8948
▁policies	-10.8948
▁furniture	-10.8948
▁Kakaotalk	-10.8948
▁concentration	-10.8948
▁composed	-10.8951
▁standards	-10.896
▁garbage	-10.8961
0,000	-10.8966
▁square	-10.897
▁circle	-10.8976
▁magic	-10.8987
▁noticed	-10.8991
▁carrying	-10.8997
▁fries	-10.9012
▁bas	-10.9014
▁accidents	-10.903
▁differ	-10.9035
▁gun	-10.9037
▁manufacture	-10.9039
▁calculate	-10.9049
▁contribute	-10.9053
▁Everybody	-10.9059
▁improving	-10.9061
▁herself	-10.9061
▁managing	-10.9061
▁medium	-10.9062
▁belong	-10.9067
▁matches	-10.9072
▁shrimp	-10.9073
▁Center	-10.9073
▁description	-10.9075
▁concerns	-10.9091
▁tries	-10.9108
▁neighbor	-10.9114
won	-10.9152
▁offering	-10.9155
▁resume	-10.9171
▁Enjoy	-10.9171
▁supports	-10.9171
▁bakery	-10.9172
▁graduating	-10.9173
▁truck	-10.9175
▁allergic	-10.9175
▁abilities	-10.9177
▁absence	-10.9177
▁2014	-10.9179
▁tourism	-10.918
▁killed	-10.9181
▁broadcasting	-10.9185
▁characteristic	-10.9186
▁vitamin	-10.9186
▁identification	-10.9189
▁temple	-10.9189
▁closely	-10.919
▁collected	-10.9192
▁native	-10.9194
▁purposes	-10.9204
▁tie	-10.9211
▁Y	-10.922
▁ears	-10.9236
▁dealing	-10.9249
all	-10.9249
▁motion	-10.9252
▁conversations	-10.926
▁exercises	-10.9272
▁engine	-10.9283
▁analyze	-10.9285
▁envy	-10.9285
▁sunlight	-10.9286
▁exclusive	-10.9286
▁diary	-10.9287
▁decisions	-10.9288
▁passionate	-10.9288
ance	-10.929
▁positively	-10.9295
▁blocked	-10.9295
▁lips	-10.9331
▁River	-10.9332
▁stored	-10.9334
▁presented	-10.9346
▁bath	-10.9355
▁strap	-10.9382
▁advise	-10.9384
30,000	-10.9394
▁knife	-10.94
▁Hawaii	-10.94
▁Museum	-10.94
▁facial	-10.94
▁Unlike	-10.9401
▁hospitalized	-10.9401
▁fluent	-10.9402
▁Apple	-10.9402
▁raising	-10.9405
▁published	-10.9406
▁Hope	-10.9406
▁socks	-10.9409
▁hero	-10.9416
▁entertainment	-10.9418
▁religion	-10.9418
▁genre	-10.942
▁architecture	-10.9423
▁vision	-10.9423
▁European	-10.9428
▁26	-10.9435
▁layer	-10.9439
▁discussing	-10.9448
▁Ms	-10.9449
▁seasons	-10.9453
▁believed	-10.946
▁metal	-10.9462
▁instructions	-10.9477
▁fundamental	-10.9478
▁refunded	-10.9478
▁willing	-10.9494
▁prior	-10.9515
▁grammar	-10.9516
▁happier	-10.9516
▁manners	-10.9518
▁replacement	-10.9518
▁excuse	-10.952
▁accurately	-10.9521
▁particularly	-10.9521
▁brings	-10.9523
▁alarm	-10.9527
▁amusement	-10.9529
▁reports	-10.9538
▁attendant	-10.9539
▁afterward	-10.9539
▁badly	-10.9548
▁reviews	-10.9553
▁adapt	-10.9562
▁sometime	-10.9564
uch	-10.9589
▁toys	-10.9596
▁streets	-10.9619
▁couples	-10.9627
▁fantastic	-10.9631
▁lazy	-10.9634
▁PayPal	-10.9634
▁celebrity	-10.9634
▁midnight	-10.9634
▁frozen	-10.9635
▁forgotten	-10.9638
▁imported	-10.9649
▁procedures	-10.965
▁catalog	-10.9653
▁repaired	-10.9655
▁fuel	-10.966
▁formed	-10.9665
▁acts	-10.9667
▁promotional	-10.9669
▁pour	-10.9673
▁cleaner	-10.9674
▁processes	-10.9679
▁cigarettes	-10.97
▁consult	-10.9727
▁scenes	-10.973
ce	-10.9736
▁towels	-10.9746
▁enhance	-10.9748
▁Write	-10.9754
▁resolve	-10.9755
▁yes	-10.9755
▁nuclear	-10.9756
▁harmful	-10.9757
▁effectively	-10.976
▁stolen	-10.976
▁announced	-10.9765
▁billion	-10.9766
▁greatest	-10.9769
▁chemical	-10.9776
▁burger	-10.978
▁focusing	-10.9805
▁pills	-10.9813
▁clock	-10.9819
▁kick	-10.9827
▁waves	-10.9829
▁transport	-10.9829
▁artists	-10.983
▁broadcast	-10.9849
▁expand	-10.9855
▁surprise	-10.9856
▁invest	-10.9861
▁Western	-10.9871
▁historical	-10.9872
▁duties	-10.9873
▁remittance	-10.9874
▁accessories	-10.9874
▁participation	-10.9874
▁fingers	-10.9874
▁articles	-10.9876
▁constant	-10.9879
▁suffered	-10.9882
▁emotion	-10.9895
▁participants	-10.9895
▁relieved	-10.9896
▁measures	-10.9909
▁mission	-10.9922
▁forced	-10.9926
▁proof	-10.9927
▁rains	-10.9942
▁funds	-10.9946
▁profits	-10.9952
▁More	-10.9959
▁farm	-10.9968
▁grows	-10.9973
▁typical	-10.9984
▁mountains	-10.9985
▁unexpected	-10.9994
▁TOEIC	-10.9995
▁identity	-10.9996
▁patience	-10.9996
▁category	-10.9997
▁wrapped	-10.9999
▁selection	-11.0002
▁payments	-11.0004
▁arts	-11.0005
▁talented	-11.0005
▁artificial	-11.0008
▁solutions	-11.0009
▁measured	-11.0018
▁wealth	-11.0021
▁operated	-11.0023
▁negotiation	-11.0023
▁beverage	-11.0023
▁withdraw	-11.0027
▁applications	-11.0035
▁sex	-11.0035
▁enjoyable	-11.0044
▁pan	-11.0055
▁Regard	-11.006
▁behaviors	-11.0075
▁checks	-11.0083
▁complaints	-11.0083
▁workout	-11.0093
▁satisfy	-11.0105
▁colored	-11.0113
▁resting	-11.0116
ealand	-11.0118
▁confusion	-11.0119
▁propose	-11.012
▁spaghetti	-11.0122
▁independence	-11.0122
▁solving	-11.013
▁settled	-11.0135
▁alternative	-11.0143
▁imagination	-11.0145
▁playground	-11.0145
▁trial	-11.0146
▁workshop	-11.0148
▁chief	-11.0148
▁landscape	-11.0149
▁recommendation	-11.0151
▁manufacturer	-11.0159
▁Russian	-11.016
▁objects	-11.0165
▁Team	-11.0167
▁expectations	-11.0167
▁wishes	-11.0169
▁performances	-11.0169
▁edge	-11.0189
▁joining	-11.0192
T	-11.0198
▁businesses	-11.0214
x	-11.0214
▁pets	-11.0218
▁expressions	-11.0223
▁breaking	-11.0225
▁Africa	-11.023
▁obvious	-11.0242
▁sweat	-11.0243
▁instant	-11.0244
▁Taekwondo	-11.0244
▁solid	-11.0245
▁sufficient	-11.0245
▁civil	-11.0245
▁outstanding	-11.0248
▁telephone	-11.0249
▁encourage	-11.0255
▁nails	-11.0256
▁mental	-11.0256
▁fortune	-11.0257
▁quote	-11.0257
▁calculated	-11.0264
▁adjusted	-11.0264
▁hop	-11.0267
▁neat	-11.027
▁punishment	-11.0271
▁ill	-11.0271
▁campaign	-11.0271
▁blocks	-11.0271
▁assessment	-11.0273
▁Add	-11.03
▁advertisements	-11.0301
▁partners	-11.0311
▁Never	-11.0324
▁tower	-11.0327
▁specifications	-11.0328
▁figures	-11.034
▁pure	-11.0361
▁Think	-11.0362
▁vacuum	-11.037
▁yoga	-11.0371
▁cheapest	-11.0373
▁insert	-11.0383
▁courses	-11.0386
lways	-11.0387
▁beds	-11.0392
▁sincere	-11.0394
▁robot	-11.0398
▁lawyer	-11.0399
▁hundred	-11.04
▁posture	-11.0401
▁attraction	-11.0403
▁phrase	-11.0403
▁ma	-11.0403
▁Bank	-11.0404
▁argue	-11.0404
▁100,000	-11.0406
▁Sam	-11.0413
▁core	-11.0423
▁award	-11.0439
▁pig	-11.0442
▁diseases	-11.0445
▁challenges	-11.0449
▁assist	-11.0468
▁Sh	-11.0475
▁divide	-11.0485
▁establish	-11.0488
▁crisis	-11.0499
▁Daejeon	-11.0499
▁happiest	-11.0499
▁strategies	-11.0499
▁throat	-11.05
▁Something	-11.05
▁rode	-11.0501
▁waist	-11.0501
▁20,000	-11.0502
▁Palace	-11.0502
▁Life	-11.0502
▁automatic	-11.0507
▁KRW	-11.0509
▁discharged	-11.051
▁taxes	-11.0511
▁essence	-11.0528
▁resolution	-11.0528
▁feed	-11.0528
▁hairstyle	-11.0529
▁investigation	-11.0529
▁essay	-11.0529
▁corporation	-11.0532
▁Start	-11.0534
▁tears	-11.0538
▁talks	-11.054
▁lotion	-11.0544
▁vessel	-11.0549
▁rise	-11.0551
▁majored	-11.0552
▁stated	-11.0566
▁dressing	-11.0589
▁moments	-11.0597
▁pad	-11.0598
man	-11.06
▁tape	-11.0613
▁Hav	-11.0614
▁hesitate	-11.0615
▁buyers	-11.0621
▁critical	-11.0628
▁Perhaps	-11.0628
▁consumption	-11.0629
▁fancy	-11.0629
▁absolutely	-11.0629
▁injury	-11.0631
▁reflected	-11.0639
▁fairy	-11.064
years	-11.0643
▁predict	-11.0649
▁parent	-11.065
▁l	-11.0653
▁enterprise	-11.0654
▁locked	-11.0654
▁fourth	-11.0655
▁nutrients	-11.066
▁animation	-11.0661
▁regard	-11.0667
▁habits	-11.0694
▁burn	-11.0697
w	-11.0709
one	-11.0745
▁sandwich	-11.0757
▁Brazil	-11.076
▁Manila	-11.076
▁calendar	-11.076
▁literature	-11.076
▁unfamiliar	-11.076
▁badminton	-11.076
▁intelligence	-11.0761
▁challenging	-11.0761
▁popularity	-11.0763
▁politics	-11.0764
▁classical	-11.0767
▁joyful	-11.0767
▁facing	-11.0768
▁drew	-11.0775
▁manufactured	-11.078
▁intern	-11.078
▁beat	-11.0781
▁passes	-11.0791
▁internship	-11.0793
▁honeymoon	-11.0793
▁pronunciation	-11.0793
▁necklace	-11.0794
▁keyboard	-11.0794
▁Service	-11.0794
▁co	-11.0794
▁bookstore	-11.0796
ive	-11.0797
▁portion	-11.0797
▁studio	-11.0799
▁falls	-11.0803
▁corrected	-11.0805
▁sensor	-11.0807
▁gender	-11.0808
▁workplace	-11.0808
▁forecast	-11.0809
telling	-11.0812
▁AM	-11.0813
▁greet	-11.0823
▁Shouldn	-11.0828
▁scan	-11.0828
▁cast	-11.0845
▁Its	-11.0868
▁hotels	-11.087
▁scores	-11.087
▁assignments	-11.0875
▁Hall	-11.0879
▁narrow	-11.0882
▁signs	-11.0885
▁zoo	-11.0888
▁Chicago	-11.0893
▁hobbies	-11.0893
▁Usually	-11.0893
▁Business	-11.0894
▁quantities	-11.0894
▁flour	-11.0894
▁violence	-11.0894
▁exposed	-11.0896
▁worrying	-11.0896
▁golden	-11.0897
▁heaven	-11.0898
▁shocked	-11.0898
▁cells	-11.0899
▁relaxed	-11.0903
▁settle	-11.0904
▁noon	-11.0905
▁warming	-11.091
▁shoot	-11.0912
▁survive	-11.0912
▁jump	-11.0914
▁answering	-11.0916
▁rates	-11.0922
▁joke	-11.0923
▁seal	-11.0926
▁colleague	-11.0929
▁principle	-11.093
▁composition	-11.0932
um	-11.0936
▁zone	-11.0938
▁root	-11.0945
▁Up	-11.0947
and	-11.0947
▁coins	-11.0947
▁notes	-11.095
▁Jung	-11.095
▁coating	-11.0952
▁differently	-11.096
▁greater	-11.0964
▁neighbors	-11.0965
▁sand	-11.097
▁formal	-11.0985
▁Ask	-11.0998
▁mention	-11.101
▁San	-11.1014
▁reception	-11.1029
▁neither	-11.1029
▁luxurious	-11.1029
▁disabled	-11.1029
▁motto	-11.1029
▁sincerity	-11.1029
▁altogether	-11.1029
▁virtual	-11.1031
▁evaluate	-11.1034
▁silver	-11.1034
▁2,000	-11.1036
▁combined	-11.1039
▁proposed	-11.1044
▁info	-11.1047
ring	-11.1048
▁shortly	-11.1049
▁trips	-11.1054
▁washed	-11.106
▁lounge	-11.1065
▁vegetable	-11.1065
▁unusual	-11.1066
▁motorcycle	-11.1067
▁protein	-11.1067
▁eight	-11.1068
▁caring	-11.1071
▁finance	-11.1071
▁former	-11.1074
▁notification	-11.1075
▁Us	-11.1082
▁seconds	-11.1089
▁bean	-11.1089
▁Find	-11.1093
ment	-11.1094
▁desert	-11.1095
▁pursue	-11.1111
▁ratio	-11.1128
▁damages	-11.1144
▁Art	-11.1148
▁brief	-11.1149
▁drug	-11.1157
▁industrial	-11.1159
▁fake	-11.1159
▁index	-11.1162
▁Michael	-11.1165
▁Hongkong	-11.1166
▁revenue	-11.1166
▁Vietnamese	-11.1166
▁barely	-11.1166
▁curry	-11.1166
▁existence	-11.1166
▁rarely	-11.1167
▁accidentally	-11.1167
▁purchases	-11.1177
▁sexual	-11.1179
▁boys	-11.1182
▁edit	-11.1182
▁faulty	-11.1186
▁stickers	-11.1189
▁anybody	-11.1189
▁congratulate	-11.1197
▁cuisine	-11.1205
▁ensure	-11.1205
ous	-11.1208
▁reviewed	-11.1214
▁opens	-11.1218
▁signal	-11.1219
▁serving	-11.1221
▁indoor	-11.1223
▁poster	-11.1224
▁sour	-11.1242
▁institution	-11.1253
▁complaint	-11.1271
▁Sound	-11.1274
▁fulfill	-11.1299
▁criteria	-11.1304
▁Halloween	-11.1304
▁strawberry	-11.1304
▁waterproof	-11.1305
▁approximately	-11.1305
▁tiring	-11.1307
▁specialty	-11.1307
▁dried	-11.1307
▁offline	-11.1309
▁behalf	-11.1311
▁super	-11.1311
▁curve	-11.1316
▁singers	-11.1321
▁James	-11.1324
▁lake	-11.1336
▁Ji	-11.1337
▁basket	-11.1342
▁scholarship	-11.1345
▁brochure	-11.1346
▁Olympic	-11.1346
▁recipe	-11.1347
▁patterns	-11.135
▁uniforms	-11.1351
▁surrounding	-11.1356
▁blow	-11.1357
▁films	-11.1357
▁crew	-11.1358
▁dying	-11.1361
▁Watch	-11.1372
▁remembered	-11.1374
▁relations	-11.1377
▁Eat	-11.1406
▁loose	-11.1433
▁Indonesia	-11.1435
▁concrete	-11.1444
▁consignee	-11.1446
▁sat	-11.1446
K	-11.1448
▁rejected	-11.1448
▁recognition	-11.1448
▁Education	-11.1451
▁admit	-11.1452
▁recovery	-11.1454
▁David	-11.1454
▁distributed	-11.1455
▁sacrifice	-11.1458
▁borrowed	-11.1465
▁decreased	-11.1467
▁intended	-11.1467
▁Americans	-11.1469
▁net	-11.147
▁shampoo	-11.147
▁collecting	-11.1488
▁disposable	-11.1489
▁supermarket	-11.1489
▁headquarter	-11.1489
▁notebook	-11.149
▁angle	-11.1495
▁spoon	-11.1496
▁Games	-11.1499
▁g	-11.1511
O	-11.152
▁breath	-11.1523
▁headquarters	-11.1544
▁instrument	-11.155
▁Product	-11.1553
▁attempt	-11.1557
▁California	-11.1568
▁organizations	-11.157
▁experts	-11.1575
▁assume	-11.1582
▁philosophy	-11.1589
▁annoying	-11.159
▁trading	-11.1591
▁quietly	-11.1595
▁thinks	-11.1596
▁cab	-11.1597
▁ancient	-11.1597
▁climbing	-11.1601
▁dough	-11.1605
▁lightly	-11.1618
▁steel	-11.1629
▁bulk	-11.1633
▁midterm	-11.1634
▁climate	-11.1635
▁stands	-11.1641
line	-11.1646
▁chest	-11.1646
▁cakes	-11.1648
▁resident	-11.1651
▁despi	-11.1654
L	-11.1679
▁resemble	-11.1689
▁continues	-11.1695
▁3,000	-11.1709
b	-11.1712
▁bite	-11.1716
▁Beijing	-11.1733
▁numerous	-11.1733
▁defendant	-11.1733
▁winning	-11.1734
▁mechanical	-11.1734
▁Valentine	-11.1734
▁Nobody	-11.1734
▁jeans	-11.1737
▁anger	-11.1737
▁destroyed	-11.1737
▁Wow	-11.1738
▁chopsticks	-11.1739
▁physically	-11.1741
▁specialized	-11.1743
▁refused	-11.1743
▁charming	-11.1748
▁somewhat	-11.1749
▁Dong	-11.1758
▁ear	-11.1765
▁emails	-11.1774
▁ha	-11.1776
▁karaoke	-11.1779
▁sunset	-11.1779
▁picnic	-11.178
▁allowance	-11.178
▁textbook	-11.1782
▁tooth	-11.1782
▁artwork	-11.1783
▁instruction	-11.1785
▁institute	-11.1785
▁bird	-11.1799
▁2.	-11.1802
▁sooner	-11.1815
▁hearts	-11.1819
▁Honey	-11.1837
▁Dr	-11.1853
▁creates	-11.1857
▁divorce	-11.1866
▁leisure	-11.1878
▁mukbang	-11.188
▁Honestly	-11.188
▁Manager	-11.1881
▁fought	-11.1881
▁vary	-11.1884
▁widely	-11.1884
▁accordingly	-11.1908
▁beings	-11.1908
▁mart	-11.1913
▁god	-11.1917
▁chairs	-11.1919
▁mess	-11.192
▁Consider	-11.1921
▁prescription	-11.1928
▁specification	-11.1932
▁laws	-11.1933
▁blog	-11.1933
▁earned	-11.1933
▁heating	-11.1941
▁Cup	-11.195
▁blossoms	-11.1951
▁competitors	-11.1956
▁trends	-11.1978
▁jealous	-11.2022
▁views	-11.2027
▁harmony	-11.2029
▁Middle	-11.2029
▁fantasy	-11.2029
▁steadily	-11.2029
▁privacy	-11.2029
▁nursing	-11.203
▁Thai	-11.2031
▁admitted	-11.2032
▁festivals	-11.2033
▁Open	-11.2036
▁lowest	-11.2037
▁organic	-11.2039
▁excluded	-11.204
▁OK	-11.2045
▁considerate	-11.2047
▁vote	-11.2057
▁hardest	-11.206
▁behave	-11.2062
▁coin	-11.207
▁shift	-11.2079
▁Mountain	-11.2081
▁Christian	-11.2081
▁souvenir	-11.2082
▁installing	-11.2084
▁idol	-11.2086
▁wound	-11.2095
▁topics	-11.2113
▁sisters	-11.2123
▁deals	-11.2128
▁twin	-11.2135
▁dreamed	-11.2144
▁flu	-11.2154
▁regards	-11.2176
▁chances	-11.2179
▁enemy	-11.2181
▁Turkey	-11.2181
▁sashimi	-11.2181
▁courier	-11.2181
▁Harry	-11.2181
▁worldwide	-11.2181
▁flexible	-11.2181
▁supplied	-11.2181
▁copies	-11.2182
▁Jackal	-11.2182
▁completion	-11.2184
▁exchanging	-11.2184
▁prescribed	-11.2185
▁packs	-11.2185
▁bodies	-11.2187
▁extent	-11.219
▁gently	-11.219
▁stood	-11.2193
▁Out	-11.2195
▁fallen	-11.2197
▁charging	-11.2199
▁soju	-11.2201
▁utilize	-11.2216
▁rely	-11.222
▁minor	-11.2222
▁President	-11.2226
▁unfair	-11.2229
▁suicide	-11.2232
▁technique	-11.2235
▁applicant	-11.2236
▁poem	-11.2238
▁Market	-11.2239
▁warning	-11.224
▁prince	-11.2247
▁aspect	-11.2248
▁filming	-11.2255
▁lectures	-11.2265
6	-11.2272
▁lab	-11.2293
▁filling	-11.2313
▁announce	-11.2322
ne	-11.2325
▁bonus	-11.2331
▁excessive	-11.2333
▁cafeteria	-11.2335
▁Eventually	-11.2335
▁earliest	-11.2335
▁unknown	-11.2335
▁excluding	-11.2335
▁football	-11.2335
▁organizing	-11.2336
▁grandma	-11.2336
▁rapidly	-11.2336
▁Nice	-11.2337
▁anxious	-11.2337
▁slight	-11.234
▁sexy	-11.2342
nt	-11.2346
▁peaceful	-11.2349
▁burning	-11.2351
▁recall	-11.2353
▁ignored	-11.2358
▁rare	-11.2359
▁resolved	-11.2363
▁extreme	-11.2364
▁dressed	-11.2368
▁symbol	-11.237
▁affects	-11.2377
▁capture	-11.2379
▁statements	-11.2383
▁ceiling	-11.2387
▁shake	-11.2388
▁partnership	-11.239
▁vegetarian	-11.2391
▁battle	-11.2392
▁element	-11.2392
▁wrist	-11.2393
▁supplier	-11.2393
▁breathe	-11.2396
▁handled	-11.2405
▁shoulders	-11.2407
▁carbon	-11.2408
▁wise	-11.2418
▁trained	-11.242
▁techniques	-11.2435
pm	-11.2438
▁breaks	-11.2441
▁drugs	-11.2445
▁endure	-11.2451
side	-11.2455
▁climb	-11.2466
▁tips	-11.2482
▁Republic	-11.2487
▁jewelry	-11.2491
▁Suwon	-11.2491
▁tongue	-11.2492
▁unforgettable	-11.2492
▁Three	-11.2492
▁transferring	-11.2496
▁speaks	-11.2496
▁expired	-11.2499
▁Mother	-11.25
▁regions	-11.2505
▁styles	-11.2507
▁distinguish	-11.2509
▁deposited	-11.2524
▁bloom	-11.2529
▁spoke	-11.2533
▁channels	-11.2537
▁approve	-11.2537
▁none	-11.2538
▁Apply	-11.2545
▁flights	-11.2545
▁premium	-11.2545
▁haircut	-11.2547
▁nickname	-11.2547
▁palace	-11.2549
▁posts	-11.2549
▁lacking	-11.2553
▁officers	-11.2557
▁charm	-11.256
▁brothers	-11.2562
▁roof	-11.2564
▁correction	-11.258
▁lift	-11.2581
▁dorm	-11.2591
▁Men	-11.2598
▁memorize	-11.2636
▁Malaysia	-11.2638
▁windows	-11.2643
▁prison	-11.2647
▁swollen	-11.2649
▁Gwangju	-11.265
▁drivers	-11.265
▁retirement	-11.265
▁apology	-11.265
▁nap	-11.265
▁consistent	-11.265
▁House	-11.2653
▁garlic	-11.2653
▁princess	-11.2655
▁fitting	-11.2655
▁nine	-11.2656
▁IP	-11.2657
▁Jin	-11.2661
▁Anna	-11.2661
▁painted	-11.2665
▁grass	-11.2666
▁euros	-11.2673
▁desired	-11.268
▁promoted	-11.268
▁protected	-11.2683
▁moves	-11.2687
▁faces	-11.2689
▁volunteering	-11.2691
▁h	-11.2695
▁league	-11.2696
▁murder	-11.2698
▁interpreter	-11.2707
▁weigh	-11.2709
▁agenda	-11.271
▁blank	-11.2711
▁judgment	-11.2711
▁argument	-11.2711
▁tissue	-11.272
▁instance	-11.2726
▁nations	-11.2728
▁lighter	-11.2728
▁stocks	-11.2736
▁moist	-11.276
▁tone	-11.2781
▁chain	-11.2782
▁incorrect	-11.2797
▁visual	-11.2797
▁discharge	-11.28
▁wears	-11.2803
▁virus	-11.281
▁drove	-11.2811
▁estate	-11.2811
▁expansion	-11.2811
▁moisturizing	-11.2811
▁confusing	-11.2811
▁motivation	-11.2812
▁sneakers	-11.2812
▁experiencing	-11.2815
▁refreshing	-11.2817
▁officially	-11.282
▁pulled	-11.2821
▁boil	-11.2822
▁extended	-11.2825
▁described	-11.2832
▁stain	-11.2834
▁lyrics	-11.2836
▁skiing	-11.2836
▁shorter	-11.2843
ha	-11.2844
▁classmates	-11.2845
▁cameras	-11.2846
▁performing	-11.2847
▁strengthen	-11.2851
▁medication	-11.287
▁messenger	-11.2874
▁disaster	-11.2876
▁athlete	-11.2877
▁ca	-11.2878
▁motor	-11.288
▁leftover	-11.2881
▁45	-11.2882
▁fund	-11.2887
ial	-11.2891
▁self	-11.2894
▁Music	-11.2909
▁athletes	-11.2915
30.	-11.2918
▁Sun	-11.2928
▁seek	-11.2935
▁south	-11.294
▁admire	-11.2953
▁wage	-11.2957
▁resend	-11.2958
▁bell	-11.2968
▁implement	-11.2968
▁defects	-11.2968
▁blame	-11.2969
▁generous	-11.2973
▁campus	-11.2973
▁harsh	-11.2973
▁syrup	-11.2974
▁depression	-11.2975
▁false	-11.2975
▁curiosity	-11.2975
▁unnecessary	-11.2975
▁Winter	-11.2975
▁fax	-11.2975
▁gentle	-11.2976
▁majority	-11.2977
▁Choose	-11.2978
▁possibly	-11.2979
▁pity	-11.298
▁begun	-11.2981
▁calories	-11.2981
km	-11.2982
▁Were	-11.2985
▁pushed	-11.2992
▁concerning	-11.3005
▁alley	-11.3008
▁oily	-11.3011
▁pushing	-11.3012
▁strike	-11.3014
▁Black	-11.3014
▁packages	-11.3022
▁tradition	-11.3024
▁mold	-11.3035
▁covers	-11.3035
▁affairs	-11.3037
▁Min	-11.3037
▁ankle	-11.3039
▁resource	-11.3042
▁modification	-11.3042
▁symptom	-11.3044
▁Red	-11.3048
▁plates	-11.3056
▁yard	-11.3067
▁acid	-11.3069
▁birds	-11.3084
▁mistaken	-11.3087
▁belongs	-11.3119
▁spots	-11.3125
▁patch	-11.3128
▁coach	-11.3129
▁explaining	-11.3131
▁actress	-11.3138
▁Jeonju	-11.3141
▁embassy	-11.3141
▁wisdom	-11.3141
▁microwave	-11.3141
▁definition	-11.3141
▁bucket	-11.3141
▁purple	-11.3142
▁roads	-11.3143
▁sadness	-11.3144
▁certified	-11.3145
▁internally	-11.3148
▁flies	-11.315
▁countryside	-11.315
▁context	-11.3153
▁enroll	-11.3159
▁snowed	-11.3175
▁lay	-11.3178
▁shock	-11.3179
▁loaded	-11.3187
▁knee	-11.3191
▁clubs	-11.3202
▁cloud	-11.3205
▁disagree	-11.3206
▁guesthouse	-11.3207
▁funeral	-11.3209
▁sauna	-11.321
▁nephew	-11.321
▁ointment	-11.321
▁junior	-11.3211
▁sector	-11.3212
▁calculation	-11.3213
▁debt	-11.3215
▁objective	-11.3216
▁belief	-11.3218
▁snowing	-11.3219
▁chips	-11.3224
▁dislike	-11.323
▁designers	-11.3236
▁signing	-11.3267
▁vitamins	-11.3289
▁delivering	-11.3291
▁hug	-11.3297
▁honey	-11.3305
▁apples	-11.3306
▁genuine	-11.3309
▁EMS	-11.3311
▁crucial	-11.3311
▁Probably	-11.3311
▁guidance	-11.3311
▁Skype	-11.3311
▁firmware	-11.3311
▁creativity	-11.3311
▁verification	-11.3311
▁terribly	-11.3311
▁twenty	-11.3311
▁width	-11.3311
▁Los	-11.3311
▁inquire	-11.3312
▁suspended	-11.3312
▁rolls	-11.3314
▁Starbucks	-11.3315
▁communicating	-11.3315
▁Things	-11.3316
▁investigate	-11.3317
▁associated	-11.3318
▁discovered	-11.3322
▁capable	-11.3328
▁promises	-11.3332
▁mild	-11.3332
▁stations	-11.3334
▁rented	-11.3337
▁hired	-11.3339
▁Whatever	-11.3342
▁reduction	-11.3344
▁tire	-11.3347
▁forwarder	-11.3361
▁slip	-11.3365
uring	-11.337
ory	-11.3371
▁Jack	-11.3375
▁banks	-11.3376
▁escalator	-11.338
▁declaration	-11.3381
▁fridge	-11.3381
▁innovation	-11.3382
▁elder	-11.3382
▁lifestyle	-11.3382
▁35	-11.3389
▁rained	-11.34
▁weekly	-11.3418
▁asks	-11.3425
▁struggle	-11.3426
▁vehicles	-11.3426
▁stretch	-11.3453
▁onion	-11.3477
▁Rome	-11.348
▁planet	-11.3482
▁violent	-11.3482
▁luxury	-11.3483
▁Switzerland	-11.3483
▁gratitude	-11.3484
▁batteries	-11.3484
▁assistance	-11.3484
▁skincare	-11.3485
▁committed	-11.3486
▁chewy	-11.3486
▁stability	-11.3488
▁coupons	-11.3489
▁cleansing	-11.3491
▁desserts	-11.3496
▁interpretation	-11.3501
▁remov	-11.3505
▁tuna	-11.3509
▁killing	-11.351
▁maintained	-11.3514
▁monitoring	-11.3514
▁Choi	-11.3517
▁teaches	-11.3519
▁assign	-11.352
▁tells	-11.3528
▁reward	-11.3538
▁differs	-11.3541
▁sake	-11.3542
▁shut	-11.3545
ang	-11.3549
▁clinic	-11.3551
▁horror	-11.3554
▁appeal	-11.3555
▁plot	-11.3556
▁superior	-11.3558
▁guardian	-11.3559
▁household	-11.356
▁sofa	-11.3563
▁command	-11.3564
▁lamp	-11.357
▁dispute	-11.3572
▁domain	-11.3572
▁fool	-11.3577
▁outer	-11.3578
▁rose	-11.3588
▁wild	-11.3589
▁applicants	-11.3601
▁pump	-11.3601
▁Water	-11.361
▁CD	-11.3613
▁hated	-11.3615
▁beverages	-11.3623
▁prompt	-11.3624
▁managers	-11.3626
our	-11.3626
▁grill	-11.363
▁advertise	-11.3639
▁kiss	-11.3639
▁complain	-11.3642
▁fatigue	-11.3643
▁stole	-11.3648
▁responses	-11.3649
▁Su	-11.3651
▁contracts	-11.3656
▁Kevin	-11.3658
▁Pororo	-11.3658
▁underground	-11.3659
▁Yuna	-11.366
▁reliable	-11.366
▁fluently	-11.3662
▁varies	-11.3663
▁overnight	-11.3664
▁hiding	-11.3664
rew	-11.3666
▁honestly	-11.3669
▁output	-11.3672
▁rising	-11.3672
▁ancestors	-11.3672
▁therefore	-11.3676
▁defined	-11.3678
▁fur	-11.3682
▁pension	-11.3688
▁acceptable	-11.3688
▁spray	-11.3688
▁inches	-11.3692
▁Dear	-11.3692
R	-11.3719
▁pressed	-11.3734
▁storm	-11.3735
▁Hold	-11.3737
▁injection	-11.3738
▁cigarette	-11.3738
▁reporting	-11.3749
▁election	-11.3757
▁residents	-11.3775
▁cycle	-11.3777
▁Al	-11.379
ized	-11.3792
▁loan	-11.3797
▁strengths	-11.3815
▁Feel	-11.382
▁aside	-11.3821
ny	-11.3822
▁compensate	-11.3826
▁accord	-11.3829
▁FedEx	-11.3837
▁heavily	-11.3837
▁prettier	-11.3837
▁properties	-11.3837
▁division	-11.3837
▁Bible	-11.3838
▁hung	-11.3838
▁reducing	-11.3839
▁artistic	-11.3839
▁bleeding	-11.384
▁technologies	-11.3841
▁fairly	-11.3842
▁15,000	-11.3842
▁meaningless	-11.3843
▁define	-11.3843
▁ex	-11.3843
▁Store	-11.3846
▁posting	-11.3852
▁heads	-11.3853
▁lied	-11.3863
▁departing	-11.3873
▁cheering	-11.3874
▁departments	-11.3874
▁statue	-11.3894
▁seniors	-11.3901
▁parked	-11.3902
▁checkout	-11.3902
▁crimes	-11.3903
▁cure	-11.3906
▁Spring	-11.3913
▁appetite	-11.3914
▁comparison	-11.3918
▁butter	-11.392
▁trains	-11.3922
▁guard	-11.3936
▁script	-11.3938
▁bug	-11.3938
▁font	-11.3948
▁oven	-11.3955
▁aid	-11.3957
▁plain	-11.3958
Kim	-11.3964
▁drops	-11.3967
rs	-11.399
▁violin	-11.399
▁operations	-11.3995
▁humor	-11.401
▁tomato	-11.4017
▁illness	-11.4017
▁dentist	-11.4018
▁Paypal	-11.4019
▁scientific	-11.4019
▁valley	-11.4019
▁Mexico	-11.4019
▁Remember	-11.4019
▁misunderstood	-11.4019
▁assembly	-11.4019
▁Youtube	-11.402
▁ugly	-11.402
▁fitness	-11.4021
▁identified	-11.4022
▁insufficient	-11.4023
▁complet	-11.4024
▁oneself	-11.4024
▁pill	-11.4025
▁cruise	-11.4026
▁USD	-11.4028
▁recovered	-11.403
▁honored	-11.4035
▁bound	-11.4037
▁belongings	-11.4041
▁awful	-11.4054
▁sang	-11.4063
oo	-11.4066
▁states	-11.4079
▁Ha	-11.4094
▁icon	-11.4097
▁soldier	-11.4105
▁medal	-11.4106
▁assets	-11.4107
time	-11.4107
▁useless	-11.4132
▁relation	-11.4145
▁nutrition	-11.4156
▁hadn	-11.4159
▁scratch	-11.418
▁interviews	-11.4189
▁photograph	-11.4192
▁Paul	-11.4193
▁minds	-11.4193
▁selfish	-11.4202
▁diligent	-11.4203
▁wireless	-11.4203
▁council	-11.4204
▁ginseng	-11.4204
▁Central	-11.4204
▁primary	-11.4204
▁gorgeous	-11.4204
▁reputation	-11.4204
▁Summer	-11.4204
▁surround	-11.4205
▁Songdo	-11.4205
▁duration	-11.4205
▁Additionally	-11.4205
▁inspiration	-11.4206
▁consistently	-11.4206
▁magazines	-11.4207
▁polite	-11.4207
▁Hyundai	-11.4208
▁notified	-11.4211
▁revealed	-11.4212
▁corresponding	-11.4214
▁suggestions	-11.4215
▁lighting	-11.4215
▁commonly	-11.4217
▁Listen	-11.422
▁editing	-11.4222
▁analyzed	-11.4228
▁caus	-11.4231
▁dyed	-11.4234
▁upgraded	-11.4236
▁candy	-11.4239
▁charger	-11.4244
▁Under	-11.4245
▁sheets	-11.4248
50	-11.4255
▁mature	-11.4258
▁cushion	-11.4273
▁1,	-11.4274
▁meters	-11.428
▁deserve	-11.428
▁toner	-11.4282
▁costume	-11.4283
▁fixing	-11.4283
▁Green	-11.4288
▁headed	-11.4289
▁seaweed	-11.4291
▁prejudice	-11.4291
▁bracelet	-11.4293
▁pillow	-11.4293
▁housing	-11.4293
▁barbecue	-11.4293
▁passenger	-11.4293
▁invention	-11.4294
▁evil	-11.4294
▁achievement	-11.4294
▁adjustment	-11.4297
▁handed	-11.4307
▁Smith	-11.4319
▁Co	-11.4324
ally	-11.4332
▁bone	-11.4339
▁AI	-11.4347
▁ease	-11.4355
▁thus	-11.4362
▁exclude	-11.4385
▁Excel	-11.4392
▁Disney	-11.4393
▁religious	-11.4393
▁industries	-11.4393
▁Normally	-11.4393
▁serial	-11.4393
▁mandatory	-11.4393
▁stomachache	-11.4393
▁desperately	-11.4394
▁freshman	-11.4394
▁committee	-11.4394
▁discontinued	-11.4394
▁punished	-11.4395
▁hiring	-11.4395
▁upstairs	-11.4395
▁Money	-11.4396
▁gallery	-11.4397
▁abandoned	-11.4397
▁celebrating	-11.4398
▁gray	-11.4398
▁universe	-11.4398
▁inspired	-11.44
▁tours	-11.44
▁individually	-11.4402
▁branches	-11.4403
▁shocking	-11.4411
▁breathing	-11.4416
▁Miss	-11.4427
▁heels	-11.4428
▁nicely	-11.4439
▁ribs	-11.4445
▁summarize	-11.4446
E	-11.4461
▁stocked	-11.4468
▁readers	-11.4474
▁underwear	-11.4478
▁detergent	-11.4484
▁roommate	-11.4484
▁substance	-11.4486
▁competitor	-11.4487
▁duck	-11.4496
▁graph	-11.4498
▁thesis	-11.4502
▁greeting	-11.4504
▁expir	-11.4507
▁grand	-11.4515
▁debate	-11.452
▁opera	-11.4523
▁tap	-11.4527
▁Bill	-11.4527
▁surroundings	-11.4528
B	-11.4542
▁confirming	-11.4548
▁pre	-11.455
▁lip	-11.4566
▁movements	-11.4572
▁conflicts	-11.4573
▁involve	-11.4577
▁UPS	-11.4585
▁bibimbap	-11.4585
▁Rather	-11.4585
▁innovative	-11.4585
▁shaking	-11.4586
▁invented	-11.4587
▁contrast	-11.4587
▁scolded	-11.4587
▁rubber	-11.4587
▁Rice	-11.4588
▁Sales	-11.4589
▁Boston	-11.4589
▁Stadium	-11.4589
▁analyzing	-11.459
▁taller	-11.459
▁disappointing	-11.459
▁adopted	-11.4593
▁risks	-11.4593
▁baked	-11.4594
▁clip	-11.4609
▁indicated	-11.461
▁Christ	-11.4611
age	-11.4615
be	-11.4616
▁respected	-11.4619
▁Yet	-11.4628
▁doctors	-11.463
▁reset	-11.464
▁lifetime	-11.4642
▁chip	-11.4646
▁adjusting	-11.465
▁Customers	-11.4656
▁broth	-11.4662
ie	-11.4665
▁refuse	-11.4666
▁experiments	-11.4675
▁folder	-11.4678
▁routine	-11.4679
▁soil	-11.468
▁automobile	-11.468
▁circumstance	-11.4681
▁revision	-11.4681
▁banana	-11.4681
▁carrier	-11.4681
▁vendor	-11.4682
▁executive	-11.4682
▁measurement	-11.4682
▁module	-11.4684
▁relative	-11.4684
▁certificates	-11.4685
▁shapes	-11.469
▁screening	-11.4691
▁winner	-11.4692
▁arrangement	-11.4694
▁drawer	-11.4696
▁Jang	-11.4698
▁string	-11.4706
▁heater	-11.4723
un	-11.4726
▁Lord	-11.4734
▁pose	-11.4738
▁glue	-11.4738
▁Blue	-11.4738
▁colorful	-11.475
▁produces	-11.4751
▁ages	-11.4755
▁marks	-11.4758
▁pretend	-11.4762
▁retail	-11.4764
▁audit	-11.4776
▁Mike	-11.4778
▁cruel	-11.4778
▁eternal	-11.4779
▁strategic	-11.4779
▁rapid	-11.4779
▁Flitto	-11.4781
▁summary	-11.4781
▁vocabulary	-11.4781
▁itinerary	-11.4781
▁percentage	-11.4782
▁embarrassing	-11.4783
▁Santa	-11.4783
▁basically	-11.4783
▁necessarily	-11.4784
▁innocent	-11.4785
▁categories	-11.4785
▁awareness	-11.4786
▁scissors	-11.4787
▁endless	-11.4787
▁ranked	-11.479
▁toast	-11.4791
▁attracted	-11.4793
▁accommodate	-11.4805
▁lovers	-11.4807
▁launching	-11.481
▁wrinkles	-11.4811
▁tail	-11.4813
▁Bring	-11.4814
▁Wasn	-11.4815
▁react	-11.4821
▁thermal	-11.4828
▁emphasize	-11.4834
▁transactions	-11.4847
▁disadvantages	-11.4857
po	-11.4859
▁absorb	-11.486
▁Peter	-11.4866
▁Base	-11.4874
▁supervisor	-11.488
▁pilot	-11.4881
▁screw	-11.4883
▁Food	-11.4883
▁cough	-11.4883
▁owners	-11.4888
ful	-11.4888
▁clerk	-11.4892
▁castle	-11.4892
▁east	-11.4907
▁loading	-11.4914
▁Big	-11.4933
▁Se	-11.4936
▁Jeong	-11.494
▁designing	-11.4946
▁recording	-11.4953
▁incredibl	-11.4955
▁donate	-11.4958
▁settings	-11.4959
▁Pay	-11.4967
▁hurting	-11.4968
om	-11.4976
▁vertical	-11.498
▁immediate	-11.498
▁Ulsan	-11.4981
▁Sejong	-11.4981
▁athletic	-11.4981
▁Contact	-11.4981
▁theme	-11.4981
▁wifi	-11.4982
▁skating	-11.4982
▁factories	-11.4982
▁fermented	-11.4982
▁annoyed	-11.4982
▁controlled	-11.4983
▁shining	-11.4983
▁bulgogi	-11.4985
▁laboratory	-11.4985
▁odd	-11.4986
▁corn	-11.4989
▁entirely	-11.499
▁regional	-11.4992
▁torn	-11.4996
▁graphic	-11.5
▁bitter	-11.5001
▁inquired	-11.5002
▁Press	-11.5002
▁somehow	-11.5008
▁Luna	-11.5009
▁memo	-11.5013
▁approaching	-11.5025
▁spaces	-11.5027
▁landing	-11.503
▁Place	-11.5032
el	-11.5035
▁nuts	-11.5035
▁seasoned	-11.5042
▁trusted	-11.5045
▁roles	-11.5059
▁sole	-11.5064
▁crowd	-11.5076
▁pros	-11.5081
▁opponent	-11.5082
▁shadow	-11.5085
▁chapter	-11.5085
▁layout	-11.5085
▁voucher	-11.5085
▁victim	-11.5085
▁bride	-11.5086
▁LED	-11.5088
▁interaction	-11.5091
▁cookie	-11.5091
▁matching	-11.5094
ak	-11.5103
▁misunderstand	-11.5106
▁outcome	-11.5125
▁dreaming	-11.5125
▁institutions	-11.5126
▁recommendations	-11.5143
▁leaders	-11.5149
▁disturb	-11.516
▁forces	-11.5169
▁serves	-11.518
▁rope	-11.5181
▁surprising	-11.5184
▁thorough	-11.5184
▁College	-11.5185
▁dictionary	-11.5185
▁volleyball	-11.5185
▁celebration	-11.5186
▁inviting	-11.5186
▁oxygen	-11.5189
▁Jamsil	-11.5189
▁awake	-11.5191
▁integrated	-11.5191
▁Sports	-11.5195
▁facts	-11.5196
▁obtained	-11.5198
▁absorbed	-11.5198
▁Teacher	-11.5199
▁decent	-11.5208
▁foam	-11.5211
ho	-11.5214
room	-11.5215
▁wings	-11.522
▁talents	-11.5223
▁pounds	-11.5227
▁Woo	-11.5239
▁Help	-11.5239
▁spreading	-11.5247
▁convert	-11.525
▁architect	-11.5265
▁tension	-11.5272
▁bond	-11.5281
▁victims	-11.5286
▁rides	-11.5287
▁submission	-11.5287
▁curriculum	-11.5287
▁district	-11.5291
▁tale	-11.5291
arious	-11.5293
▁sausage	-11.5293
ian	-11.5293
▁blossom	-11.5294
▁rabbit	-11.5298
▁fired	-11.53
▁troubles	-11.5301
▁peak	-11.5303
▁clouds	-11.5306
▁Chi	-11.5307
▁revolution	-11.5316
▁instruments	-11.5329
▁Song	-11.533
▁Play	-11.5333
▁rises	-11.5342
▁Over	-11.5345
▁hook	-11.5351
▁maximize	-11.5355
▁Test	-11.5371
▁interact	-11.5378
▁tube	-11.5388
▁thickness	-11.5391
▁elegant	-11.5391
▁cheerful	-11.5391
▁General	-11.5392
▁ridiculous	-11.5392
▁definite	-11.5393
▁dizzy	-11.5393
▁ladies	-11.5393
▁gloomy	-11.5393
▁Jenny	-11.5394
▁territory	-11.5394
▁recycling	-11.5394
▁Joseon	-11.5394
▁Angeles	-11.5394
▁specified	-11.5395
▁precisely	-11.5395
▁repeatedly	-11.5395
▁otherwise	-11.5395
▁visible	-11.5396
▁laser	-11.5397
▁documentary	-11.5397
▁ashamed	-11.5398
▁occurring	-11.5399
▁comedy	-11.54
▁realistic	-11.5401
▁leaf	-11.5401
▁recruit	-11.541
▁oldest	-11.541
▁decorated	-11.541
▁reactions	-11.5412
▁u	-11.5415
▁statistics	-11.5416
▁consulting	-11.5418
▁satisfying	-11.542
▁bunch	-11.5426
▁guaranteed	-11.543
▁outgoing	-11.5435
▁choices	-11.5444
▁uploading	-11.5447
▁restrictions	-11.5467
▁combine	-11.5467
▁Information	-11.5467
▁daytime	-11.5485
▁defense	-11.5494
▁functional	-11.5499
▁rumor	-11.55
▁tank	-11.5502
▁dear	-11.5503
▁compar	-11.5503
▁creation	-11.5504
▁tournament	-11.5505
▁cocktail	-11.5506
▁cabin	-11.5506
▁preference	-11.5508
▁photographer	-11.5508
▁classic	-11.5508
▁outfit	-11.5509
▁crab	-11.551
▁angel	-11.5511
▁pro	-11.5513
▁highway	-11.5516
▁Na	-11.5521
▁150	-11.5521
▁compete	-11.5523
▁sorrow	-11.553
▁worship	-11.5535
▁checkup	-11.5543
▁asset	-11.5546
▁supplement	-11.5546
▁1.	-11.5549
▁containers	-11.556
▁floors	-11.5564
ate	-11.5586
P	-11.5588
▁Ah	-11.5595
▁frequent	-11.5601
▁transparent	-11.5604
▁fifth	-11.5606
▁Sydney	-11.5606
▁Street	-11.5606
▁Bangkok	-11.5606
▁tendency	-11.5606
▁mysterious	-11.5606
▁necessity	-11.5606
▁resistance	-11.5606
▁puppies	-11.5606
▁Thanksgiving	-11.5607
▁healthier	-11.5607
▁Dream	-11.5607
▁guilty	-11.5607
▁promoting	-11.5609
▁discover	-11.561
▁Dad	-11.561
▁administrative	-11.5611
▁buffet	-11.5611
▁outline	-11.5611
▁mindset	-11.5612
▁pickup	-11.5613
▁portable	-11.5613
▁photography	-11.5614
▁teamwork	-11.5618
▁brave	-11.5618
▁soda	-11.562
▁deeper	-11.562
▁conveniently	-11.5622
▁advised	-11.5632
▁BL	-11.5634
▁examined	-11.5634
▁boots	-11.5639
▁postponed	-11.5639
▁snows	-11.5639
▁seasoning	-11.564
▁kg	-11.5643
go	-11.5646
▁imagined	-11.5652
▁cons	-11.5658
▁newspapers	-11.5667
▁Po	-11.5672
▁distribute	-11.5673
men	-11.5676
▁commute	-11.5679
ul	-11.5685
▁ambulance	-11.5713
▁cherish	-11.5718
▁queen	-11.5721
▁violation	-11.5723
▁bubble	-11.5725
▁excel	-11.5726
▁0	-11.5734
▁stays	-11.574
▁extract	-11.5741
▁mis	-11.5744
▁taxis	-11.5748
▁Ja	-11.5759
▁jokes	-11.5761
ization	-11.5767
▁circuit	-11.5769
▁soy	-11.5788
▁observe	-11.5801
▁Office	-11.581
▁Lot	-11.581
▁praise	-11.5811
▁negotiate	-11.5811
MP	-11.5813
▁Steve	-11.5814
▁assemble	-11.5816
▁YouTube	-11.5818
▁defeat	-11.5819
▁wholesale	-11.5821
▁debut	-11.5821
▁cautious	-11.5822
▁silent	-11.5822
▁eBay	-11.5823
▁LG	-11.5823
▁Haeundae	-11.5824
▁Bibimbap	-11.5824
▁Hollywood	-11.5824
▁Tteokbokki	-11.5824
▁thirty	-11.5824
▁suspicious	-11.5824
▁establishment	-11.5824
▁residence	-11.5824
▁personalities	-11.5825
▁stationery	-11.5825
▁unfortunately	-11.5825
▁addicted	-11.5825
▁shelf	-11.5826
▁translating	-11.5826
▁audition	-11.5826
▁competent	-11.5827
▁Room	-11.583
▁agencies	-11.5831
▁mentally	-11.5831
▁efficiently	-11.5831
▁cloudy	-11.5832
▁bench	-11.5834
▁acquired	-11.5836
▁boiling	-11.5842
▁earrings	-11.5847
▁donation	-11.5847
▁Electronics	-11.5851
▁incredible	-11.5854
▁interfere	-11.5862
▁laughing	-11.5863
▁justice	-11.588
▁convey	-11.5892
▁west	-11.5901
▁backpack	-11.5914
▁apps	-11.5927
up	-11.5931
▁treasure	-11.5934
▁compliment	-11.5938
▁wipe	-11.5939
▁liquor	-11.5942
▁popcorn	-11.5943
▁lemon	-11.5945
▁illustration	-11.5946
▁candidate	-11.5946
▁melt	-11.5956
▁Health	-11.5975
▁stranger	-11.5976
▁hi	-11.5977
▁2000	-11.5979
▁holds	-11.6001
ong	-11.6002
▁stiff	-11.6022
▁wheels	-11.6023
▁accommodations	-11.6029
ted	-11.603
▁layers	-11.6031
▁royal	-11.6045
▁FTA	-11.6045
▁Science	-11.6046
▁romance	-11.6046
▁Global	-11.6046
▁Cambodia	-11.6046
▁victory	-11.6046
▁leakage	-11.6046
▁humidity	-11.6046
▁Macao	-11.6046
▁unavailable	-11.6046
▁measuring	-11.6047
▁tomatoes	-11.605
▁applicable	-11.6051
▁significantly	-11.6051
▁2013	-11.6052
▁paperwork	-11.6052
▁beloved	-11.6054
▁western	-11.6056
▁Express	-11.6057
▁Order	-11.6058
▁contained	-11.6065
▁divorced	-11.6067
ical	-11.6068
▁subtitles	-11.607
▁gloves	-11.6072
▁lenses	-11.6082
▁Yoon	-11.6088
▁earphones	-11.6092
▁electrical	-11.6106
▁limitations	-11.6113
▁pub	-11.6119
▁meets	-11.6121
▁north	-11.6121
▁exhibit	-11.6124
▁replying	-11.6125
▁weapons	-11.6139
▁urban	-11.6141
▁Set	-11.6144
▁250	-11.6157
▁cooling	-11.6158
▁sponsor	-11.6166
▁shortage	-11.6166
▁knees	-11.6168
▁settlement	-11.6169
▁photographs	-11.617
lar	-11.6171
▁interval	-11.6174
▁infection	-11.6175
by	-11.6189
▁evenly	-11.6198
▁artworks	-11.6199
▁lid	-11.62
▁Ju	-11.6206
▁principles	-11.6211
▁Australian	-11.6227
▁treatments	-11.6227
▁reporter	-11.6234
▁pens	-11.6236
▁demands	-11.6238
▁inter	-11.624
▁decorate	-11.6264
000	-11.6267
▁minimize	-11.6268
▁adequate	-11.6272
▁economics	-11.6272
▁pairs	-11.6273
▁quiz	-11.6273
▁flew	-11.6273
▁perhaps	-11.6273
▁Twitter	-11.6273
▁Village	-11.6273
▁Android	-11.6273
▁enormous	-11.6273
▁democracy	-11.6273
▁lottery	-11.6273
▁inevitable	-11.6274
▁randomly	-11.6275
▁warranty	-11.6275
▁debit	-11.6276
▁partial	-11.6276
▁species	-11.6278
▁counseling	-11.6282
▁youngest	-11.6284
▁West	-11.6286
▁credits	-11.6287
▁2016.	-11.6288
▁stretching	-11.6292
▁tender	-11.6292
▁bangs	-11.6292
▁succeeded	-11.6293
▁inspect	-11.6293
▁housework	-11.6295
▁Kids	-11.6295
▁explanations	-11.6296
▁pores	-11.6296
il	-11.6301
▁repeated	-11.6314
▁progressed	-11.6323
▁viewers	-11.6329
▁wasted	-11.635
▁exceed	-11.6353
▁Free	-11.6354
▁dumplings	-11.6355
▁intend	-11.6355
▁Say	-11.6369
▁strangers	-11.6376
▁limits	-11.638
▁websites	-11.6384
▁versions	-11.6395
ra	-11.64
▁dynamic	-11.6403
▁association	-11.6404
▁rewards	-11.6406
▁acquaintance	-11.6406
ur	-11.6407
▁phase	-11.6416
days	-11.6423
▁00	-11.6425
▁rank	-11.6426
▁smiles	-11.6431
▁casual	-11.6439
▁aging	-11.6445
▁trim	-11.6454
▁ads	-11.6455
▁franchise	-11.6456
▁1000	-11.6458
▁audio	-11.6471
▁exception	-11.6483
▁criminals	-11.6484
▁Compare	-11.6486
▁waiter	-11.6498
▁eliminate	-11.6501
▁rescue	-11.6503
▁ethical	-11.6504
▁Cebu	-11.6505
▁humid	-11.6505
▁jelly	-11.6505
▁Dynasty	-11.6505
▁beneficial	-11.6506
▁Otherwise	-11.6506
▁incurred	-11.6506
▁Hanok	-11.6506
▁Namsan	-11.6506
▁productivity	-11.6507
▁releasing	-11.6507
▁darkness	-11.6508
responsibilities	-11.6508
▁temporarily	-11.6508
▁stopping	-11.6509
▁consent	-11.6509
▁mixture	-11.6509
▁steady	-11.6509
▁roasted	-11.651
▁tiny	-11.6511
▁consciousness	-11.6511
▁melted	-11.6512
▁activate	-11.6513
▁preferred	-11.6515
▁meantime	-11.652
▁investors	-11.6522
▁texts	-11.6525
▁focuses	-11.6529
▁jumping	-11.653
▁2,	-11.6537
▁relaxing	-11.654
▁Hana	-11.6545
▁Kang	-11.6551
▁mixing	-11.6552
▁thousands	-11.6554
▁Stay	-11.6556
▁interpret	-11.6564
▁rear	-11.657
▁renting	-11.6586
▁cart	-11.6587
▁Wall	-11.6589
la	-11.6596
▁daughters	-11.6603
▁Mina	-11.6603
▁pressing	-11.6604
ned	-11.6607
ther	-11.6619
▁hell	-11.662
▁leak	-11.6626
▁adventure	-11.6634
▁default	-11.6636
▁League	-11.6638
▁purifier	-11.6642
▁documentation	-11.6643
▁weapon	-11.6644
▁State	-11.6646
▁liberal	-11.6646
▁claims	-11.6647
▁qualification	-11.6652
▁tables	-11.6661
▁destroy	-11.6665
▁BB	-11.6665
▁ad	-11.6672
▁occupation	-11.6673
▁viewing	-11.6693
▁islands	-11.6707
▁declare	-11.6717
▁Tae	-11.6725
▁moral	-11.673
▁fraud	-11.6731
▁enthusiastic	-11.6734
▁steal	-11.6735
▁encounter	-11.6737
▁octopus	-11.6739
▁visits	-11.6741
▁precise	-11.6742
▁Eiffel	-11.6743
▁Greece	-11.6743
▁Seattle	-11.6744
▁Explain	-11.6744
▁marathon	-11.6744
▁Hongdae	-11.6744
▁aircraft	-11.6744
▁sophisticated	-11.6744
▁Father	-11.6744
▁decreasing	-11.6744
▁Pork	-11.6744
▁slippery	-11.6744
▁chairman	-11.6745
▁hitting	-11.6748
▁broad	-11.6749
▁diagnosis	-11.675
▁surfing	-11.6751
▁heroes	-11.6751
▁restricted	-11.6752
▁frying	-11.6753
▁baking	-11.6755
▁generated	-11.6756
▁granted	-11.6757
▁Friends	-11.6758
▁frequency	-11.6759
▁visitor	-11.6763
▁complaining	-11.6763
▁perspectives	-11.6764
▁expanding	-11.677
▁Sea	-11.677
▁stimulate	-11.6774
▁boost	-11.6784
▁union	-11.6787
▁existed	-11.6801
▁novels	-11.6802
▁wrongly	-11.6803
▁rub	-11.6804
▁tied	-11.6819
▁researched	-11.682
▁reflects	-11.6824
▁fiber	-11.6828
dental	-11.6829
▁Walk	-11.684
▁tv	-11.6846
▁plug	-11.685
▁crack	-11.6861
▁Drink	-11.6873
▁sellers	-11.6879
▁Change	-11.6882
▁suitcase	-11.6882
▁API	-11.6884
▁column	-11.6886
▁envelope	-11.6888
▁ruin	-11.6892
▁decoration	-11.6892
ine	-11.6902
▁souvenirs	-11.6902
▁shade	-11.6903
nyone	-11.6904
▁fry	-11.6909
▁portions	-11.6923
▁timetable	-11.6924
▁achiev	-11.694
▁400	-11.6945
▁producer	-11.695
▁chocolates	-11.6964
▁Hot	-11.6965
▁walls	-11.6968
▁reschedule	-11.6973
▁mini	-11.6976
▁returns	-11.6976
▁identical	-11.6985
▁energetic	-11.6987
▁Airbnb	-11.6987
▁Hilton	-11.6987
▁Chicken	-11.6987
▁handicapped	-11.6988
▁execution	-11.6988
▁expertise	-11.6988
▁miserable	-11.6988
▁collaboration	-11.6988
▁thief	-11.6988
▁trivial	-11.6988
▁Lisa	-11.6988
▁Suddenly	-11.6988
▁literally	-11.6988
▁survival	-11.6988
▁occasionally	-11.6988
▁intense	-11.6988
▁unstable	-11.6988
▁freezing	-11.6988
▁thoughtful	-11.6989
▁problematic	-11.699
▁MO	-11.699
▁facebook	-11.699
▁arrested	-11.6991
▁enemies	-11.6992
▁ruined	-11.6993
▁exceeded	-11.6994
▁holes	-11.6996
▁issuing	-11.6996
▁authorization	-11.6997
▁fold	-11.6998
▁expanded	-11.6999
▁Plus	-11.6999
▁Studying	-11.7
▁sliced	-11.7
▁congratulations	-11.7002
▁observed	-11.7003
▁roughly	-11.7004
▁losses	-11.7004
▁inserted	-11.7005
▁violate	-11.7005
▁accomplished	-11.7008
▁buttons	-11.7008
▁banking	-11.7011
▁encouraged	-11.7015
▁adopt	-11.7016
▁linked	-11.702
▁windy	-11.702
▁pulling	-11.7024
▁presenting	-11.7035
▁claimed	-11.7039
▁spin	-11.7046
▁longest	-11.7049
▁colder	-11.7051
▁scientists	-11.7053
▁shots	-11.7056
of	-11.7068
▁improves	-11.7071
▁merits	-11.7071
▁Chang	-11.7087
▁avoiding	-11.7089
▁abuse	-11.7092
young	-11.7099
▁filed	-11.7103
▁hill	-11.7121
▁pace	-11.7125
▁receiver	-11.7128
▁Ko	-11.7129
▁suspect	-11.713
▁cabbage	-11.7135
▁protocol	-11.7135
▁Dae	-11.7135
▁Greek	-11.7136
▁slide	-11.7136
▁watermelon	-11.7137
▁iced	-11.7137
▁stages	-11.7139
▁bedroom	-11.714
▁threat	-11.7155
▁rival	-11.7156
▁developer	-11.7162
▁researching	-11.7164
▁sources	-11.7165
ung	-11.7169
▁trick	-11.7173
▁Light	-11.7188
▁easie	-11.719
▁airlines	-11.719
▁savings	-11.7208
▁consume	-11.7225
▁persuade	-11.7227
▁psychological	-11.7236
▁BTS	-11.7237
▁Dokdo	-11.7237
▁grocery	-11.7237
▁Hangul	-11.7237
▁exterior	-11.7237
▁Gyeongju	-11.7237
▁sunrise	-11.7237
▁excitement	-11.7237
▁Management	-11.7237
▁silk	-11.7237
▁elasticity	-11.7238
▁mystery	-11.7238
▁Master	-11.7238
▁fountain	-11.7238
▁Kyoto	-11.7239
▁Egypt	-11.7239
▁crispy	-11.7239
▁acceptance	-11.724
▁mathematics	-11.724
▁diving	-11.724
▁handmade	-11.7241
▁obviously	-11.7241
▁equally	-11.7242
▁greedy	-11.7243
▁verified	-11.7248
▁abundant	-11.7249
▁Hyun	-11.7251
▁motivated	-11.7251
▁lets	-11.7252
▁LA	-11.7252
▁healing	-11.7253
▁crush	-11.7255
▁arrow	-11.7256
▁sticky	-11.726
▁hates	-11.7262
▁captured	-11.7264
▁bothered	-11.7265
▁evaluated	-11.7265
▁creatures	-11.7269
▁companion	-11.7275
▁pencils	-11.7278
▁thread	-11.7289
▁CO	-11.7289
nearly	-11.729
▁nurses	-11.7295
▁Mo	-11.73
▁indicates	-11.7337
▁rumors	-11.7355
Y	-11.7358
▁substances	-11.7369
ty	-11.7372
▁random	-11.7376
▁medicines	-11.7379
▁Culture	-11.7385
▁indicate	-11.7386
▁fragrance	-11.7387
▁criticism	-11.7388
▁interface	-11.7388
▁Canadian	-11.7389
▁lodging	-11.739
▁shelter	-11.7391
▁perception	-11.7391
▁copyright	-11.7392
▁freeze	-11.7393
▁aim	-11.7395
▁province	-11.7395
▁drone	-11.7397
▁burst	-11.7398
▁expectation	-11.7399
▁locker	-11.74
▁utiliz	-11.7405
▁se	-11.7409
▁fond	-11.7413
▁founded	-11.7414
▁breast	-11.7414
▁formula	-11.7417
▁ongoing	-11.7419
▁regrets	-11.7422
▁Game	-11.7423
▁professors	-11.7429
▁publish	-11.7432
▁invoices	-11.7434
▁updates	-11.7439
ia	-11.7451
ant	-11.7451
▁dis	-11.7453
▁explore	-11.7471
▁reader	-11.7472
▁interrupt	-11.7472
▁pin	-11.7478
▁Mexican	-11.748
▁hamburgers	-11.748
▁chili	-11.749
▁massive	-11.7493
▁MOU	-11.7493
▁junk	-11.7494
▁Dubai	-11.7494
▁Ocean	-11.7494
▁Public	-11.7494
▁Luckily	-11.7494
▁Hangeul	-11.7494
▁Galaxy	-11.7494
▁Bridge	-11.7494
▁bidding	-11.7494
▁possibilities	-11.7494
▁feminine	-11.7494
▁ferry	-11.7494
▁omitted	-11.7494
▁principal	-11.7494
▁subscription	-11.7494
▁insulation	-11.7494
▁continually	-11.7494
▁manpower	-11.7495
▁nonsense	-11.7495
▁obsessed	-11.7495
▁estimation	-11.7495
▁Yep	-11.7495
▁acquire	-11.7495
▁compatible	-11.7495
▁classified	-11.7496
▁possess	-11.7497
▁deciding	-11.7497
▁equality	-11.7497
▁edition	-11.7497
▁accessory	-11.7498
▁passive	-11.7499
▁permanent	-11.7499
▁toy	-11.7499
▁hotter	-11.75
▁anxiety	-11.7501
▁prevention	-11.7503
ueen	-11.7504
▁reissued	-11.7507
▁messy	-11.7508
▁qualified	-11.7513
▁crossed	-11.7515
▁downloaded	-11.7516
▁departed	-11.7517
▁zero	-11.752
▁constructed	-11.7522
▁spoken	-11.7522
▁enhanced	-11.7524
▁remit	-11.7526
▁axis	-11.753
▁tasted	-11.7533
▁touches	-11.7535
▁ripped	-11.754
▁Super	-11.7543
▁ba	-11.7543
ta	-11.7547
▁beautifully	-11.7553
▁HR	-11.7555
▁dare	-11.7565
▁OS	-11.7577
▁wondered	-11.7577
▁oranges	-11.7579
▁forgetting	-11.758
▁Gold	-11.7583
40	-11.7583
▁operates	-11.7586
▁Mark	-11.7587
▁Prepare	-11.7591
F	-11.7597
tic	-11.761
aking	-11.7612
▁picky	-11.7613
▁faced	-11.7618
▁disadvantage	-11.764
▁giant	-11.7651
▁latte	-11.7651
▁Hospital	-11.7652
▁pumpkin	-11.7652
▁squid	-11.7653
▁blouse	-11.7654
▁skate	-11.7655
▁episode	-11.7657
▁affair	-11.7657
▁idols	-11.766
▁cutlet	-11.766
▁venue	-11.7662
▁trace	-11.7664
▁shipments	-11.7667
▁basics	-11.769
evertheless	-11.7704
ism	-11.7708
▁expirat	-11.7731
med	-11.7735
▁4.	-11.774
▁describes	-11.7743
co	-11.7751
▁discard	-11.7751
▁speakers	-11.7753
z	-11.7754
▁mutual	-11.7755
▁Bulgogi	-11.7757
▁scalp	-11.7757
▁heritage	-11.7757
▁replied	-11.7757
▁rural	-11.7757
▁loneliness	-11.7757
▁Washington	-11.7757
▁rooftop	-11.7757
▁lamb	-11.7757
▁Potter	-11.7757
▁zipper	-11.7757
▁obesity	-11.7757
▁cooperative	-11.7758
▁junction	-11.7758
▁Later	-11.7759
▁laughter	-11.7759
▁secretary	-11.7759
▁chilly	-11.776
▁Union	-11.776
▁workload	-11.776
▁hunger	-11.776
▁referr	-11.7762
▁sandwiches	-11.7763
▁forwarding	-11.7766
▁acknowledged	-11.7771
▁adapted	-11.7771
▁publishing	-11.7772
▁chores	-11.7774
▁remained	-11.7774
▁emphasized	-11.7776
▁keys	-11.7792
land	-11.7796
▁flag	-11.7797
▁warmer	-11.7807
▁swear	-11.7807
▁welcomed	-11.7815
▁nowhere	-11.782
▁cleared	-11.7825
▁humble	-11.7826
▁Cut	-11.7834
▁guidelines	-11.7834
▁experimental	-11.7844
▁Sung	-11.7852
▁Old	-11.7855
▁electronics	-11.7861
▁complement	-11.7861
▁specialize	-11.7864
▁firms	-11.7873
▁Star	-11.7873
▁slice	-11.7878
▁bones	-11.7879
▁Sundays	-11.7881
you	-11.7904
▁console	-11.7907
▁swallow	-11.7908
▁Color	-11.7911
▁yogurt	-11.7913
▁intellectual	-11.7918
▁dining	-11.7922
▁lawsuit	-11.7925
▁paragraph	-11.7925
▁burnt	-11.7925
▁tariff	-11.7926
▁barrier	-11.7927
▁sweater	-11.7927
▁curtain	-11.7928
▁Customer	-11.7928
▁ghost	-11.7928
▁witness	-11.7929
▁discomfort	-11.7931
▁commit	-11.7931
▁monkey	-11.7932
▁blessing	-11.7937
G	-11.7944
▁ranking	-11.7946
▁lists	-11.7954
▁gear	-11.796
▁onions	-11.7971
▁trainer	-11.7981
▁excuses	-11.7982
▁slim	-11.7992
▁Le	-11.7998
▁border	-11.8004
▁Follow	-11.8013
▁suppose	-11.8015
▁mud	-11.8019
▁reverse	-11.8019
▁distinct	-11.8023
▁meticulous	-11.8025
▁spell	-11.8025
▁unfortunate	-11.8025
▁Gogh	-11.8027
▁greasy	-11.8027
▁Describe	-11.8027
▁porridge	-11.8027
▁Terminal	-11.8027
▁presence	-11.8027
▁mileage	-11.8027
▁pregnancy	-11.8027
▁intersection	-11.8027
▁currencies	-11.8027
▁foolish	-11.8027
▁screenshot	-11.8028
▁USB	-11.8028
▁emphasis	-11.8028
▁competitiveness	-11.8028
▁diligently	-11.803
▁addictive	-11.803
▁satisfactory	-11.8033
▁grey	-11.8033
▁demonstrate	-11.8033
id	-11.8034
▁firmly	-11.8034
▁weaknesses	-11.8035
▁detected	-11.8035
▁executed	-11.8036
▁Jim	-11.8036
▁implemented	-11.8038
▁dial	-11.8039
▁fortunate	-11.8042
▁greed	-11.8043
▁recruiting	-11.8046
▁favorable	-11.8047
▁smallest	-11.8049
ik	-11.8055
▁appointed	-11.8057
▁trendy	-11.8058
▁messed	-11.8061
▁farming	-11.8062
▁conducting	-11.8069
▁Draw	-11.8069
▁rings	-11.807
▁miles	-11.8074
▁eyebrows	-11.8076
▁crossing	-11.8077
▁safer	-11.8083
▁practices	-11.8087
▁Airlines	-11.8089
▁Fill	-11.8092
▁concentrated	-11.8098
▁researchers	-11.8098
▁infants	-11.8098
▁improvements	-11.8115
10	-11.8116
▁plac	-11.8117
▁desires	-11.8128
▁6.	-11.8128
▁lean	-11.8133
▁influences	-11.8149
▁3.	-11.815
▁candidates	-11.815
▁UV	-11.8152
▁supplements	-11.8155
▁merit	-11.8163
▁tofu	-11.8168
W	-11.8169
▁beating	-11.8172
▁parks	-11.818
▁decline	-11.8182
▁Act	-11.8187
▁cheesecake	-11.819
▁addiction	-11.8195
▁affection	-11.8195
▁flavors	-11.8196
▁exposure	-11.8198
▁Ca	-11.8198
▁Court	-11.8199
▁cabinet	-11.8201
▁detective	-11.8201
▁cartoon	-11.8204
▁dumpling	-11.8205
▁requirement	-11.8206
▁demonstration	-11.8206
▁packaged	-11.821
rench	-11.8213
▁combo	-11.8217
▁painter	-11.8219
▁valuables	-11.8219
▁120	-11.8222
▁mango	-11.8225
▁dealer	-11.8236
▁cafes	-11.8239
ok	-11.8246
▁negotiations	-11.8249
▁locations	-11.8249
▁kit	-11.8255
▁genres	-11.8265
20	-11.8266
na	-11.8271
▁balls	-11.8274
hours	-11.8291
▁xx	-11.8296
▁Study	-11.8297
▁renew	-11.8298
▁toothbrush	-11.8302
▁approximate	-11.8303
▁Social	-11.8304
▁PDF	-11.8305
▁Except	-11.8305
▁Square	-11.8305
▁Happiness	-11.8305
▁etiquette	-11.8305
▁Everland	-11.8305
▁caffeine	-11.8305
▁sensitivity	-11.8305
▁forehead	-11.8305
▁destiny	-11.8305
▁sunglasses	-11.8305
▁observatory	-11.8305
▁courtesy	-11.8305
▁memorial	-11.8305
▁intensity	-11.8305
▁appreciation	-11.8305
▁voluntary	-11.8305
▁recruitment	-11.8305
▁permitted	-11.8305
▁orientation	-11.8305
▁savory	-11.8306
▁Development	-11.8306
▁strawberries	-11.8306
▁acknowledge	-11.8307
▁effectiveness	-11.8308
▁neatly	-11.8308
▁swatch	-11.8308
▁Party	-11.8308
▁continuing	-11.8309
▁Support	-11.8311
▁devoted	-11.8311
▁vain	-11.8312
▁Sa	-11.8313
▁Americano	-11.8314
▁marine	-11.8314
▁employed	-11.8315
▁concluded	-11.8315
▁backward	-11.8316
▁flexibility	-11.8316
▁legally	-11.8317
▁scope	-11.8318
▁Read	-11.8322
▁scar	-11.8325
▁Depend	-11.8325
ist	-11.8326
▁meanings	-11.8329
▁accumulated	-11.8331
▁homestay	-11.8331
▁wider	-11.8334
▁glance	-11.8343
▁assure	-11.8345
▁comply	-11.8348
▁Cha	-11.8354
▁multi	-11.8357
▁senses	-11.8359
ro	-11.8362
▁sleeves	-11.8365
▁filmed	-11.8366
▁masks	-11.8374
▁mushrooms	-11.8377
▁importing	-11.8394
▁timing	-11.8402
▁figured	-11.8421
▁lion	-11.8422
▁liking	-11.8429
▁bubbles	-11.8433
▁Table	-11.8443
▁grace	-11.8463
▁mothers	-11.8473
▁VIP	-11.8475
▁incidents	-11.8475
▁Bitcoin	-11.8481
▁tattoo	-11.8482
▁scarf	-11.8484
▁vibration	-11.8486
▁panel	-11.8487
▁citizen	-11.849
▁monster	-11.8491
▁sibling	-11.8491
▁servant	-11.8491
▁installment	-11.8491
▁restriction	-11.8491
▁variable	-11.8493
▁roller	-11.8496
▁candle	-11.85
▁permit	-11.8502
▁startup	-11.8508
▁thumb	-11.8509
▁decides	-11.8519
minutes	-11.8521
▁directors	-11.8523
▁tear	-11.8531
▁Grand	-11.854
king	-11.8542
▁Whe	-11.8552
▁dispatch	-11.8572
▁rating	-11.8573
▁roast	-11.8574
▁margin	-11.8575
▁reissue	-11.858
▁fabrics	-11.8581
▁transit	-11.8583
▁profession	-11.8585
▁pouch	-11.8588
▁desperate	-11.859
▁eats	-11.859
▁cinema	-11.859
▁Trump	-11.859
▁deputy	-11.859
▁Pacific	-11.859
▁Coffee	-11.8591
▁Francisco	-11.8591
▁Family	-11.8591
▁Nam	-11.8591
▁silly	-11.8591
▁Nepal	-11.8591
▁navy	-11.8591
▁hygiene	-11.8591
▁dropping	-11.8591
▁unhappy	-11.8592
▁infected	-11.8592
▁brilliant	-11.8593
▁promptly	-11.8593
▁floating	-11.8596
▁ownership	-11.8596
▁renewed	-11.8597
▁assembling	-11.8597
▁utility	-11.8597
▁eyesight	-11.8597
▁rewarded	-11.8601
▁alcoholic	-11.8601
▁moderate	-11.8604
▁closet	-11.8605
▁brighter	-11.8609
▁darker	-11.861
▁bu	-11.8611
▁bold	-11.8612
▁waking	-11.8614
▁bland	-11.8616
▁travelers	-11.8616
▁largely	-11.862
ill	-11.8621
▁applie	-11.8628
▁k	-11.8629
▁hospitals	-11.863
ook	-11.8637
▁bleach	-11.8641
▁Live	-11.8644
▁rolling	-11.8647
ational	-11.8651
▁Bus	-11.866
▁fame	-11.8661
▁insist	-11.8664
ter	-11.8668
▁balanced	-11.8674
▁proved	-11.8676
▁Wish	-11.8677
▁drying	-11.8684
ts	-11.8687
▁bio	-11.869
▁variables	-11.869
▁123	-11.8696
▁Sweet	-11.8703
▁clams	-11.8706
▁registering	-11.8731
▁discussions	-11.8734
▁clips	-11.8735
▁covering	-11.8737
▁App	-11.8742
▁shaped	-11.8743
led	-11.8755
▁yards	-11.8761
▁Seo	-11.8763
▁disasters	-11.8767
▁substitute	-11.8769
▁po	-11.8772
▁PR	-11.8773
▁generate	-11.8773
▁shine	-11.8775
▁occasion	-11.8781
▁alliance	-11.8781
▁soybean	-11.8782
▁diamond	-11.8783
▁fingerprint	-11.8783
▁coast	-11.8787
▁hardship	-11.8791
▁nerve	-11.8792
▁prayer	-11.8795
pped	-11.8804
▁sensors	-11.881
▁museums	-11.8815
▁Yoo	-11.8821
,000,000	-11.8822
▁holder	-11.8827
▁suite	-11.8832
▁distributor	-11.8843
han	-11.8848
▁strive	-11.8852
▁detect	-11.8859
▁estimates	-11.8863
▁immun	-11.8867
▁correspond	-11.8868
▁v	-11.8871
▁recycle	-11.8874
▁rib	-11.8876
▁criticize	-11.8876
▁attitudes	-11.8883
▁swap	-11.8884
▁sunshine	-11.8885
▁Exactly	-11.8885
▁Sadly	-11.8885
▁Pohang	-11.8885
▁Group	-11.8885
▁blueprint	-11.8885
▁overslept	-11.8885
▁horrible	-11.8886
▁intelligent	-11.8886
▁Tim	-11.8886
▁qualities	-11.8886
▁jogging	-11.8886
▁specify	-11.8886
▁sesame	-11.8886
▁nationality	-11.8887
▁partially	-11.8887
▁sheep	-11.8887
▁customized	-11.8888
▁Nike	-11.8889
▁bars	-11.8889
▁strictly	-11.889
▁engaged	-11.8893
▁Hye	-11.8896
▁collapsed	-11.8897
▁Select	-11.8901
▁600	-11.8904
▁engineers	-11.8904
▁aquarium	-11.8906
▁accountant	-11.8906
▁Indonesian	-11.891
▁fireworks	-11.8914
▁responded	-11.8914
▁Thinking	-11.8916
▁Design	-11.8917
▁Complex	-11.8929
▁bowling	-11.8939
et	-11.8943
▁donated	-11.8945
▁snowy	-11.895
▁stuffy	-11.895
▁temper	-11.8957
▁bowls	-11.8967
▁siblings	-11.8988
▁Home	-11.8998
▁finals	-11.9003
▁Sin	-11.9006
▁exceeds	-11.9014
▁comic	-11.9015
▁digest	-11.9022
▁Deliver	-11.9023
▁roots	-11.9024
▁professionals	-11.9028
▁derive	-11.9031
▁progressing	-11.9033
▁executives	-11.9036
▁achievements	-11.9043
ittle	-11.9044
▁flows	-11.9047
▁reform	-11.905
▁centers	-11.9061
▁contacts	-11.9064
▁Shin	-11.9071
▁fate	-11.9077
▁attorney	-11.9077
▁hangover	-11.9081
▁Moon	-11.9082
▁passage	-11.9082
▁lacks	-11.9084
▁Building	-11.9086
▁instructor	-11.9088
▁observation	-11.9094
▁folk	-11.9095
▁Gate	-11.9096
▁disk	-11.9098
▁booklet	-11.9099
▁carton	-11.9099
▁indoors	-11.9104
▁positions	-11.9106
ee	-11.9109
▁Cheer	-11.911
▁hundreds	-11.9118
▁pie	-11.9119
▁vessels	-11.9126
▁sink	-11.9134
like	-11.9136
▁pond	-11.9154
▁boast	-11.9156
▁sorts	-11.9161
▁reveal	-11.9168
▁erase	-11.9174
▁Prince	-11.9184
▁sketch	-11.9184
▁aggressive	-11.9185
▁ultimate	-11.9186
▁Venice	-11.9187
▁Vitamin	-11.9187
▁Ministry	-11.9188
▁equipped	-11.9188
▁adorable	-11.9188
▁sunscreen	-11.9188
▁vaccination	-11.9188
▁navigation	-11.9188
▁Basically	-11.9188
▁flesh	-11.9188
▁allergy	-11.9188
▁controller	-11.9188
▁circulation	-11.9188
▁toothpaste	-11.9188
▁Administration	-11.9188
▁undergraduate	-11.9188
▁unpleasant	-11.9188
▁farewell	-11.9188
▁Figure	-11.9189
▁banned	-11.9189
▁sunny	-11.919
▁downstairs	-11.919
▁irritated	-11.9191
▁Real	-11.9191
▁deducted	-11.9192
▁instantly	-11.9192
▁offended	-11.9192
▁exclusively	-11.9193
▁trigger	-11.9193
▁structural	-11.9193
▁Fourth	-11.9193
▁understands	-11.9193
▁technological	-11.9195
▁loudly	-11.9196
▁Leave	-11.9197
▁organizational	-11.9198
▁sequence	-11.9198
▁incorrectly	-11.9198
▁Boss	-11.9199
▁softly	-11.92
▁examining	-11.92
▁criticized	-11.9202
▁coughing	-11.9205
▁Nick	-11.9205
▁Cold	-11.9206
▁slippers	-11.9206
▁rocks	-11.9211
ent	-11.9212
▁cave	-11.922
▁dedicate	-11.9221
▁contributed	-11.9225
▁investing	-11.9225
▁Soon	-11.9225
▁cooler	-11.9228
▁Save	-11.9232
▁generations	-11.9234
▁bears	-11.9244
▁AA	-11.9249
▁bundle	-11.9252
▁spices	-11.9253
ish	-11.9258
▁responding	-11.9265
▁300,000	-11.9267
▁demanding	-11.9269
▁Ea	-11.9279
▁finishes	-11.9291
▁Know	-11.9292
▁bugs	-11.93
▁bacteria	-11.9301
▁seeds	-11.9306
▁construct	-11.9313
▁sympathize	-11.9318
▁Visit	-11.9319
▁needle	-11.932
using	-11.9337
ral	-11.934
▁Da	-11.9341
▁r	-11.935
▁costumes	-11.9351
▁Jeon	-11.9359
▁drawings	-11.9359
▁leftovers	-11.9375
▁breeze	-11.9384
bo	-11.9386
▁hotelier	-11.9391
▁refill	-11.9395
▁Kingdom	-11.9397
▁minister	-11.9398
▁attempts	-11.94
▁tiger	-11.9401
▁posters	-11.9408
▁conditioning	-11.941
▁palm	-11.9419
▁enterprises	-11.9422
▁phrases	-11.9426
▁vi	-11.9438
▁links	-11.9442
▁40,000	-11.9443
▁Southeast	-11.9444
▁hits	-11.9448
▁authentic	-11.9451
100	-11.9451
da	-11.946
▁Bob	-11.9462
▁environments	-11.947
▁wins	-11.948
▁magnet	-11.9482
▁Jo	-11.949
▁drain	-11.9491
▁Minh	-11.9492
▁stamps	-11.9493
▁ham	-11.9495
▁canceling	-11.9497
▁Di	-11.9497
▁Sleep	-11.9498
▁boxing	-11.9499
▁cozy	-11.95
▁vague	-11.95
▁lunar	-11.95
▁brunch	-11.95
▁terrace	-11.95
▁cathedral	-11.95
▁Manchester	-11.95
▁absorption	-11.95
▁suspension	-11.95
▁Modern	-11.95
▁spouse	-11.95
▁extraordinary	-11.95
▁resignation	-11.95
▁compulsory	-11.95
▁delicate	-11.9501
▁True	-11.9501
▁mailbox	-11.9501
▁relaxation	-11.9501
▁ignoring	-11.9502
▁ultimately	-11.9502
▁grandparents	-11.9502
▁aptitude	-11.9503
▁coverage	-11.9503
▁hassle	-11.9504
▁scratches	-11.9505
▁ours	-11.9506
▁Click	-11.9506
▁Experience	-11.9506
▁entertaining	-11.9506
▁freezer	-11.9506
▁Gyeongbokgung	-11.9507
▁bullying	-11.9507
▁welding	-11.9508
▁restore	-11.9508
▁hardware	-11.9508
▁flash	-11.9509
▁programming	-11.9509
▁calmly	-11.9509
▁negatively	-11.9511
▁Traveling	-11.9518
▁sub	-11.952
▁wealthy	-11.9521
▁attacked	-11.9521
▁sickness	-11.9522
▁closes	-11.9525
sh	-11.9529
▁exported	-11.953
▁storing	-11.9531
▁blowing	-11.9532
▁gladly	-11.9533
▁elected	-11.9538
▁reconsider	-11.954
ut	-11.9541
▁500,000	-11.9545
▁bow	-11.9549
▁importer	-11.9552
▁insects	-11.956
▁earning	-11.9561
▁shout	-11.9563
▁avoided	-11.9567
▁Abo	-11.9571
▁chew	-11.9573
▁flowing	-11.9578
▁aliens	-11.9583
▁grapes	-11.9583
▁Girls	-11.9584
▁Head	-11.9604
▁La	-11.9608
▁candles	-11.9614
▁appointments	-11.962
▁Animal	-11.9637
▁Buy	-11.9646
▁sin	-11.9649
▁sticks	-11.9657
▁aroma	-11.9659
▁mid	-11.966
▁Post	-11.9662
▁pads	-11.9668
ver	-11.9672
ei	-11.9683
▁batter	-11.9692
round	-11.9708
▁aisle	-11.9708
▁amounts	-11.9711
▁disorder	-11.9711
▁nutritional	-11.9715
▁recipient	-11.9715
▁ribbon	-11.9715
▁textbooks	-11.9717
▁drives	-11.9718
▁Philippine	-11.9718
istic	-11.9719
▁contribution	-11.9722
back	-11.9727
▁crown	-11.9728
▁grant	-11.9738
referred	-11.9745
▁Lake	-11.9748
▁dirt	-11.975
▁mentor	-11.976
▁ho	-11.9765
▁agricultur	-11.9799
▁Kyung	-11.9805
▁awards	-11.9806
▁refrain	-11.9808
▁van	-11.9812
▁grasp	-11.9817
▁Ever	-11.9818
▁faithful	-11.9821
▁yacht	-11.9822
▁casino	-11.9822
▁turkey	-11.9822
▁Autumn	-11.9822
▁vanilla	-11.9822
▁dignity	-11.9822
▁Language	-11.9823
▁Catholic	-11.9823
▁serum	-11.9823
▁Boracay	-11.9823
▁Government	-11.9823
▁sympathy	-11.9823
▁engagement	-11.9823
▁contrary	-11.9823
▁unlimited	-11.9823
▁Disneyland	-11.9823
▁unemployment	-11.9823
▁accompanied	-11.9823
▁disposal	-11.9823
▁starving	-11.9823
▁simultaneously	-11.9823
▁worthwhile	-11.9823
▁Enter	-11.9823
▁copied	-11.9824
▁sessions	-11.9824
▁originated	-11.9824
▁sustainable	-11.9824
▁Alice	-11.9824
▁staffs	-11.9825
▁brightness	-11.9825
▁Naver	-11.9825
▁deck	-11.9826
▁acne	-11.9826
▁spilled	-11.9826
▁refreshed	-11.9828
▁writers	-11.9829
▁tasting	-11.9832
▁availability	-11.9833
▁Work	-11.9834
▁secretly	-11.9834
▁Working	-11.9836
▁finalized	-11.9836
▁broaden	-11.9837
▁edited	-11.9837
▁oppose	-11.9839
▁objection	-11.9839
▁burned	-11.9839
▁KT	-11.9839
ological	-11.9844
▁pretending	-11.9845
▁laughed	-11.9849
▁decreases	-11.9849
▁Parents	-11.9849
my	-11.9849
ling	-11.985
▁invested	-11.9856
▁African	-11.9858
▁featured	-11.988
▁coloring	-11.9881
▁blocking	-11.9881
▁governments	-11.9891
▁Roman	-11.9892
dependent	-11.9901
▁fed	-11.9912
▁upside	-11.9913
▁structures	-11.9915
▁seeking	-11.9919
▁y	-11.9921
▁mo	-11.9922
▁matched	-11.9922
▁fasten	-11.993
▁hardships	-11.9934
▁Islam	-11.9938
▁staring	-11.9938
▁lively	-11.9938
are	-11.9945
▁suggests	-11.9947
▁cares	-11.9957
▁PI	-11.9964
▁confess	-11.9968
▁PE	-11.9968
▁heal	-11.9977
▁watches	-11.9986
low	-11.9987
▁develops	-11.999
▁measurements	-11.999
▁mat	-12
▁preliminar	-12.0001
▁micro	-12.0007
▁objectives	-12.0015
▁pitch	-12.003
▁collapse	-12.0033
▁grounds	-12.0036
▁preserve	-12.0038
▁handkerchief	-12.0039
▁implementation	-12.0039
▁captain	-12.0045
▁crosswalk	-12.0045
▁URL	-12.0046
▁semiconductor	-12.0048
de	-12.0048
▁civilization	-12.0048
▁legend	-12.0049
▁CCTV	-12.0049
▁youth	-12.0049
▁Edward	-12.005
▁consultant	-12.0053
▁Law	-12.0055
▁operator	-12.0057
▁musician	-12.0057
▁limitation	-12.006
▁tires	-12.0065
V	-12.0066
▁transition	-12.0068
▁Research	-12.0091
▁Correct	-12.0105
▁abnormal	-12.0109
▁officials	-12.0112
▁Bu	-12.0113
ious	-12.0119
▁knock	-12.0138
▁polish	-12.0138
▁categorize	-12.0139
▁accompany	-12.0142
▁pronounce	-12.0142
▁revenge	-12.0144
▁blankets	-12.0146
▁vend	-12.0149
ability	-12.0155
▁VAT	-12.0155
▁Club	-12.0155
▁Czech	-12.0156
▁Empire	-12.0156
▁Sarah	-12.0156
▁melody	-12.0156
▁replies	-12.0156
▁Project	-12.0156
▁eligible	-12.0156
▁pipe	-12.0156
▁Association	-12.0156
▁Assembly	-12.0156
▁Gwanghwamun	-12.0156
▁diabetes	-12.0156
▁fascinating	-12.0156
▁trunk	-12.0156
▁equation	-12.0156
▁charity	-12.0156
▁frustrating	-12.0156
▁Buddhist	-12.0156
▁shiny	-12.0156
▁Institute	-12.0156
▁encouragement	-12.0156
▁diarrhea	-12.0156
▁authentication	-12.0156
▁elastic	-12.0157
▁thirsty	-12.0157
▁diversity	-12.0157
▁welcoming	-12.0158
▁delighted	-12.0158
▁hottest	-12.0158
▁OEM	-12.0158
▁Generally	-12.0159
▁combin	-12.0159
▁betrayed	-12.0161
▁reduces	-12.0161
▁hallway	-12.0162
▁Trust	-12.0163
▁typing	-12.0164
▁cracked	-12.0165
▁peach	-12.0165
▁physics	-12.0166
▁compatibility	-12.0167
▁logistics	-12.0168
▁climbed	-12.0169
▁capability	-12.0169
▁tutoring	-12.0169
▁merely	-12.0171
▁con	-12.0172
▁inappropriate	-12.0172
▁Long	-12.0175
▁2011	-12.0175
▁activated	-12.0176
▁George	-12.0178
▁poorly	-12.018
▁arranging	-12.0183
ium	-12.0183
▁audiences	-12.0186
▁Mak	-12.0188
▁assembled	-12.019
▁Jun	-12.019
▁gum	-12.0195
▁crops	-12.0195
▁adapting	-12.0197
▁Port	-12.0199
ma	-12.0205
▁peanuts	-12.0206
ki	-12.0208
▁routes	-12.021
▁plus	-12.0214
▁Cho	-12.0217
▁rolled	-12.0224
▁grains	-12.0229
▁funding	-12.0235
▁embrace	-12.0236
▁Brown	-12.0237
▁heated	-12.0239
aring	-12.0239
▁faults	-12.024
▁lace	-12.0258
months	-12.0268
▁Eve	-12.0274
▁amend	-12.0277
▁stance	-12.028
▁shines	-12.0284
▁EU	-12.029
▁Doctor	-12.0291
▁qualifications	-12.0298
▁acquaintances	-12.0306
▁melts	-12.0309
00.	-12.0322
▁sons	-12.0322
▁bicycles	-12.0324
ba	-12.0325
▁stack	-12.0338
▁anti	-12.034
▁dig	-12.0341
▁powers	-12.0342
▁ships	-12.0343
▁couch	-12.0351
▁Spa	-12.0353
▁promotions	-12.0356
▁reject	-12.0367
ea	-12.0368
▁tutor	-12.0368
▁1.5	-12.0372
ating	-12.0375
▁proportion	-12.0376
▁slope	-12.0377
▁Too	-12.0378
▁yield	-12.0383
▁barcode	-12.0383
▁connections	-12.0385
▁cleanser	-12.0386
▁rail	-12.039
▁ward	-12.0391
▁pa	-12.0392
▁editor	-12.0394
▁bake	-12.0395
▁conservative	-12.0396
▁turtle	-12.0398
▁pillar	-12.0399
▁therapist	-12.0399
▁dinosaur	-12.04
▁balloon	-12.04
▁Speak	-12.0401
▁guideline	-12.0403
▁publication	-12.0408
▁rhythm	-12.0412
▁robots	-12.0421
▁dont	-12.0429
▁alien	-12.0432
came	-12.0443
▁concepts	-12.0445
▁Age	-12.045
▁abstract	-12.0462
▁stones	-12.0463
▁weekday	-12.0464
▁Ye	-12.0465
▁crash	-12.0475
ge	-12.0477
▁Book	-12.0481
▁32	-12.0482
▁obey	-12.0486
▁bargain	-12.0491
light	-12.0493
▁Land	-12.0494
▁alert	-12.0495
▁differentiate	-12.0496
▁di	-12.0496
▁Discuss	-12.0496
▁vivid	-12.0498
▁horizontal	-12.0499
▁tremendous	-12.0499
▁accent	-12.0499
▁excess	-12.0499
▁Emma	-12.05
▁stamina	-12.0501
▁balcony	-12.0501
▁fifteen	-12.0501
▁bathtub	-12.0501
▁Companies	-12.0501
▁recession	-12.0501
▁optimistic	-12.0501
▁opposition	-12.0501
▁Corporation	-12.0501
▁transmission	-12.0501
▁determination	-12.0501
▁eyelashes	-12.0501
▁scanned	-12.0501
▁similarities	-12.0502
▁clinical	-12.0502
▁negotiating	-12.0502
▁Susan	-12.0502
▁earnest	-12.0502
▁apologies	-12.0503
▁concentrating	-12.0503
▁radish	-12.0504
▁politely	-12.0504
▁bulletin	-12.0505
▁devil	-12.0505
▁cancelled	-12.0505
▁Guess	-12.0506
▁gravity	-12.0507
▁accustomed	-12.0507
▁voltage	-12.0508
▁secondary	-12.0508
▁dispatched	-12.0508
▁wandering	-12.0508
▁ballet	-12.0509
▁e	-12.0509
▁inspected	-12.051
▁Town	-12.0512
▁humanity	-12.0513
▁purse	-12.0514
▁minimal	-12.0514
▁opposed	-12.0516
▁deny	-12.0517
▁autonomous	-12.0517
▁educated	-12.0517
▁brightly	-12.0518
▁folding	-12.0519
▁financially	-12.0519
▁slower	-12.052
▁leaking	-12.0522
▁motive	-12.0524
▁Hence	-12.0526
▁stretched	-12.0526
▁advertised	-12.053
▁2010	-12.053
▁Ki	-12.0531
▁Marketing	-12.0533
▁approached	-12.0534
▁SIM	-12.0534
▁flaws	-12.054
▁Yong	-12.0542
▁considerable	-12.0547
▁Soup	-12.0547
▁Windows	-12.0548
▁secured	-12.0554
ated	-12.0571
ize	-12.0572
▁writings	-12.0573
▁rotation	-12.0583
▁marketers	-12.0584
▁tent	-12.0586
▁Four	-12.0588
▁wig	-12.0589
▁worthy	-12.059
▁Ba	-12.0591
▁Again	-12.0592
▁praying	-12.0608
▁Snow	-12.0613
care	-12.0616
▁danced	-12.0618
▁grave	-12.0619
▁occasions	-12.0621
▁stressful	-12.0621
▁slot	-12.0622
▁Si	-12.0623
▁treats	-12.0633
Smith	-12.0634
▁labels	-12.0634
5,000	-12.0639
▁shorten	-12.064
▁desks	-12.0643
▁affiliate	-12.067
▁deserves	-12.0685
▁Back	-12.0688
▁dip	-12.0696
▁Data	-12.0698
▁lent	-12.0699
▁Kind	-12.07
▁Haven	-12.07
▁34	-12.0706
regarded	-12.0717
▁investments	-12.0718
▁retire	-12.0725
▁PT	-12.0726
▁agents	-12.0734
▁convention	-12.0737
▁sunblock	-12.074
▁spoons	-12.0743
▁bouquet	-12.0749
▁protagonist	-12.075
▁mackerel	-12.075
▁Tak	-12.0751
▁diagram	-12.0754
▁genetic	-12.0755
▁amendment	-12.0756
▁withdrawal	-12.0757
▁fellow	-12.0758
▁fluid	-12.0761
▁cliff	-12.0763
▁burns	-12.077
▁springs	-12.0784
▁Ahn	-12.0788
▁urge	-12.0789
▁exceptional	-12.0796
▁protest	-12.0804
▁guild	-12.0804
▁circles	-12.0815
▁cow	-12.0821
▁Saturdays	-12.0827
▁36	-12.083
▁silence	-12.0835
made	-12.084
▁malfunction	-12.0841
▁mesh	-12.0845
▁venture	-12.0846
▁associate	-12.0848
▁accumulate	-12.0853
▁Daniel	-12.0857
▁jazz	-12.0857
▁racism	-12.0857
▁rotten	-12.0857
▁whiskey	-12.0857
▁garage	-12.0857
▁hockey	-12.0857
▁calcium	-12.0857
▁Number	-12.0857
▁Indeed	-12.0857
▁PPT	-12.0857
▁boundary	-12.0857
▁hectic	-12.0857
▁choir	-12.0858
▁amazed	-12.0858
▁Province	-12.0858
▁magnificent	-12.0858
▁tteokbokki	-12.0858
▁inventories	-12.0858
▁Agreement	-12.0858
etic	-12.0858
▁renewal	-12.0859
▁Regardless	-12.0859
▁systematic	-12.0859
▁injuries	-12.0859
▁commuting	-12.0859
▁integration	-12.0859
▁intake	-12.0859
▁ballpoint	-12.0859
▁Golden	-12.0859
▁unreasonable	-12.086
▁distorted	-12.086
▁controlling	-12.086
▁enteritis	-12.086
▁enclosed	-12.0862
▁severely	-12.0863
▁Eastern	-12.0863
▁poverty	-12.0865
▁chemistry	-12.0866
▁suspected	-12.0867
▁ethics	-12.0867
▁tightly	-12.0868
son	-12.0868
▁issuance	-12.0868
▁Meeting	-12.0869
▁clay	-12.0869
▁wounded	-12.0871
▁retired	-12.0872
▁Eun	-12.0873
▁jumped	-12.0873
▁stealing	-12.0874
way	-12.0875
▁businessman	-12.0878
▁Ga	-12.0879
▁hosted	-12.0882
▁bless	-12.0882
▁profitable	-12.0884
▁consequences	-12.0889
▁login	-12.0892
▁wool	-12.0893
▁toppings	-12.0898
▁Las	-12.0899
▁referee	-12.0901
ad	-12.0905
▁Yons	-12.0913
▁Jones	-12.0913
▁failing	-12.0914
her	-12.0921
▁exporting	-12.0935
▁authorized	-12.0944
▁gel	-12.0945
book	-12.0947
▁cuts	-12.0962
▁En	-12.0965
▁speeding	-12.0972
▁nerves	-12.0973
▁addresses	-12.0975
ice	-12.0982
▁Assistan	-12.0988
▁squeeze	-12.0994
▁theft	-12.1006
▁chickens	-12.1008
▁tab	-12.101
▁Jae	-12.1031
▁seated	-12.1033
▁Israel	-12.1033
▁graphics	-12.1036
▁fiction	-12.1042
▁exhibitions	-12.1046
▁pine	-12.1065
▁crystal	-12.1066
▁spite	-12.1074
▁elders	-12.1074
▁alphabet	-12.1075
▁Amy	-12.1077
▁auto	-12.1086
▁noises	-12.11
day	-12.1104
▁flood	-12.1104
▁dies	-12.1107
▁pudding	-12.1109
▁bandage	-12.1109
▁portfolio	-12.1115
▁drip	-12.1119
▁infrastructure	-12.112
▁railway	-12.112
▁Filipino	-12.1123
▁technician	-12.1124
▁mechanism	-12.1125
▁counsel	-12.1126
▁pancake	-12.1126
▁cucumber	-12.1127
▁tumbler	-12.1127
▁Girl	-12.1127
▁bothers	-12.1129
▁valve	-12.1132
▁infant	-12.1132
▁spec	-12.1135
▁pigs	-12.1136
▁corporations	-12.1138
▁stream	-12.1141
▁sculpture	-12.1142
▁Je	-12.1144
▁manufacturers	-12.1147
▁horses	-12.115
▁bump	-12.1165
▁Ben	-12.1166
▁defend	-12.1177
▁Fair	-12.1189
▁st	-12.119
ink	-12.1191
▁congratulat	-12.1193
▁tons	-12.1194
▁Jong	-12.1213
▁lo	-12.1214
▁Chung	-12.1214
▁marking	-12.122
▁hunt	-12.1223
▁genius	-12.1224
▁splendid	-12.1225
▁Prague	-12.1227
▁Texas	-12.1227
▁UNESCO	-12.1227
▁Vancouver	-12.1227
▁equivalent	-12.1227
▁limousine	-12.1227
▁butterfly	-12.1227
▁Vienna	-12.1227
▁amenities	-12.1227
▁barbeque	-12.1227
▁prettiest	-12.1227
▁cereal	-12.1227
▁dairy	-12.1227
▁clarify	-12.1227
▁dioxide	-12.1227
▁Technology	-12.1227
▁trustworthy	-12.1227
▁conscious	-12.1227
▁synergy	-12.1227
▁Islamic	-12.1227
▁uneasy	-12.1227
▁insomnia	-12.1227
▁Police	-12.1228
▁tidy	-12.1228
▁separation	-12.1228
▁Henry	-12.1228
▁trademark	-12.1228
▁Subway	-12.1228
v	-12.1228
▁Personally	-12.1228
▁burdensome	-12.1228
▁Surprisingly	-12.1228
▁Avoid	-12.1228
▁hip	-12.1228
▁Frankly	-12.1228
▁idiot	-12.1229
▁ruling	-12.1229
▁globalization	-12.1229
▁breakdown	-12.1229
▁respectively	-12.1229
▁snowman	-12.123
▁incur	-12.123
▁conventional	-12.123
▁VR	-12.1231
▁woods	-12.1232
▁Customs	-12.1232
▁overdue	-12.1233
▁logging	-12.1235
▁bible	-12.1235
▁struck	-12.1236
▁Physical	-12.1236
▁candies	-12.1236
▁garment	-12.1237
▁promising	-12.1237
▁stir	-12.1238
▁logic	-12.1238
▁hunting	-12.1239
▁mustard	-12.1239
▁scratched	-12.124
▁groom	-12.124
▁complained	-12.1241
▁aimed	-12.1242
▁uncertain	-12.1242
cuba	-12.1243
▁preserved	-12.1245
▁strangely	-12.1245
▁Reading	-12.1246
▁Avengers	-12.1246
▁dragon	-12.1247
▁periods	-12.1248
▁repay	-12.125
▁Material	-12.125
▁firstly	-12.1251
▁accuracy	-12.1253
▁communications	-12.1254
▁switched	-12.126
▁lifting	-12.1263
▁snake	-12.1264
▁skilled	-12.1268
▁dresses	-12.1274
6,000	-12.1276
▁failures	-12.1276
▁appliances	-12.1282
▁fishes	-12.1283
▁wet	-12.1288
▁Fr	-12.1291
no	-12.1309
▁blend	-12.1312
▁minerals	-12.1316
▁List	-12.1319
▁warmth	-12.1342
▁compact	-12.1348
▁signatures	-12.1353
▁Joe	-12.1354
▁aims	-12.1359
▁refunds	-12.1359
gi	-12.1363
▁wa	-12.1367
▁developers	-12.1377
▁concerts	-12.1393
▁Travel	-12.1396
▁compliments	-12.1399
▁specially	-12.1418
▁commercials	-12.142
san	-12.1433
▁circula	-12.1437
15	-12.1444
▁Yeon	-12.1446
▁texting	-12.1456
▁planets	-12.1463
▁poems	-12.1468
▁investigat	-12.1477
▁solo	-12.1478
▁wit	-12.1478
▁rash	-12.1483
ntage	-12.1491
▁pains	-12.1493
▁conclude	-12.1493
▁recipes	-12.1493
▁contracted	-12.1494
▁gay	-12.1494
▁rainbow	-12.15
▁Move	-12.1501
eanwhile	-12.1503
▁pamphlet	-12.1503
▁cheek	-12.1504
▁possession	-12.1507
▁reflection	-12.1509
▁ATM	-12.1509
▁parameter	-12.1511
▁mushroom	-12.1512
▁browser	-12.1512
▁Rio	-12.1516
ying	-12.1523
▁seed	-12.1539
▁chemicals	-12.1542
▁attendants	-12.1545
▁tide	-12.1551
▁religions	-12.1551
▁shrimps	-12.1564
▁beg	-12.1574
long	-12.1577
▁chin	-12.1577
▁outlet	-12.1581
▁pe	-12.1585
▁grain	-12.1587
▁rational	-12.1595
▁divid	-12.1596
▁bid	-12.1598
▁intentions	-12.1599
▁Eric	-12.16
▁recharge	-12.1606
▁sh	-12.1608
▁Foreign	-12.1608
▁Florida	-12.1612
▁Okinawa	-12.1612
▁psychology	-12.1612
▁Turkish	-12.1612
▁capabilities	-12.1612
▁Library	-12.1612
▁denied	-12.1612
▁buckwheat	-12.1612
▁distinctive	-12.1612
▁detour	-12.1612
▁harbor	-12.1612
▁Ramen	-12.1612
▁Smoking	-12.1612
▁apparently	-12.1612
▁parade	-12.1612
▁Somebody	-12.1613
▁forbidden	-12.1613
▁Visa	-12.1613
▁History	-12.1613
▁southern	-12.1613
▁swelling	-12.1614
▁itchy	-12.1614
▁wisely	-12.1614
▁troublesome	-12.1614
▁disgusting	-12.1615
▁updating	-12.1615
▁wolf	-12.1615
▁racial	-12.1615
▁freshness	-12.1616
▁Soju	-12.1616
▁cheated	-12.1617
▁Thankfully	-12.1617
▁quitting	-12.1618
▁cousins	-12.1618
▁1,500	-12.1619
▁judging	-12.162
▁arguing	-12.162
▁exhausting	-12.162
▁bend	-12.1621
▁Learning	-12.1622
▁poured	-12.1623
▁Vegas	-12.1625
▁infinite	-12.1628
▁fullest	-12.1631
▁vast	-12.1632
▁predicted	-12.1632
▁pricing	-12.1632
▁broadcasted	-12.1632
▁Stew	-12.1632
▁rays	-12.1633
▁undergoing	-12.1633
▁Netherlands	-12.1634
▁majors	-12.1634
▁occupied	-12.1636
▁Search	-12.1641
▁historic	-12.1642
▁seasonal	-12.1642
▁DB	-12.1643
▁joints	-12.1645
▁Jobs	-12.1645
▁warmly	-12.1648
▁investigated	-12.1648
▁SM	-12.165
▁proven	-12.1654
▁jet	-12.1655
▁volunteered	-12.1658
▁Dogs	-12.1658
▁aged	-12.1659
▁Natural	-12.1659
▁amended	-12.1661
▁fights	-12.1665
▁oysters	-12.1669
▁relate	-12.1671
▁prime	-12.1673
▁feeding	-12.1673
▁101	-12.1681
▁Road	-12.1682
used	-12.1694
use	-12.1696
▁n	-12.1697
▁breach	-12.1702
ay	-12.1703
yo	-12.171
▁chase	-12.1711
▁receives	-12.1716
▁sensation	-12.1716
.1	-12.1721
▁appearing	-12.1722
▁scrap	-12.1723
▁Cheese	-12.1725
magine	-12.1736
▁0.	-12.1742
▁Seung	-12.1743
▁eel	-12.1744
▁shirts	-12.1745
▁Understand	-12.1747
▁spice	-12.176
▁producers	-12.1762
eastern	-12.177
▁paints	-12.1775
ought	-12.1787
▁Clean	-12.179
▁reporters	-12.1801
ternity	-12.1803
▁interactions	-12.1803
▁modules	-12.1809
▁arrangements	-12.1812
▁mount	-12.1815
▁forming	-12.1823
ara	-12.183
▁Bo	-12.1831
▁licenses	-12.1831
▁dull	-12.1833
▁modifications	-12.1848
5.	-12.1876
▁voices	-12.1881
▁database	-12.1893
▁formation	-12.1894
eddy	-12.1899
▁explosion	-12.1899
▁oral	-12.1903
▁removal	-12.1907
▁scenario	-12.191
▁beginner	-12.191
▁obligation	-12.1911
▁accomplishment	-12.1911
▁kitten	-12.1911
▁scientist	-12.1912
▁journal	-12.1914
▁grape	-12.1915
▁zip	-12.1918
▁guides	-12.1921
▁farmer	-12.1921
▁correcting	-12.1927
▁highlight	-12.1933
▁females	-12.1935
▁olive	-12.1936
▁spelling	-12.1941
ol	-12.1947
can	-12.1951
▁ban	-12.1959
▁undergo	-12.196
▁replac	-12.196
N	-12.1961
▁shell	-12.1961
2.	-12.1963
▁merchandise	-12.1963
▁arise	-12.1967
11	-12.1968
▁par	-12.1972
▁exercised	-12.1975
▁enforce	-12.1977
▁races	-12.1977
▁Yang	-12.198
end	-12.1981
▁silicon	-12.1984
▁disappears	-12.1988
▁retrieve	-12.1994
▁Ver	-12.1997
ri	-12.1999
▁neglect	-12.2005
▁poison	-12.2006
▁spiritual	-12.2009
▁absolute	-12.201
▁cubic	-12.201
▁provision	-12.2011
▁absurd	-12.2011
▁ASMR	-12.2012
▁charcoal	-12.2012
▁ketchup	-12.2012
▁plentiful	-12.2012
▁satellite	-12.2012
▁Belgium	-12.2012
▁Chuncheon	-12.2012
▁Pyeongchang	-12.2012
▁Britain	-12.2012
▁Cultural	-12.2012
▁probability	-12.2012
▁Dutch	-12.2012
▁Mobile	-12.2012
▁coconut	-12.2012
▁taekwondo	-12.2012
▁geography	-12.2012
▁Foundation	-12.2012
▁twelve	-12.2012
▁durability	-12.2012
▁Myeongdong	-12.2012
▁Purito	-12.2012
▁missionary	-12.2012
▁skipped	-12.2012
▁confidential	-12.2012
▁buried	-12.2012
▁Shipping	-12.2013
▁Spread	-12.2013
▁bothersome	-12.2013
▁vocal	-12.2013
▁whitening	-12.2014
▁childcare	-12.2015
▁imagining	-12.2016
▁Martin	-12.2016
▁elsewhere	-12.2016
▁shook	-12.2016
▁polluted	-12.2017
▁regretted	-12.2017
▁Insadong	-12.2017
▁indication	-12.2017
▁filters	-12.2018
cientists	-12.202
▁depth	-12.2022
▁unbelievable	-12.2023
▁motivate	-12.2029
▁differentiated	-12.203
▁Following	-12.2033
▁modeling	-12.2034
▁reorder	-12.2035
▁fork	-12.2037
▁Jackson	-12.2039
▁folded	-12.204
▁internationally	-12.2042
▁aiming	-12.2043
▁reaches	-12.205
▁noticeable	-12.2053
▁assumed	-12.2054
▁cured	-12.2056
▁hike	-12.2058
▁coworkers	-12.206
ju	-12.2065
▁Tree	-12.2067
▁separat	-12.2069
▁zombies	-12.2071
▁inexpensive	-12.2072
▁witch	-12.2074
▁boards	-12.2078
▁steep	-12.2079
▁Note	-12.2082
▁frames	-12.2088
▁Dan	-12.2093
▁logical	-12.2097
▁biological	-12.2098
▁translators	-12.2106
▁operational	-12.2117
▁Van	-12.2121
▁cucumbers	-12.2121
▁lasts	-12.2125
▁organs	-12.2127
pointed	-12.2138
▁noble	-12.2139
▁offices	-12.2142
▁Lim	-12.2151
for	-12.2155
▁chill	-12.216
▁Sang	-12.2165
▁Jan	-12.2167
▁Practic	-12.2174
▁progressive	-12.2181
▁Fi	-12.2186
dong	-12.2188
▁sections	-12.2191
▁aches	-12.2193
▁strings	-12.2199
▁stem	-12.22
▁deduct	-12.2203
▁mock	-12.2212
▁flip	-12.2214
▁Power	-12.2215
▁bananas	-12.222
▁winners	-12.2221
▁loses	-12.2234
entella	-12.2239
ml	-12.224
▁Gu	-12.2255
▁rang	-12.2265
▁trans	-12.2265
▁tissues	-12.2266
▁Arts	-12.2275
▁arguments	-12.2276
▁digesti	-12.2277
▁controls	-12.2283
ification	-12.2297
▁cheat	-12.2299
▁auditorium	-12.2308
▁microphone	-12.2309
▁Minister	-12.231
▁cope	-12.2312
▁ecosystem	-12.2316
▁miracle	-12.232
▁overlap	-12.2325
▁cylinder	-12.2325
▁2012	-12.2326
▁nutrient	-12.2328
▁bulb	-12.2328
▁incentive	-12.2328
▁mineral	-12.2329
▁specialist	-12.2331
▁translations	-12.2335
▁vibe	-12.2337
▁compound	-12.2338
▁upward	-12.2338
▁sprain	-12.2353
▁Ra	-12.2354
▁restraint	-12.2357
▁aerobic	-12.2357
▁repairs	-12.2362
▁owe	-12.237
▁broker	-12.2372
▁researcher	-12.238
▁arrest	-12.2385
▁Jay	-12.2385
▁Share	-12.2392
work	-12.2399
▁references	-12.2407
▁attacks	-12.2407
▁Remov	-12.2411
▁Austria	-12.2414
▁prints	-12.2417
▁pile	-12.2418
▁Meet	-12.2419
▁finalize	-12.2421
▁dispose	-12.2422
▁networks	-12.2425
▁fierce	-12.2426
▁comprehensive	-12.2426
▁bankrupt	-12.2428
▁Dongdaemun	-12.2428
▁Toronto	-12.2428
▁controversy	-12.2428
▁vacancy	-12.2428
▁acrylic	-12.2428
▁lettuce	-12.2428
▁ventilation	-12.2428
▁marvelous	-12.2428
▁voluntarily	-12.2428
▁Buddha	-12.2428
▁Chosun	-12.2428
▁nutritious	-12.2428
▁rugby	-12.2428
▁Cinderella	-12.2428
▁eldest	-12.2428
▁inflammation	-12.2428
▁overlapped	-12.2428
▁hanbok	-12.2428
▁spacious	-12.2428
▁Minji	-12.2428
▁Running	-12.2428
▁craving	-12.2429
▁Uber	-12.2429
▁Royal	-12.2429
▁gambling	-12.2429
▁unhealthy	-12.2429
▁Living	-12.2429
▁Changwon	-12.2429
▁eager	-12.2429
▁density	-12.2429
▁Brian	-12.2429
▁OSD	-12.2429
▁execute	-12.2429
▁shutter	-12.243
▁eagerly	-12.243
▁Article	-12.243
▁Engineering	-12.243
▁Smart	-12.2431
▁deceived	-12.2431
▁scattered	-12.2431
we	-12.2432
▁Cook	-12.2432
▁urine	-12.2432
▁bacon	-12.2432
▁restocked	-12.2433
▁cooperating	-12.2433
▁albums	-12.2434
▁twisted	-12.2434
▁strip	-12.2434
▁globe	-12.2434
▁freshmen	-12.2434
▁snowboarding	-12.2435
▁liar	-12.2435
▁precautions	-12.2435
▁passionately	-12.2435
▁deliveries	-12.2435
▁initially	-12.2436
▁skirts	-12.2438
▁timid	-12.2438
▁convinced	-12.2439
▁Someday	-12.2439
▁marketplace	-12.2439
▁defeated	-12.244
▁healed	-12.244
▁voting	-12.2441
▁restart	-12.2442
▁optical	-12.2443
▁Web	-12.2443
▁Minho	-12.2444
▁confidently	-12.2444
raised	-12.2446
▁listens	-12.2446
▁Jimin	-12.2447
▁awarded	-12.2448
▁professionally	-12.2449
▁illustrate	-12.2451
▁assess	-12.2455
▁abs	-12.2455
▁appealing	-12.246
▁contractor	-12.2462
▁rewarding	-12.2463
▁repetitive	-12.2463
▁blooming	-12.2465
▁sweating	-12.2476
▁particles	-12.2478
▁backside	-12.2479
▁rushed	-12.2485
▁hosting	-12.2488
▁beaches	-12.2491
▁IS	-12.2501
▁Trade	-12.251
▁spill	-12.251
▁ab	-12.2512
wear	-12.2514
▁inject	-12.2517
ck	-12.2517
▁contemporar	-12.252
▁farmers	-12.2535
▁AC	-12.2547
▁presentations	-12.2549
▁sorted	-12.2553
▁musicians	-12.2556
▁triple	-12.2564
▁intent	-12.2571
▁bonds	-12.2571
blew	-12.2575
▁ghosts	-12.2584
▁hats	-12.2586
▁enjoys	-12.2593
▁cables	-12.2603
lementary	-12.2604
▁wander	-12.2629
▁wastes	-12.2637
▁Class	-12.2642
▁roses	-12.2645
▁exports	-12.2647
▁beliefs	-12.2674
▁3,	-12.2688
▁Grill	-12.2691
▁St	-12.2693
▁grabb	-12.2694
▁suppliers	-12.2699
▁Control	-12.2705
▁beers	-12.2706
▁5.	-12.2721
▁terror	-12.2729
▁signals	-12.2731
▁4,	-12.2734
▁lease	-12.2735
▁constitution	-12.2742
▁introvert	-12.2748
▁sponge	-12.2751
▁Hill	-12.2753
▁scheme	-12.2754
▁americano	-12.2754
▁straw	-12.2755
▁commitment	-12.2757
▁helicopter	-12.2758
▁Model	-12.276
▁tighten	-12.276
▁spider	-12.2762
▁Airline	-12.2764
▁carrot	-12.2765
▁hazard	-12.2765
▁clause	-12.2768
pe	-12.277
▁alternatives	-12.2771
▁static	-12.2777
▁bomb	-12.278
▁codes	-12.2782
▁Lo	-12.279
▁burgers	-12.2791
▁Tech	-12.2798
▁Tanzania	-12.2823
▁auction	-12.2836
▁bathrooms	-12.2838
▁shares	-12.2843
place	-12.2843
▁Ro	-12.2845
▁intimate	-12.2861
▁terminate	-12.2862
▁Frank	-12.2863
▁Alex	-12.2863
▁Beethoven	-12.2863
▁Hokkaido	-12.2863
▁collision	-12.2863
▁constipation	-12.2863
▁enthusiasm	-12.2863
▁tunnel	-12.2863
▁unavoidable	-12.2863
▁vinegar	-12.2863
▁Identify	-12.2863
▁innocence	-12.2863
▁diameter	-12.2863
▁Church	-12.2863
▁Hanoi	-12.2863
▁Saudi	-12.2863
▁Tourism	-12.2863
▁fifty	-12.2863
▁Chocolate	-12.2863
▁Safety	-12.2863
▁Berlin	-12.2863
▁inevitably	-12.2863
▁vitality	-12.2863
▁wheelchair	-12.2863
▁DNA	-12.2863
▁Gimpo	-12.2863
▁disappointment	-12.2863
▁dramatically	-12.2863
▁terrorism	-12.2863
▁gentleman	-12.2864
▁Originally	-12.2864
▁Academy	-12.2864
▁tolerance	-12.2864
▁Bali	-12.2864
▁hospitalization	-12.2865
▁Payment	-12.2866
▁AAA	-12.2866
▁fox	-12.2866
▁Overall	-12.2866
▁economically	-12.2866
▁relieving	-12.2867
▁policeman	-12.2867
▁endlessly	-12.2868
▁unlock	-12.2868
▁Create	-12.287
▁tropical	-12.2871
▁unlikely	-12.2871
▁unification	-12.2872
▁remotely	-12.2872
▁Cloud	-12.2873
▁acquisition	-12.2876
▁skinny	-12.2877
▁Fall	-12.2878
▁circus	-12.2878
▁theaters	-12.2884
▁approaches	-12.2884
▁heroine	-12.2884
▁competence	-12.2884
▁volcano	-12.2886
The	-12.2887
▁setup	-12.2888
▁immigrants	-12.2889
▁traits	-12.2889
▁quicker	-12.2889
▁parallel	-12.2891
ular	-12.2893
▁praised	-12.2894
▁holy	-12.2896
▁LC	-12.2902
▁teammates	-12.2903
▁outdoors	-12.2904
▁bands	-12.2904
▁cheered	-12.2904
▁muscular	-12.2906
▁followers	-12.2906
▁coated	-12.2908
▁4,000	-12.2908
picy	-12.2917
▁fails	-12.2923
▁utilized	-12.2923
▁escaped	-12.2925
cted	-12.2925
▁prey	-12.2925
▁deliciously	-12.293
▁jail	-12.2933
▁painkillers	-12.2933
▁dump	-12.2936
red	-12.2943
▁Bay	-12.2943
▁UI	-12.2946
▁prospect	-12.2954
▁decades	-12.2959
▁learns	-12.296
▁irregular	-12.2963
▁rat	-12.2966
▁lowered	-12.2969
▁glow	-12.297
▁evaluat	-12.2975
▁proceeds	-12.2975
▁spirits	-12.2982
▁Mix	-12.2985
▁transformation	-12.2986
▁comics	-12.2988
▁IR	-12.2992
▁warn	-12.2996
▁chronic	-12.2997
▁Justin	-12.3006
▁submitt	-12.3007
▁curtains	-12.3027
▁headaches	-12.3028
▁slices	-12.3031
▁episodes	-12.3032
▁Force	-12.3035
▁bedrooms	-12.3042
▁doors	-12.3047
▁transform	-12.3055
ative	-12.3057
▁12.	-12.3061
▁millions	-12.3064
▁bin	-12.3074
▁ethnic	-12.309
▁SD	-12.3095
hat	-12.3096
▁stove	-12.3097
▁outcomes	-12.3097
▁medals	-12.3102
▁organ	-12.3106
ithout	-12.3107
▁non	-12.3119
▁orienta	-12.3123
▁10.	-12.3127
▁x	-12.3131
▁destinations	-12.3137
▁corrections	-12.3144
▁cooks	-12.3148
iness	-12.3154
▁33	-12.3158
▁demo	-12.3171
▁mails	-12.3191
warming	-12.3195
▁treadmill	-12.3197
▁apparel	-12.3198
▁cashier	-12.3198
ft	-12.32
▁triangle	-12.3205
▁mosquito	-12.3208
▁amateur	-12.3211
▁caution	-12.3214
▁ceramic	-12.3215
▁expenditure	-12.3215
▁GMO	-12.3215
▁bracket	-12.3215
▁decade	-12.3218
weeks	-12.3218
▁Card	-12.3219
▁teenager	-12.322
▁shark	-12.3221
▁dryer	-12.3222
▁Word	-12.3227
▁Rose	-12.3232
▁stroke	-12.3239
▁fo	-12.325
▁natives	-12.3256
▁gown	-12.3259
▁lecturer	-12.327
▁meter	-12.3276
▁Cross	-12.3278
▁200,000	-12.3278
▁Duri	-12.3282
here	-12.3285
▁restrict	-12.3293
▁whil	-12.3294
▁retain	-12.33
▁Bell	-12.33
▁presenter	-12.3301
▁Additional	-12.3313
▁stylish	-12.3316
▁Elizabeth	-12.3318
▁dynasty	-12.3318
▁ASAP	-12.3318
▁allergies	-12.3318
▁negligence	-12.3318
▁McDonald	-12.3318
▁gimbap	-12.3318
▁DVR	-12.3318
▁irritation	-12.3318
▁endurance	-12.3318
▁subtle	-12.3318
▁stubborn	-12.3318
▁bookshelf	-12.3318
▁authorities	-12.3318
▁Garden	-12.3318
▁Swiss	-12.3318
▁prepaid	-12.3318
▁fragile	-12.3318
▁UCC	-12.3318
▁immunity	-12.3318
▁pottery	-12.3318
▁skipping	-12.3318
▁irresponsible	-12.3318
▁mocha	-12.3318
▁MCS	-12.3318
▁remitted	-12.3319
▁wallpaper	-12.3319
▁respirator	-12.3319
▁encouraging	-12.3319
▁Director	-12.3319
▁Judy	-12.3319
▁hostel	-12.3319
▁commerce	-12.332
▁deduction	-12.332
▁carelessly	-12.332
▁calculating	-12.3321
▁Cream	-12.3321
▁Coke	-12.3321
▁Attached	-12.3323
▁distant	-12.3324
▁similarity	-12.3324
▁devotion	-12.3324
▁dumped	-12.3325
▁competing	-12.3325
▁overwhelming	-12.3325
▁sanitary	-12.3325
▁blessed	-12.3325
▁eleven	-12.3326
▁crashed	-12.3326
▁discarded	-12.3328
▁surf	-12.3328
▁bankbook	-12.3328
▁thrilling	-12.3329
▁Small	-12.3329
▁cord	-12.333
▁boiler	-12.3331
▁farther	-12.3332
▁Lu	-12.3332
▁Price	-12.3332
▁tiredness	-12.3332
▁terminated	-12.3332
▁cheating	-12.3332
▁durable	-12.3333
▁Exchange	-12.3333
hwa	-12.3336
▁carries	-12.3336
atic	-12.3339
▁lifted	-12.3339
▁careless	-12.334
▁25,000	-12.3343
▁consumed	-12.3345
▁negotiated	-12.3347
▁resist	-12.3349
▁interpreted	-12.3349
▁melting	-12.3352
▁Juan	-12.3353
cy	-12.3353
▁retailers	-12.3359
▁li	-12.336
▁disturbing	-12.336
▁Users	-12.3361
▁sweeter	-12.3362
▁symbolizes	-12.3362
▁Copy	-12.3364
▁Tea	-12.3364
▁survived	-12.3366
▁antibiotics	-12.3367
▁exporter	-12.3369
▁unpack	-12.3376
▁repeating	-12.3378
ries	-12.3379
▁fe	-12.3379
▁gestures	-12.3381
▁casting	-12.3382
▁refresh	-12.3385
▁pointing	-12.3387
▁DM	-12.3388
▁pale	-12.3392
house	-12.3394
▁supporters	-12.3396
H	-12.3396
ier	-12.3398
if	-12.3399
▁unclear	-12.3401
▁reinforce	-12.3411
▁marrying	-12.3413
▁stepp	-12.3414
▁softer	-12.3416
▁rack	-12.3417
▁Weren	-12.3418
▁carrots	-12.3423
60	-12.3435
▁marinate	-12.3438
▁batch	-12.3438
▁Transfer	-12.3439
tion	-12.3456
▁Top	-12.3468
▁structured	-12.3474
▁traces	-12.348
so	-12.3488
▁dome	-12.3488
▁outlook	-12.349
▁drones	-12.3495
▁sore	-12.3503
▁purchaser	-12.3509
▁takeout	-12.3512
▁repairing	-12.3513
▁bet	-12.3516
▁sins	-12.3522
Park	-12.3522
▁illustrations	-12.3528
▁preferences	-12.3536
▁Skin	-12.3543
▁preparations	-12.3549
▁buzz	-12.3559
▁greetings	-12.356
▁brew	-12.3562
▁pending	-12.3567
sorted	-12.3572
▁strain	-12.3578
▁smiled	-12.3582
ping	-12.3588
hipped	-12.3604
▁sprinkle	-12.3608
▁frog	-12.3618
▁departs	-12.3631
▁targets	-12.3642
▁traditions	-12.3644
▁supermarkets	-12.3646
▁compromise	-12.3654
▁committ	-12.3657
▁magical	-12.3659
▁gene	-12.3659
▁trap	-12.3664
▁Stone	-12.3665
▁spine	-12.3677
▁fence	-12.3678
▁twist	-12.3678
▁attire	-12.368
▁deviation	-12.368
▁Challenge	-12.3682
live	-12.3684
▁ties	-12.3684
▁cardigan	-12.3685
▁waterfall	-12.3686
▁peel	-12.3687
▁questionnaire	-12.3687
▁homosexual	-12.3689
▁scandal	-12.369
▁administrator	-12.369
▁ladder	-12.3691
▁algorithm	-12.3691
▁webtoon	-12.3692
▁keyword	-12.3693
▁earphone	-12.3694
▁classmate	-12.3694
▁fatal	-12.3698
▁sleeve	-12.3702
▁Mac	-12.3708
▁3000	-12.371
▁skewer	-12.3711
▁insect	-12.3711
ns	-12.3714
▁betray	-12.3717
▁swing	-12.3718
▁insight	-12.3718
▁pays	-12.3725
▁caps	-12.3726
stone	-12.3726
▁Gi	-12.3729
people	-12.3738
▁displays	-12.3738
▁poet	-12.3749
acted	-12.3752
wan	-12.3756
▁pricey	-12.376
▁CS	-12.3764
▁appearances	-12.3773
▁subscribe	-12.3777
▁Mongolia	-12.3777
▁threaten	-12.3778
▁backgrounds	-12.3782
▁Fish	-12.3783
▁delightful	-12.3792
▁confuse	-12.3792
▁neutral	-12.3793
▁Further	-12.3793
▁Denmark	-12.3794
▁Mukbang	-12.3794
▁adventurous	-12.3794
▁espresso	-12.3794
▁euthanasia	-12.3794
▁immature	-12.3794
▁rehabilitation	-12.3794
▁vulnerable	-12.3794
▁Program	-12.3794
▁Yeouido	-12.3794
▁tragic	-12.3794
▁exotic	-12.3794
▁Yeosu	-12.3794
▁reunion	-12.3794
▁Gangneung	-12.3794
▁coriander	-12.3794
▁iPad	-12.3794
▁Valley	-12.3794
▁spiciness	-12.3794
▁hesitation	-12.3794
▁Bluetooth	-12.3794
▁Temple	-12.3794
▁equity	-12.3794
▁Daisy	-12.3794
▁sacred	-12.3794
▁USIM	-12.3794
▁disability	-12.3794
▁eyeliner	-12.3794
▁GPS	-12.3794
▁enrollment	-12.3794
▁poetry	-12.3794
▁vacant	-12.3794
▁imitate	-12.3794
▁unified	-12.3794
▁memorizing	-12.3794
▁compartment	-12.3794
▁Wolmido	-12.3794
▁stainless	-12.3794
▁Jason	-12.3794
▁detection	-12.3795
▁Lucy	-12.3795
▁handwriting	-12.3795
▁impatient	-12.3795
▁beige	-12.3795
▁Simple	-12.3795
▁Creative	-12.3795
▁shortcut	-12.3796
▁greenhouse	-12.3796
▁iOS	-12.3796
▁adoption	-12.3797
▁dramatic	-12.3797
▁udon	-12.3797
ndustrial	-12.3797
▁healthcare	-12.3797
▁shaved	-12.3797
▁devote	-12.3797
▁laid	-12.3798
▁bumper	-12.3798
▁sewing	-12.3798
▁violating	-12.3799
▁Car	-12.3799
▁subjective	-12.3799
▁struggling	-12.38
▁transformed	-12.3801
▁sp	-12.3801
▁Guys	-12.3802
▁5000	-12.3802
▁highlighted	-12.3802
▁consecutive	-12.3802
▁independently	-12.3802
▁cognitive	-12.3803
▁CMS	-12.3803
▁decorating	-12.3803
▁Operation	-12.3803
▁Richard	-12.3804
▁hospitality	-12.3804
▁Bupyeong	-12.3804
▁imposed	-12.3804
▁perceived	-12.3804
▁portal	-12.3805
▁thicker	-12.3806
▁leaked	-12.3806
▁straighten	-12.3806
▁hardworking	-12.3808
▁expiry	-12.3809
▁pretended	-12.3809
▁underway	-12.381
▁Kate	-12.3811
▁Consumer	-12.3813
▁manually	-12.3813
▁restored	-12.3815
▁recycled	-12.3816
▁token	-12.3817
▁Code	-12.3817
▁cheaply	-12.3818
▁economical	-12.3818
▁declined	-12.3818
▁violated	-12.3819
ions	-12.3823
▁fusion	-12.3824
▁Cola	-12.3826
▁60,000	-12.3827
▁Fine	-12.3829
▁Coast	-12.383
▁risen	-12.3835
▁memorized	-12.3837
▁comeback	-12.3839
▁fortunately	-12.384
▁polar	-12.384
▁classify	-12.3842
▁withdrawn	-12.3843
▁indirectly	-12.3846
▁shortcomings	-12.3846
▁targeted	-12.3847
▁Wave	-12.385
▁Few	-12.385
▁socially	-12.385
▁trillion	-12.3851
▁demanded	-12.3852
▁digits	-12.3853
▁bearing	-12.3853
▁homeless	-12.3855
▁risky	-12.3863
▁learners	-12.3864
▁000	-12.3865
▁remembering	-12.3865
▁Employee	-12.3865
don	-12.3871
▁honesty	-12.3877
J	-12.3879
▁evacuate	-12.3882
▁seating	-12.3884
▁downloading	-12.3886
▁mint	-12.3888
▁expresse	-12.389
▁KC	-12.3894
▁UN	-12.3898
▁guarantees	-12.3903
▁challenged	-12.391
treating	-12.391
▁Cats	-12.3911
nly	-12.3914
▁smoked	-12.3918
▁Gwang	-12.3919
▁Best	-12.3925
01	-12.3926
▁planes	-12.3937
▁jackets	-12.3949
▁cram	-12.395
▁graduates	-12.396
▁dances	-12.3965
stepping	-12.3965
▁installments	-12.3965
▁periodic	-12.3968
▁Special	-12.3968
▁cartoons	-12.398
nything	-12.3981
▁Rais	-12.3986
▁Refer	-12.3989
▁vice	-12.3994
▁cracks	-12.3998
▁stains	-12.4
▁crabs	-12.4016
▁bending	-12.4024
▁bi	-12.4027
eun	-12.4048
▁freak	-12.4049
bove	-12.4051
▁dim	-12.4055
▁Jean	-12.4058
▁cheers	-12.4077
let	-12.408
▁imports	-12.4089
▁wounds	-12.4089
0.	-12.4092
etween	-12.4098
▁Andy	-12.41
▁heel	-12.4105
▁keen	-12.4114
▁tales	-12.4115
▁Christians	-12.4119
▁Seok	-12.4121
▁Bad	-12.4122
▁sweets	-12.4125
▁prescribe	-12.4128
▁220	-12.413
▁soothe	-12.4135
▁lap	-12.4137
▁forum	-12.4144
izing	-12.4159
▁puzzle	-12.4176
▁curse	-12.4177
▁MC	-12.418
▁Gang	-12.418
▁illusion	-12.4181
box	-12.4182
▁kingdom	-12.4184
ists	-12.4185
▁Night	-12.4185
45	-12.4186
▁jewel	-12.4187
▁carpet	-12.4188
▁Robert	-12.419
▁racket	-12.419
▁priest	-12.419
▁masterpiece	-12.419
▁pineapple	-12.4191
bility	-12.4191
▁postcard	-12.4193
▁bolt	-12.4195
▁Euro	-12.4195
▁writes	-12.4197
bel	-12.4197
▁ch	-12.4198
▁Coco	-12.4198
▁Hans	-12.4201
▁Chris	-12.4205
▁balm	-12.4208
ey	-12.4209
▁Name	-12.421
▁volunteers	-12.4211
▁Civil	-12.4215
▁Electric	-12.4231
▁companions	-12.4231
▁Tour	-12.4232
▁cellphones	-12.4233
▁5,	-12.4233
▁Part	-12.424
▁blade	-12.4242
▁sentiment	-12.4247
▁lump	-12.4251
▁vital	-12.4256
▁interviewer	-12.4259
laying	-12.4277
▁dual	-12.4278
im	-12.4278
▁collaborate	-12.428
▁anticipate	-12.4281
▁integrate	-12.4287
▁scream	-12.4288
▁pole	-12.429
▁multicultural	-12.429
▁55	-12.4291
▁substantial	-12.4292
▁Liverpool	-12.4294
▁Obama	-12.4294
▁Seopori	-12.4294
▁TOEFL	-12.4294
▁Ukraine	-12.4294
▁diligence	-12.4294
▁kiosk	-12.4294
▁optimal	-12.4294
▁syndrome	-12.4294
▁Yokohama	-12.4294
▁orchestra	-12.4294
▁hairdryer	-12.4294
▁landlord	-12.4294
▁conscience	-12.4294
▁relics	-12.4294
▁Ladies	-12.4294
▁Junior	-12.4294
▁prosecution	-12.4294
▁shellfish	-12.4294
▁helmet	-12.4294
▁query	-12.4294
▁FOB	-12.4294
▁Jerry	-12.4294
▁loyalty	-12.4294
▁Sweden	-12.4294
▁Buddhism	-12.4294
▁biology	-12.4294
▁Antonio	-12.4294
▁Yongsan	-12.4294
▁corruption	-12.4294
▁exemption	-12.4294
▁Movement	-12.4294
▁Burger	-12.4294
▁Seorak	-12.4294
▁jammed	-12.4295
▁despair	-12.4295
▁Computer	-12.4295
▁buckle	-12.4295
▁overwhelmed	-12.4295
▁striking	-12.4295
▁rewrite	-12.4295
▁intentionally	-12.4296
▁mascara	-12.4296
▁locate	-12.4296
▁subsidiary	-12.4296
▁hydrogen	-12.4296
▁kidding	-12.4296
▁Myanmar	-12.4296
▁catering	-12.4296
▁Cheonan	-12.4296
▁horizontally	-12.4296
▁severance	-12.4296
▁framework	-12.4297
▁collective	-12.4297
▁silently	-12.4298
▁assurance	-12.4298
▁democratic	-12.4299
▁Request	-12.43
▁Film	-12.4301
▁digestion	-12.4302
▁flooded	-12.4302
▁150,000	-12.4302
▁loyal	-12.4303
▁halfway	-12.4303
▁El	-12.4303
▁regulated	-12.4303
▁injected	-12.4304
▁qualify	-12.4305
▁freelancer	-12.4305
▁coding	-12.4306
▁encountered	-12.4307
▁reinforced	-12.4308
▁Flight	-12.4308
▁surprisingly	-12.4308
▁counterpart	-12.431
▁Tony	-12.431
▁Fast	-12.4311
▁programmer	-12.4311
▁marketer	-12.4313
▁humorous	-12.4318
▁incomplete	-12.4319
▁clever	-12.432
▁Story	-12.432
▁gaming	-12.432
▁headphones	-12.4323
▁rescued	-12.4324
▁weaker	-12.4327
▁affordable	-12.4327
▁aviation	-12.4331
▁dated	-12.4332
▁spreads	-12.4335
▁tolerate	-12.4336
▁refugees	-12.4338
hand	-12.4338
inal	-12.4344
▁craft	-12.4347
▁Noodles	-12.4349
▁landed	-12.435
▁listing	-12.4355
▁verbal	-12.4359
▁sprouts	-12.4359
▁herbs	-12.4359
▁disappearing	-12.4362
▁Whose	-12.4364
ypically	-12.4366
▁tense	-12.4368
▁directed	-12.4368
ities	-12.4369
▁modifying	-12.4371
▁attributes	-12.4375
ending	-12.4376
▁brighten	-12.4376
▁acute	-12.4378
▁needles	-12.4379
▁malls	-12.4394
▁comforting	-12.4396
▁backup	-12.4404
▁Ne	-12.4404
ship	-12.4408
▁pursu	-12.4416
▁pockets	-12.442
▁cheeks	-12.4425
▁travels	-12.4427
▁Gil	-12.4431
▁Bae	-12.4436
▁induce	-12.444
hee	-12.4443
ot	-12.4448
ped	-12.4456
▁span	-12.4459
▁Math	-12.4462
▁com	-12.4467
▁tricks	-12.447
▁enters	-12.447
have	-12.447
▁provider	-12.4474
▁lawn	-12.448
▁Tax	-12.4503
▁lag	-12.451
▁bent	-12.4525
▁findings	-12.4529
times	-12.4535
▁du	-12.4544
▁240	-12.4555
cal	-12.4555
▁wages	-12.4557
▁Con	-12.4558
▁Rock	-12.4563
Lee	-12.4564
▁Text	-12.457
ipped	-12.4577
▁postings	-12.4581
▁Iran	-12.4585
▁troubled	-12.4585
▁households	-12.4589
away	-12.4605
ow	-12.4605
lastic	-12.4615
▁resulting	-12.4621
▁j	-12.4624
▁guns	-12.4667
▁whale	-12.4673
ten	-12.4674
▁Forget	-12.4677
▁competitions	-12.4678
▁edges	-12.4688
▁subways	-12.4692
▁grid	-12.4695
▁12,000	-12.4695
▁Pick	-12.4698
▁coincidence	-12.4698
▁42	-12.4699
▁lastly	-12.4702
▁gods	-12.4704
▁robber	-12.4705
▁corridor	-12.4707
▁stroller	-12.4708
▁Heaven	-12.471
▁lobster	-12.4711
▁Roll	-12.4711
▁Nor	-12.4714
▁prediction	-12.4715
▁drill	-12.4716
▁William	-12.4718
▁emoticon	-12.4718
▁snail	-12.4719
▁knit	-12.4721
▁yarn	-12.4722
▁straps	-12.4724
▁gu	-12.4726
▁adapter	-12.4729
▁kilo	-12.4731
▁bare	-12.4734
▁Ar	-12.4734
▁inferior	-12.4735
▁belts	-12.4739
▁founder	-12.4742
▁jog	-12.4752
▁expire	-12.4761
cheon	-12.4765
▁continent	-12.4768
▁grip	-12.4779
board	-12.4784
ga	-12.4788
▁segment	-12.4788
▁dancer	-12.4791
▁liquids	-12.4792
▁sights	-12.4801
▁Victoria	-12.4802
▁Anyways	-12.4802
3.	-12.4802
▁Learn	-12.4807
▁employ	-12.4807
▁Wash	-12.4819
▁ultra	-12.4819
▁Deputy	-12.482
▁Microsoft	-12.482
▁Pilates	-12.482
▁Registration	-12.482
▁Shakespeare	-12.482
▁THAAD	-12.482
▁Taipei	-12.482
▁Welfare	-12.482
▁jurisdiction	-12.482
▁seldom	-12.482
▁federal	-12.482
▁adhesive	-12.482
▁autograph	-12.482
▁disabilities	-12.482
▁Photoshop	-12.482
▁configuration	-12.482
▁CIF	-12.482
▁excellence	-12.482
▁Apparently	-12.482
▁toothache	-12.482
▁Sherlock	-12.482
▁envious	-12.482
▁Bucheon	-12.482
▁cavity	-12.482
▁Wolmi	-12.482
▁robbed	-12.482
▁mercy	-12.482
▁emerging	-12.482
▁fascinated	-12.482
▁sensible	-12.4821
▁archery	-12.4821
▁Security	-12.4821
▁shattered	-12.4821
▁unconditionally	-12.4821
▁chaos	-12.4821
▁destruction	-12.4821
▁regretful	-12.4821
▁frightened	-12.4821
▁harness	-12.4821
▁Death	-12.4822
▁frankly	-12.4822
▁confession	-12.4822
▁joking	-12.4822
▁seawater	-12.4822
▁crunchy	-12.4823
▁template	-12.4823
▁repairman	-12.4823
▁mosquitoes	-12.4824
▁refrigerated	-12.4824
▁flute	-12.4824
▁Adults	-12.4824
▁Infinite	-12.4824
▁peaches	-12.4825
▁invisible	-12.4825
▁lightning	-12.4825
▁Guam	-12.4825
▁Tonight	-12.4826
▁styling	-12.4826
▁Darling	-12.4826
▁Princess	-12.4826
▁sweetness	-12.4827
▁powerpoint	-12.4827
▁Somehow	-12.4827
▁threatened	-12.4827
▁hacked	-12.4827
▁realizing	-12.4828
▁glory	-12.4828
▁hugging	-12.4828
▁neglected	-12.4828
▁cries	-12.4829
▁blonde	-12.4829
▁regretting	-12.483
▁polished	-12.483
▁sanction	-12.4831
▁pharmaceutical	-12.4831
▁na	-12.4832
▁carving	-12.4832
▁childish	-12.4833
▁relay	-12.4834
▁spoiled	-12.4834
▁typed	-12.4835
▁pleasantly	-12.4835
▁Dance	-12.4836
▁discovery	-12.4836
▁thinner	-12.4837
▁extracted	-12.4837
▁machinery	-12.4838
▁Chile	-12.4839
▁latter	-12.484
▁strongest	-12.4841
▁hygienic	-12.4843
▁accessible	-12.4843
▁earthquakes	-12.4843
▁160	-12.4846
▁globally	-12.485
▁fulfilled	-12.4853
▁freshly	-12.4854
▁245	-12.4854
▁deeds	-12.4855
▁refined	-12.4856
,500	-12.4856
▁Yu	-12.4862
▁Revolution	-12.4864
▁consisted	-12.4868
▁router	-12.4871
▁depicts	-12.4871
▁fares	-12.4873
▁lane	-12.4873
▁enlarge	-12.4876
▁Dark	-12.4877
▁hid	-12.4882
▁Mari	-12.4883
▁cage	-12.4884
▁sail	-12.4884
▁Classic	-12.4885
▁merchants	-12.4888
▁Farm	-12.4889
▁FW	-12.4893
▁lanes	-12.4894
▁ge	-12.4903
▁None	-12.4909
▁stereotypes	-12.4912
▁politicians	-12.4917
▁puff	-12.4927
▁blades	-12.4927
▁sticking	-12.4928
lo	-12.4929
▁Yea	-12.4937
▁recorder	-12.4947
▁gums	-12.495
ake	-12.4951
▁bikes	-12.4953
▁placement	-12.4955
▁prevented	-12.4955
▁su	-12.496
▁ro	-12.4962
▁inconveniences	-12.4965
▁pancakes	-12.4966
▁displaying	-12.4969
▁dinosaurs	-12.4977
▁distances	-12.4978
gaining	-12.4981
▁viewer	-12.4983
▁hips	-12.4988
▁maker	-12.4995
▁counting	-12.4997
▁pal	-12.4998
▁ticketing	-12.4998
▁instructors	-12.4998
▁aired	-12.5001
▁rotate	-12.5012
▁km	-12.5026
SD	-12.5026
cc	-12.503
▁arouse	-12.5033
▁fibers	-12.5042
▁Develop	-12.5045
▁scored	-12.5057
▁intervals	-12.5058
▁pound	-12.5061
tory	-12.5063
▁ranks	-12.5066
▁lotus	-12.5069
▁Bas	-12.507
▁sauces	-12.5079
▁delays	-12.5087
▁Soo	-12.509
▁recruits	-12.5091
▁donations	-12.5093
▁hopes	-12.5096
op	-12.51
rapped	-12.5105
▁panic	-12.5106
▁unity	-12.5107
▁Mine	-12.5112
arriage	-12.5122
fully	-12.5123
▁architectur	-12.5128
▁seize	-12.5136
▁debts	-12.5137
▁65	-12.5145
▁drum	-12.5152
▁charms	-12.5159
▁oppos	-12.5161
▁undertake	-12.5164
▁peculiar	-12.5164
▁spam	-12.5171
▁performs	-12.5176
▁functioning	-12.5181
▁Joo	-12.5186
li	-12.5187
▁Mars	-12.5189
▁clam	-12.5189
▁max	-12.519
▁crews	-12.5193
▁impressions	-12.5194
▁Plan	-12.5197
▁Du	-12.5198
▁disc	-12.5205
▁verb	-12.5215
▁notifications	-12.522
atar	-12.5229
▁essays	-12.524
▁revis	-12.5244
▁sophomore	-12.5253
▁curl	-12.5254
▁transfers	-12.5258
▁lung	-12.526
▁bullet	-12.5262
▁portrait	-12.5263
▁pallet	-12.5264
▁insult	-12.5266
▁kidney	-12.5267
▁dialogue	-12.5268
▁exchanges	-12.5269
▁extinguisher	-12.5269
▁entrepreneur	-12.527
▁champion	-12.5272
▁elbow	-12.5273
▁subordinate	-12.5273
▁antique	-12.5273
▁politician	-12.5274
▁secrets	-12.5275
▁eyebrow	-12.5275
▁indicator	-12.5275
▁abortion	-12.5278
▁pitcher	-12.5278
▁intestine	-12.5282
▁reside	-12.5283
▁tribe	-12.5285
▁slave	-12.5285
▁Award	-12.5287
▁announcer	-12.529
▁suburb	-12.5293
▁employer	-12.5294
▁worm	-12.5294
artial	-12.5296
▁bra	-12.5299
▁tags	-12.5306
▁timeline	-12.5306
▁Ten	-12.5312
▁farms	-12.5312
▁Seong	-12.5317
ard	-12.5324
▁workbook	-12.5326
▁theatre	-12.5333
▁messag	-12.5341
▁initiate	-12.5343
▁dock	-12.5346
▁stereotype	-12.5347
▁preview	-12.5348
bu	-12.5349
▁disappoint	-12.5354
▁thrill	-12.5355
▁DJ	-12.536
▁restock	-12.536
▁deer	-12.536
▁convince	-12.5362
▁govern	-12.5364
rom	-12.5365
▁abandon	-12.5369
▁prohibit	-12.5373
▁engage	-12.5373
▁comparative	-12.5374
▁persistent	-12.5374
▁Traditional	-12.5374
▁Gangwon	-12.5375
▁frank	-12.5375
▁Gatsby	-12.5376
▁Literature	-12.5376
▁Madrid	-12.5376
▁Portuguese	-12.5376
▁Samgyetang	-12.5376
▁aluminum	-12.5376
▁controversial	-12.5376
▁cumbersome	-12.5376
▁firefighter	-12.5376
▁groceries	-12.5376
▁twenties	-12.5376
▁vinyl	-12.5376
▁Congress	-12.5376
▁Munich	-12.5376
▁blockchain	-12.5376
▁generosity	-12.5376
▁Charlie	-12.5376
▁Frozen	-12.5376
▁fabulous	-12.5376
▁gossip	-12.5376
▁integrity	-12.5376
▁prostitution	-12.5376
▁Restaurant	-12.5376
▁dissatisfied	-12.5376
▁pilates	-12.5376
▁Breakfast	-12.5376
▁kimbap	-12.5376
▁primarily	-12.5376
▁risotto	-12.5376
▁Kangrim	-12.5376
▁Castle	-12.5376
▁boundaries	-12.5376
▁influential	-12.5376
▁railroad	-12.5376
▁germs	-12.5376
▁Video	-12.5376
▁complimentary	-12.5376
▁PCN	-12.5376
▁Egyptian	-12.5376
▁endangered	-12.5376
▁automation	-12.5376
▁conviction	-12.5376
▁Daily	-12.5376
▁Silla	-12.5376
▁gentlemen	-12.5376
▁ballpark	-12.5376
▁mattress	-12.5376
▁irritating	-12.5377
▁spinning	-12.5377
▁remarkable	-12.5377
▁Cafe	-12.5377
▁Lately	-12.5377
▁deceased	-12.5377
▁creepy	-12.5377
▁Exercise	-12.5377
▁Agency	-12.5377
▁Chinatown	-12.5377
▁signboard	-12.5378
▁clogged	-12.5378
▁Milk	-12.5378
▁naked	-12.5378
▁distracted	-12.5378
▁livestock	-12.5378
▁consuming	-12.5379
▁indispensable	-12.5379
▁chatted	-12.5379
▁requiring	-12.5379
▁malicious	-12.5379
▁individuality	-12.5379
▁aggressively	-12.5379
▁underwater	-12.5379
▁tallest	-12.5379
▁Focus	-12.5379
▁footsteps	-12.5379
▁SMS	-12.5379
▁airmail	-12.5379
▁trailer	-12.538
▁instructed	-12.538
▁preciousness	-12.538
▁invaded	-12.5381
▁termination	-12.5381
▁seriousness	-12.5382
▁destined	-12.5383
▁Milano	-12.5383
▁collar	-12.5384
▁harmonious	-12.5385
▁weaken	-12.5385
▁hacking	-12.5385
▁binding	-12.5387
▁barking	-12.5387
▁practically	-12.5387
▁sociable	-12.5387
▁Run	-12.5388
▁dense	-12.5389
▁composer	-12.539
▁Maldives	-12.5391
▁peeling	-12.5391
▁entity	-12.5391
▁fooled	-12.5392
▁complimented	-12.5392
▁exhibited	-12.5392
▁educate	-12.5392
▁annually	-12.5393
▁Ilsan	-12.5393
▁emerged	-12.5394
▁rites	-12.5395
▁Billy	-12.5395
▁Afterward	-12.5396
▁sampling	-12.5396
▁ache	-12.5398
1,	-12.5399
▁Apart	-12.54
enthusiastically	-12.5401
▁pimples	-12.5401
▁2.5	-12.5403
▁erased	-12.5404
▁cancelation	-12.5404
▁constructing	-12.5406
▁Cover	-12.5407
▁abused	-12.5409
▁drunken	-12.541
▁Close	-12.5411
▁defected	-12.5411
▁Romeo	-12.5411
▁eliminated	-12.5412
▁backpacking	-12.5414
▁dries	-12.5421
▁collector	-12.5422
▁Fire	-12.5424
▁Rod	-12.5427
▁Surely	-12.5432
▁Dave	-12.5435
▁beam	-12.5436
▁prayed	-12.544
▁quoted	-12.544
logged	-12.5446
▁Muslims	-12.5449
▁Ch	-12.5455
▁emissions	-12.5459
▁counted	-12.5462
▁temperatures	-12.5464
▁assured	-12.5465
▁coats	-12.5465
▁Son	-12.5465
▁obstacles	-12.5466
▁resin	-12.5472
▁kilos	-12.5481
▁dozen	-12.5484
▁impose	-12.5492
▁meds	-12.5492
▁keywords	-12.5496
▁props	-12.5504
chasing	-12.5514
▁screened	-12.5515
▁agreements	-12.5516
▁wearable	-12.5517
▁obligations	-12.5519
▁Aside	-12.5524
▁mug	-12.5524
▁parameters	-12.5524
▁goodness	-12.5528
lock	-12.553
▁Wh	-12.5534
▁Times	-12.5537
▁projector	-12.5543
▁pipes	-12.5545
ved	-12.5551
▁TA	-12.5559
▁monsters	-12.5575
▁hood	-12.5577
▁Media	-12.5582
▁Wa	-12.5584
▁blessings	-12.5588
▁boats	-12.5592
▁viewed	-12.5599
▁slides	-12.5603
▁spit	-12.5614
ncluding	-12.5616
▁apartments	-12.5617
▁homes	-12.5623
▁copying	-12.5623
▁fi	-12.5626
▁scars	-12.5627
ou	-12.563
▁forwarded	-12.5642
▁Bar	-12.5642
▁gifted	-12.5646
▁Main	-12.5648
▁notices	-12.5648
▁attribute	-12.5658
▁vendors	-12.5669
▁specs	-12.568
▁DC	-12.5681
▁typo	-12.5684
▁vest	-12.5697
▁aboard	-12.57
▁rats	-12.5701
▁Sky	-12.5704
mL	-12.5709
▁SK	-12.5709
▁pizzas	-12.571
▁Ball	-12.5711
hopping	-12.5711
▁issuer	-12.5722
▁10,	-12.5732
advantageous	-12.5738
▁distribut	-12.5739
▁battles	-12.5743
▁correlati	-12.5745
▁Maria	-12.5753
▁shifts	-12.5753
▁Myeong	-12.5755
▁blows	-12.5757
▁cop	-12.5761
▁Ann	-12.5767
▁ancest	-12.5772
▁Pan	-12.5774
▁lasted	-12.578
▁crawl	-12.5792
▁graded	-12.5796
tal	-12.5799
▁Mi	-12.5804
▁BI	-12.5807
▁Pro	-12.5812
▁dive	-12.5816
▁diplomat	-12.5833
▁landscapes	-12.5836
owing	-12.5836
▁harvest	-12.5837
ld	-12.584
▁encourages	-12.5846
▁bachelor	-12.585
▁prototype	-12.5851
▁muffler	-12.5854
▁magician	-12.5854
▁initiative	-12.5854
▁hurricane	-12.5856
▁Communication	-12.5857
etting	-12.5858
▁generator	-12.5859
▁plum	-12.586
▁pedestrian	-12.586
▁elephant	-12.5862
▁selfie	-12.5864
▁macaron	-12.5865
▁virtue	-12.5866
▁brake	-12.5868
▁Univers	-12.5868
▁incorporate	-12.5873
▁trail	-12.5874
▁interlock	-12.5876
▁sword	-12.5877
▁squat	-12.5887
▁bedding	-12.5891
yang	-12.5894
▁Malaysian	-12.5894
▁230	-12.5898
▁marble	-12.5899
▁Hand	-12.5921
▁recogniz	-12.5922
▁nicer	-12.5923
▁110	-12.5924
▁volcan	-12.5933
ology	-12.5935
▁Environment	-12.5937
▁swam	-12.5939
▁characterize	-12.5946
▁compose	-12.5948
▁scold	-12.5948
▁freelance	-12.595
▁cultivate	-12.5952
▁satisfie	-12.5952
▁Arabia	-12.5952
▁squash	-12.5955
▁walks	-12.5957
per	-12.5957
▁Current	-12.5962
▁intensive	-12.5962
▁Barcelona	-12.5964
▁Gimbap	-12.5964
▁Valjean	-12.5964
▁bamboo	-12.5964
▁feasible	-12.5964
▁gasoline	-12.5964
▁gourmet	-12.5964
▁quarantine	-12.5964
▁varieties	-12.5964
▁Guangzhou	-12.5964
▁Houston	-12.5964
▁Iraq	-12.5964
▁Rachel	-12.5964
▁Soviet	-12.5964
▁congestion	-12.5964
▁necessities	-12.5964
▁pianist	-12.5964
▁Failure	-12.5964
▁Hyatt	-12.5964
▁Marvel	-12.5964
▁barista	-12.5964
▁Jewish	-12.5964
▁consolation	-12.5964
▁harassment	-12.5964
▁offensive	-12.5964
▁Nancy	-12.5964
▁Louvre	-12.5964
▁OTA	-12.5964
▁salvation	-12.5964
▁influenza	-12.5964
▁restoration	-12.5964
▁Spirit	-12.5964
▁spectacular	-12.5964
▁friction	-12.5964
▁purity	-12.5964
▁FBA	-12.5964
▁coordination	-12.5964
▁Iceland	-12.5964
▁desirable	-12.5964
▁Shinchon	-12.5964
▁copper	-12.5964
▁Norway	-12.5964
▁sebum	-12.5964
▁Northern	-12.5964
▁SAT	-12.5965
▁Independence	-12.5965
▁unpaid	-12.5965
▁Christianity	-12.5965
▁luckily	-12.5965
▁tiresome	-12.5965
▁Ireland	-12.5965
▁Course	-12.5965
▁Orange	-12.5965
▁Beef	-12.5965
▁humanities	-12.5965
▁Resident	-12.5965
▁prolonged	-12.5966
▁bitcoin	-12.5966
▁Nature	-12.5966
▁complexity	-12.5966
▁comprehend	-12.5966
▁Canyon	-12.5966
▁slipped	-12.5966
▁debating	-12.5966
▁spotlight	-12.5967
▁widen	-12.5967
▁squad	-12.5967
▁Charles	-12.5968
▁distinction	-12.5968
▁IoT	-12.5968
▁remodeling	-12.5968
▁surgeon	-12.5968
▁Often	-12.5968
▁nominated	-12.5968
▁Easter	-12.5968
▁decisive	-12.5969
▁overweight	-12.5969
▁yourselves	-12.597
▁diagnosed	-12.5971
▁visually	-12.5971
▁Lego	-12.5971
▁soaked	-12.5972
▁introverted	-12.5972
▁Point	-12.5973
▁quickest	-12.5973
▁publicity	-12.5973
▁unexpectedly	-12.5973
▁optimized	-12.5973
▁insured	-12.5973
▁textile	-12.5974
▁guiding	-12.5974
▁reliability	-12.5974
▁Thomas	-12.5975
▁Grandma	-12.5976
▁Merry	-12.5976
▁tester	-12.5976
▁poly	-12.5977
▁supportive	-12.5979
ball	-12.598
▁threatening	-12.5981
▁authors	-12.5982
▁mortality	-12.5982
▁rinse	-12.5984
▁louder	-12.5984
▁inaccurate	-12.5984
▁0.5	-12.5984
▁representation	-12.5985
▁formally	-12.5985
▁activation	-12.5985
▁Half	-12.5988
▁chewing	-12.5989
▁sealed	-12.5989
▁distinguished	-12.5992
▁ambassador	-12.5993
▁appropriately	-12.5993
▁talkative	-12.5994
▁begging	-12.5995
▁demonstrated	-12.5996
▁Pull	-12.5997
▁centimeters	-12.5998
▁subscribers	-12.5998
▁remarks	-12.6
▁attain	-12.6001
▁richer	-12.6001
▁regulator	-12.6005
▁foster	-12.6005
▁colonial	-12.6007
▁pledge	-12.6007
▁inflow	-12.6009
▁bloggers	-12.6011
▁agriculture	-12.6013
▁advertisers	-12.6014
▁suck	-12.6015
▁Ticket	-12.6015
▁sentimental	-12.6021
▁shameful	-12.6021
▁grader	-12.6026
▁Feeling	-12.6027
▁modest	-12.6027
jeong	-12.6028
▁careers	-12.6031
▁combat	-12.6036
▁exploit	-12.6039
▁Hasn	-12.6039
os	-12.6039
▁Juliet	-12.6039
▁creators	-12.6044
▁System	-12.605
▁hourly	-12.6051
▁wheat	-12.6057
▁lungs	-12.6061
▁squats	-12.6062
▁brakes	-12.6062
▁forgiven	-12.6064
▁CC	-12.6066
ap	-12.6067
▁phenomena	-12.6068
▁slaves	-12.607
▁FC	-12.6071
▁intestines	-12.6072
▁scout	-12.6078
gu	-12.6081
▁Words	-12.6091
▁residential	-12.6095
▁theories	-12.6096
▁Euros	-12.6098
▁carve	-12.61
▁mining	-12.6101
▁pcs	-12.6113
▁suppress	-12.612
▁dice	-12.6122
▁priced	-12.613
▁prop	-12.6133
catching	-12.614
▁ratings	-12.614
▁balloons	-12.614
▁mop	-12.6145
16	-12.6147
▁genes	-12.6149
ied	-12.615
▁contributions	-12.6152
nk	-12.6154
▁ICO	-12.6156
▁cartons	-12.6163
▁Way	-12.6166
▁sounded	-12.6171
▁threats	-12.6184
wa	-12.6185
▁trauma	-12.6189
▁Inside	-12.6191
▁Sain	-12.6193
ai	-12.6197
▁regain	-12.6203
12	-12.6209
▁wi	-12.621
▁decorations	-12.6214
▁sled	-12.6224
kuk	-12.6228
▁dimension	-12.6234
▁abl	-12.6241
▁Ken	-12.6245
▁Mart	-12.6246
▁orient	-12.6247
▁recommending	-12.6247
▁rabbits	-12.6256
wha	-12.6265
his	-12.6275
▁resolv	-12.6276
▁Mao	-12.6281
▁tablet	-12.6283
ors	-12.6289
▁Install	-12.6297
▁Cheon	-12.6302
▁sa	-12.6306
▁pic	-12.6307
▁mist	-12.6309
city	-12.631
▁juniors	-12.6326
cho	-12.6331
▁la	-12.6335
▁aesthetic	-12.6335
inary	-12.6342
▁mill	-12.6346
▁inch	-12.6346
▁optional	-12.6349
▁wasting	-12.6354
▁corners	-12.6361
▁Break	-12.6365
▁yearly	-12.6373
▁Ex	-12.6376
▁angles	-12.6378
mp	-12.6378
▁servings	-12.6384
que	-12.6384
▁tapes	-12.6387
▁midterms	-12.6387
▁elevators	-12.6388
▁brochures	-12.64
▁sneak	-12.6401
▁vase	-12.6407
▁Ta	-12.6409
ran	-12.641
▁respects	-12.641
▁mate	-12.6412
▁thunder	-12.6413
uk	-12.6419
▁Attach	-12.6422
▁Services	-12.6424
▁rust	-12.6426
▁shoots	-12.6433
chi	-12.6434
brid	-12.6442
▁Hang	-12.6448
▁breed	-12.6451
▁toilets	-12.6452
▁Robin	-12.6455
▁fandom	-12.6467
▁dishwasher	-12.6475
▁gut	-12.6475
▁assault	-12.6475
▁outbreak	-12.6476
▁staple	-12.6479
▁simulation	-12.6479
▁variation	-12.648
▁surcharge	-12.6482
▁liver	-12.6482
▁Holiday	-12.6483
down	-12.6483
▁pyramid	-12.6484
▁fluctuation	-12.6485
▁seatbelt	-12.6485
▁banner	-12.6487
▁terrorist	-12.6487
▁obstacle	-12.6487
▁painkiller	-12.6488
▁participant	-12.6489
▁entertainer	-12.6489
▁flame	-12.6495
▁afterwards	-12.6495
▁determin	-12.6495
▁fade	-12.6498
▁motel	-12.65
▁lyric	-12.6501
▁Tho	-12.6508
▁handy	-12.651
▁clue	-12.6514
▁statistical	-12.6525
▁Lov	-12.6528
GB	-12.6528
▁Asians	-12.6528
▁cha	-12.6534
▁ink	-12.6536
▁Report	-12.6537
hyun	-12.6539
▁da	-12.6541
▁CE	-12.6542
▁sender	-12.6549
▁punch	-12.6551
▁Jeff	-12.6553
▁sue	-12.6553
▁Ship	-12.6554
▁exhaust	-12.656
▁Louis	-12.6563
▁servers	-12.6567
▁march	-12.6571
▁listener	-12.6574
▁sacrific	-12.6574
▁perceive	-12.6575
▁expose	-12.6579
▁Account	-12.6582
ae	-12.6583
▁administer	-12.6584
▁preschool	-12.6586
▁analog	-12.6587
▁prominent	-12.6587
▁reluctant	-12.6587
▁universal	-12.6587
▁abdom	-12.6588
▁toxic	-12.6589
▁Galbi	-12.6589
▁Captain	-12.6589
▁Harvard	-12.6589
▁Jordan	-12.6589
▁Macbeth	-12.6589
▁Pattaya	-12.6589
▁Phuket	-12.6589
▁abrasion	-12.6589
▁clumsy	-12.6589
▁drowsy	-12.6589
▁plagiarism	-12.6589
▁rhinitis	-12.6589
▁sirloin	-12.6589
▁spectrum	-12.6589
▁Fashion	-12.6589
▁Hwaseong	-12.6589
▁Karaoke	-12.6589
▁Monica	-12.6589
▁academies	-12.6589
▁curator	-12.6589
▁impolite	-12.6589
▁vibrant	-12.6589
▁Beatles	-12.6589
▁NVR	-12.6589
▁frustration	-12.6589
▁motorbike	-12.6589
▁significance	-12.6589
▁tastier	-12.6589
▁Kimbap	-12.6589
▁cappuccino	-12.6589
▁purified	-12.6589
▁salaries	-12.6589
▁electromagn	-12.6589
▁kettle	-12.6589
▁stewardess	-12.6589
▁bloated	-12.6589
▁knives	-12.6589
▁Pizza	-12.6589
▁Resort	-12.6589
▁hypothesis	-12.6589
▁Yellow	-12.6589
▁contamination	-12.6589
▁laziness	-12.6589
▁refusal	-12.6589
▁Kpop	-12.6589
▁suspicion	-12.6589
▁liberty	-12.6589
▁fermentation	-12.6589
▁cleanliness	-12.6589
▁GOC	-12.6589
▁Download	-12.6589
▁Society	-12.6589
▁homosexuality	-12.6589
▁systematically	-12.6589
▁Massage	-12.6589
▁flashlight	-12.6589
▁northern	-12.6589
▁involvement	-12.6589
▁Emily	-12.6589
▁Laos	-12.6589
▁shaft	-12.6589
▁Jisung	-12.6589
▁pantry	-12.6589
▁Silver	-12.659
▁deliberately	-12.659
▁Woman	-12.659
▁tragedy	-12.659
▁heartbroken	-12.659
▁Taiwanese	-12.659
▁Coca	-12.659
▁invasion	-12.659
▁Finish	-12.659
▁profound	-12.659
▁inspire	-12.659
▁discouraged	-12.6591
▁entitled	-12.6591
▁busiest	-12.6591
▁overlapping	-12.6591
▁desktop	-12.6591
▁pastor	-12.6591
▁collagen	-12.6591
▁Guide	-12.6591
▁penny	-12.6591
▁adolescence	-12.6591
▁vector	-12.6591
▁tapping	-12.6592
▁domestically	-12.6592
▁canvas	-12.6592
▁gross	-12.6592
▁vividly	-12.6592
▁wrapper	-12.6593
▁Production	-12.6593
▁triangular	-12.6593
▁Aiden	-12.6593
▁financing	-12.6593
▁permanently	-12.6593
▁popped	-12.6593
▁distressed	-12.6594
▁Marine	-12.6594
▁classification	-12.6594
▁misfortune	-12.6594
▁inequality	-12.6594
▁tonkatsu	-12.6594
▁400,000	-12.6594
▁facilitate	-12.6595
▁concise	-12.6595
▁Sujin	-12.6596
▁engraved	-12.6596
▁logically	-12.6596
▁wars	-12.6596
▁standardized	-12.6596
▁leisurely	-12.6597
▁seaside	-12.6597
▁Review	-12.6599
▁knocked	-12.6599
▁converse	-12.66
▁ambiguous	-12.66
▁consensus	-12.6601
▁Maze	-12.6601
▁emotionally	-12.6601
▁willingness	-12.6601
▁Training	-12.6601
▁maze	-12.6602
▁stationary	-12.6602
▁illegally	-12.6603
▁flea	-12.6603
▁sodium	-12.6603
▁insisted	-12.6603
▁pounding	-12.6604
▁crushed	-12.6604
▁bias	-12.6605
▁occurrence	-12.6605
▁forty	-12.6605
▁Army	-12.6606
▁Industry	-12.6607
▁Joy	-12.6607
▁gang	-12.6608
▁checklist	-12.6609
▁torque	-12.661
▁pickles	-12.661
▁justification	-12.6613
▁shareholders	-12.6613
▁Minsu	-12.6615
▁Detail	-12.6616
▁smarter	-12.662
▁teased	-12.6623
▁shortest	-12.6623
▁kilograms	-12.6624
05	-12.6625
▁disturbed	-12.6627
▁sustain	-12.6629
▁Sample	-12.6632
▁artifacts	-12.6639
▁wires	-12.664
▁permed	-12.6645
▁gaze	-12.6647
▁burdened	-12.6647
▁conductor	-12.6649
▁mince	-12.6651
▁Mini	-12.6651
▁designate	-12.6652
▁traditionally	-12.6652
▁Touch	-12.6653
ster	-12.6657
▁hesitated	-12.6659
▁Receive	-12.6662
▁Along	-12.6664
▁Personal	-12.6668
▁dangers	-12.6669
▁platforms	-12.6671
▁Dowon	-12.6673
▁stresses	-12.6674
more	-12.6675
▁recovering	-12.6676
▁arch	-12.6682
▁Nia	-12.6682
▁beard	-12.6685
▁Tap	-12.6687
▁donating	-12.669
▁Guest	-12.6694
▁brushing	-12.6697
▁diplomatic	-12.67
▁planted	-12.6705
▁Awards	-12.6709
hall	-12.6712
▁Falls	-12.6716
▁swipe	-12.6716
hether	-12.672
▁tune	-12.6722
▁shallow	-12.6734
▁spiders	-12.6737
▁fist	-12.6741
yeong	-12.6743
▁Ryan	-12.6747
▁accomplishments	-12.6751
▁cops	-12.676
▁caramel	-12.6761
▁sculptures	-12.6762
▁IOS	-12.6767
gara	-12.6769
▁2012.	-12.6775
▁rearrange	-12.6781
▁simpler	-12.6786
▁screens	-12.6791
▁bang	-12.6796
▁Pu	-12.6799
▁ringing	-12.6801
▁riches	-12.6801
▁EA	-12.6802
▁Drop	-12.6819
▁discipline	-12.6822
oon	-12.6823
▁sings	-12.6827
▁ar	-12.6827
▁barriers	-12.683
▁bind	-12.6842
▁loans	-12.6847
▁Different	-12.6849
▁Inter	-12.6849
▁soak	-12.685
▁recheck	-12.6853
▁takers	-12.6884
▁tubes	-12.6895
▁Wonder	-12.6902
▁sausages	-12.6902
▁Male	-12.6904
▁Yi	-12.6905
1.	-12.6914
anyang	-12.6916
▁absorbs	-12.6921
▁icons	-12.6929
▁jo	-12.6936
▁PD	-12.6942
sed	-12.6943
▁guards	-12.6947
▁herb	-12.6956
not	-12.6963
ipping	-12.6965
▁commemorati	-12.6967
million	-12.6977
dol	-12.6977
▁Nan	-12.6982
▁Yo	-12.6984
▁Provide	-12.6985
▁Fred	-12.6989
▁Ge	-12.7
▁addressed	-12.7027
▁Insert	-12.7029
▁sweep	-12.7032
▁sacrifices	-12.7032
▁comprise	-12.7081
SS	-12.7089
▁locals	-12.7094
ust	-12.7095
▁52	-12.7103
▁Similar	-12.7111
▁blam	-12.7113
▁pore	-12.7113
▁Eye	-12.7115
esources	-12.7116
▁Throw	-12.7124
▁intermediate	-12.7132
▁webpage	-12.7132
▁palette	-12.7134
▁Viking	-12.7135
▁chamber	-12.714
▁mannequin	-12.7141
▁wrinkle	-12.7143
▁missions	-12.7147
▁tumor	-12.7147
▁diploma	-12.7151
▁DVD	-12.7153
▁peanut	-12.7155
▁appliance	-12.7155
▁emission	-12.7156
▁zombie	-12.7157
▁46	-12.7157
▁oyster	-12.7158
▁publisher	-12.7161
ile	-12.7161
▁murderer	-12.7162
that	-12.7162
▁pearl	-12.7163
▁laptops	-12.7167
▁implant	-12.7167
bal	-12.7171
▁Wear	-12.718
▁euro	-12.7181
▁proposals	-12.7181
ern	-12.7181
▁Lion	-12.7183
▁Ari	-12.7184
▁Indians	-12.7184
ex	-12.7185
▁Hwa	-12.7188
▁loads	-12.7194
▁deaf	-12.7194
▁Bang	-12.7201
▁gig	-12.7202
▁grad	-12.7204
▁Stick	-12.721
▁invalid	-12.7221
▁Mu	-12.7224
▁Bear	-12.7226
llowing	-12.7227
▁punish	-12.7234
▁jams	-12.7235
▁quarrel	-12.7241
▁bruise	-12.7241
2,	-12.7241
▁Syria	-12.7243
▁Ethiopia	-12.7243
▁Expo	-12.7244
▁Com	-12.7245
▁scroll	-12.7248
▁warrant	-12.7249
▁teenage	-12.725
▁bully	-12.7251
▁Technical	-12.7254
▁diagonal	-12.7254
▁symbolic	-12.7254
▁Protect	-12.7255
▁Ganghwa	-12.7255
▁Chemical	-12.7255
▁Gymnasium	-12.7255
▁Heritage	-12.7255
▁Jennifer	-12.7255
▁Joseph	-12.7255
▁Pangyo	-12.7255
▁Sapporo	-12.7255
▁Shinjuku	-12.7255
▁Sokcho	-12.7255
▁centuries	-12.7255
▁fragrant	-12.7255
▁jjajangmyeon	-12.7255
▁manuscript	-12.7255
▁underneath	-12.7255
▁vacancies	-12.7255
▁Plaza	-12.7255
▁beneath	-12.7255
▁hesitant	-12.7255
▁hologram	-12.7255
▁Jakarta	-12.7255
▁fencing	-12.7255
▁goddess	-12.7255
▁District	-12.7256
▁Uncle	-12.7256
▁DIY	-12.7256
▁Jecheon	-12.7256
▁nationwide	-12.7256
▁Energy	-12.7256
▁Finland	-12.7256
▁casualties	-12.7256
▁mortgage	-12.7256
▁drastically	-12.7256
▁rehearsal	-12.7256
▁sociability	-12.7256
▁MERS	-12.7256
▁autonomy	-12.7256
▁unlucky	-12.7256
▁prosperity	-12.7256
▁Dragon	-12.7256
▁renowned	-12.7256
▁CPU	-12.7256
▁meditation	-12.7256
▁Suncheon	-12.7256
▁LCL	-12.7256
▁Jinju	-12.7256
▁dedication	-12.7256
▁radiation	-12.7256
▁Prize	-12.7256
▁cocoa	-12.7256
▁interference	-12.7256
▁Neither	-12.7256
▁scanning	-12.7256
▁ginger	-12.7256
▁shipowner	-12.7256
▁Reservation	-12.7256
▁exploration	-12.7256
▁Wifi	-12.7256
▁mozzarella	-12.7256
▁Seriously	-12.7256
▁dominant	-12.7256
▁conversion	-12.7256
▁Mount	-12.7256
▁depressing	-12.7256
▁exhaustion	-12.7256
▁drought	-12.7256
▁accumulation	-12.7256
▁kilometer	-12.7256
▁infringement	-12.7256
▁postponing	-12.7257
▁Short	-12.7257
▁slump	-12.7257
▁glucose	-12.7257
▁stimulation	-12.7257
▁Baekje	-12.7257
▁hatred	-12.7257
▁thieves	-12.7257
▁coexist	-12.7257
▁upgrading	-12.7257
▁Grace	-12.7257
▁warehousing	-12.7257
▁inherited	-12.7258
▁intensively	-12.7258
▁forgiveness	-12.7258
▁stitches	-12.7258
▁sees	-12.7258
▁isolated	-12.7258
▁parting	-12.7258
▁capitalism	-12.7258
▁reproduction	-12.7258
▁popping	-12.7258
▁acupuncture	-12.7259
▁niece	-12.7259
▁outdated	-12.7259
▁tobacco	-12.7259
▁immersed	-12.7259
▁earnestly	-12.7259
▁600,000	-12.7259
▁realization	-12.7259
▁alter	-12.7259
▁Helen	-12.7259
▁Psy	-12.726
▁observing	-12.726
▁workforce	-12.726
▁moderately	-12.726
▁Already	-12.726
▁respondents	-12.726
▁wax	-12.726
▁outsourcing	-12.7261
▁Mouse	-12.7262
▁portray	-12.7262
▁viral	-12.7263
▁purely	-12.7263
▁tangled	-12.7263
▁tailor	-12.7263
▁renewable	-12.7264
▁Chrome	-12.7264
▁hotdog	-12.7264
▁salesperson	-12.7265
▁taxation	-12.7265
▁mounted	-12.7265
▁dodge	-12.7265
▁stabilized	-12.7266
▁Carlos	-12.7266
▁overhead	-12.7266
▁newborn	-12.7266
▁annex	-12.7266
▁thrilled	-12.7266
▁Whoever	-12.7267
▁secur	-12.7267
▁ETA	-12.7267
▁relating	-12.7267
▁pathetic	-12.7267
▁FDA	-12.7268
▁Holmes	-12.7268
▁headset	-12.7269
▁Pole	-12.727
▁crap	-12.7272
▁highschool	-12.7272
▁chess	-12.7273
▁Foreigners	-12.7275
▁Application	-12.7277
▁Picture	-12.7278
▁Driver	-12.7278
▁retake	-12.7279
▁Smartphone	-12.7279
▁attendees	-12.728
▁commemorate	-12.728
▁peers	-12.728
▁constraints	-12.7281
▁strengthened	-12.7281
▁agony	-12.7282
▁Nope	-12.7282
▁rocket	-12.7282
▁handles	-12.7283
▁Movie	-12.7285
▁Collect	-12.7286
▁survivors	-12.7288
▁roasting	-12.7289
▁Noel	-12.7289
▁Kwon	-12.7289
▁Steven	-12.7292
▁PU	-12.7294
▁indirect	-12.7296
▁STI	-12.7296
▁Final	-12.7298
over	-12.7299
▁eyelids	-12.7302
▁Earl	-12.7302
gged	-12.7306
▁induction	-12.7307
▁cube	-12.7308
▁clicked	-12.7308
▁Historical	-12.7309
▁locally	-12.7312
▁CAD	-12.7314
▁diapers	-12.7315
▁cycling	-12.7316
▁blamed	-12.7317
▁willingly	-12.7323
▁dots	-12.7323
▁pear	-12.7326
▁clearer	-12.7327
.5	-12.7332
▁arose	-12.7336
▁smokers	-12.7339
▁Pink	-12.734
▁jack	-12.7341
▁critics	-12.7343
▁assumptions	-12.7344
▁hence	-12.7346
▁gains	-12.7348
▁Page	-12.735
▁cleanly	-12.7351
▁merry	-12.7352
▁Spend	-12.7354
▁directory	-12.7356
▁chased	-12.7361
▁dyeing	-12.7364
▁echo	-12.7367
▁macarons	-12.7371
▁elephants	-12.7373
▁gardening	-12.7382
▁hasty	-12.7383
▁prospects	-12.7385
▁skewers	-12.7389
▁doubts	-12.7392
agging	-12.7394
▁united	-12.7394
▁examinations	-12.7398
▁supplementar	-12.7398
upreme	-12.7401
▁Samba	-12.7401
▁tomb	-12.7402
▁friendships	-12.7405
▁locking	-12.7406
▁tombs	-12.7406
▁clone	-12.7408
▁settl	-12.7408
▁Bean	-12.7409
▁interviewers	-12.7409
▁boot	-12.742
▁incentives	-12.7421
▁cola	-12.7429
▁washes	-12.7432
▁damp	-12.7434
▁openings	-12.7441
▁monitors	-12.7442
▁bandages	-12.7444
ways	-12.7455
▁palms	-12.7468
▁planting	-12.7474
▁mats	-12.7474
▁Believe	-12.7475
ji	-12.7482
▁shells	-12.7483
▁vacations	-12.7489
▁productive	-12.7489
21	-12.7492
▁cents	-12.7493
▁borrowing	-12.7497
▁believ	-12.7502
▁delaying	-12.7507
▁tariffs	-12.7513
▁monkeys	-12.7513
▁pressured	-12.7515
tinous	-12.7518
▁dine	-12.7521
▁Wars	-12.7526
▁brains	-12.7531
▁tracks	-12.7537
▁spy	-12.7537
▁envelopes	-12.754
▁deem	-12.7549
dollars	-12.7571
▁IV	-12.7572
ning	-12.7579
▁sung	-12.7579
▁billing	-12.7586
▁representatives	-12.7588
▁counts	-12.759
elecommunication	-12.7597
▁vouchers	-12.7598
▁cleans	-12.7599
▁screws	-12.7602
▁Pad	-12.7604
ari	-12.762
▁NC	-12.762
▁refuses	-12.7621
▁touring	-12.7623
▁glu	-12.7626
▁inventions	-12.7626
▁bracelets	-12.7627
▁Baek	-12.7628
ley	-12.7628
▁forks	-12.763
▁betting	-12.7635
▁Thursdays	-12.7637
▁injections	-12.7648
▁Fri	-12.765
4.	-12.7652
▁Chan	-12.7653
ajor	-12.7653
▁salesman	-12.766
▁Beaut	-12.767
ula	-12.7672
▁Forest	-12.7672
▁Ri	-12.7674
tted	-12.7675
▁Ban	-12.7681
uality	-12.7684
▁equi	-12.7694
▁lands	-12.77
▁sta	-12.7704
▁Confirm	-12.771
▁captures	-12.7713
▁BC	-12.7717
ily	-12.7719
▁nest	-12.7724
▁hyper	-12.7728
▁coal	-12.7732
▁Mondays	-12.7741
▁notebooks	-12.7747
▁Ice	-12.7767
▁weights	-12.7767
▁warrior	-12.7768
▁Memori	-12.7781
▁resell	-12.7783
▁Shop	-12.7791
▁Train	-12.7792
min	-12.7794
▁flora	-12.7801
▁ne	-12.7814
▁coward	-12.7817
▁certif	-12.7824
▁interns	-12.7829
tial	-12.7836
▁Pl	-12.7845
▁socket	-12.7847
▁trials	-12.7853
▁withstand	-12.7855
▁championship	-12.7855
▁spoil	-12.7857
▁intervention	-12.7862
▁nightmare	-12.7863
▁hairpin	-12.7863
▁oversea	-12.7864
▁fossil	-12.7866
▁prosecutor	-12.7866
▁dolphin	-12.7866
▁carriage	-12.7866
▁Student	-12.7867
▁counselor	-12.7868
▁inefficient	-12.7868
▁Window	-12.787
▁crane	-12.787
▁gesture	-12.7871
▁130	-12.7874
▁panda	-12.7874
▁paycheck	-12.7875
▁creator	-12.7875
5,	-12.7877
▁themes	-12.7886
▁Success	-12.7888
▁agrees	-12.7899
▁grind	-12.7899
ural	-12.7904
▁Problem	-12.7909
▁chefs	-12.7913
▁Wang	-12.792
▁shed	-12.7926
▁lessen	-12.7926
▁printers	-12.793
▁advances	-12.7935
fish	-12.7935
▁prestig	-12.7942
▁Claus	-12.7944
▁Iron	-12.7945
▁flutter	-12.7951
▁Teach	-12.7952
▁DO	-12.7956
▁gauge	-12.7956
▁resign	-12.7957
▁Concert	-12.7959
▁conserve	-12.7961
▁Dead	-12.7964
▁disinfect	-12.7966
▁theoretical	-12.7968
▁unconscious	-12.7968
▁mathematical	-12.7968
▁extensive	-12.7968
▁omelet	-12.7968
▁allocate	-12.7969
▁respectful	-12.797
▁cyber	-12.797
▁Oracle	-12.797
▁avocado	-12.797
▁Alaska	-12.797
▁Consequently	-12.797
▁Moscow	-12.797
▁Santorini	-12.797
▁baguette	-12.797
▁counterfeit	-12.797
▁custody	-12.797
▁maturity	-12.797
▁peninsula	-12.797
▁pitiful	-12.797
▁Minecraft	-12.797
▁WiFi	-12.797
▁Chairman	-12.797
▁FIFA	-12.797
▁Fedex	-12.797
▁Sewol	-12.797
▁Goodbye	-12.797
▁darling	-12.797
▁ligament	-12.797
▁unemployed	-12.797
▁societies	-12.797
▁devastated	-12.797
▁grapefruit	-12.797
▁queue	-12.797
▁Gildong	-12.797
▁fluorescent	-12.797
▁Credit	-12.797
▁penalties	-12.797
▁turbulence	-12.797
▁Purchase	-12.797
▁immersion	-12.797
▁atmospheric	-12.797
▁pneumonia	-12.797
▁Samulnori	-12.797
▁legacy	-12.797
▁ultrasound	-12.797
▁communities	-12.797
▁oblige	-12.797
▁Cherry	-12.797
▁Shilla	-12.797
▁escort	-12.797
▁butterflies	-12.797
▁deterioration	-12.797
▁champagne	-12.797
▁Liberty	-12.797
▁TTF	-12.797
▁grandpa	-12.797
▁Macau	-12.797
▁ceremonies	-12.797
▁infectious	-12.797
▁Advertising	-12.797
▁Arabic	-12.797
▁Greg	-12.797
▁dragged	-12.797
▁confidentiality	-12.797
▁residency	-12.797
▁Linda	-12.797
▁DDP	-12.797
▁mainstream	-12.797
▁Certainly	-12.797
▁Factory	-12.797
▁Repeat	-12.797
▁blurry	-12.797
▁childbirth	-12.797
▁cheeseburger	-12.797
▁Morning	-12.797
▁Goyang	-12.797
▁flustered	-12.7971
▁pedal	-12.7971
▁Pusan	-12.7971
▁wrestling	-12.7971
▁sundae	-12.7971
▁profitability	-12.7971
▁Josh	-12.7971
▁scientifically	-12.7971
▁Guard	-12.7971
▁sprite	-12.7971
▁unpopular	-12.7971
▁Yuri	-12.7971
▁Sugar	-12.7971
▁Outside	-12.7971
▁Crong	-12.7971
▁functionality	-12.7971
▁securities	-12.7971
▁pulse	-12.7971
▁suspend	-12.7971
▁Lady	-12.7971
▁Goodnight	-12.7971
▁surviving	-12.7971
▁unchanged	-12.7971
▁unconsciously	-12.7972
▁superb	-12.7972
▁Baby	-12.7972
▁disconnected	-12.7972
▁kidnapped	-12.7972
▁Arab	-12.7972
▁snorkeling	-12.7973
▁detached	-12.7973
▁abolished	-12.7973
▁photoshop	-12.7974
▁Network	-12.7974
▁Return	-12.7974
▁Future	-12.7974
▁freckles	-12.7974
▁Wendy	-12.7975
▁nursery	-12.7975
▁palate	-12.7975
▁spectators	-12.7975
▁meticulously	-12.7975
▁fracture	-12.7975
▁furious	-12.7975
▁busier	-12.7976
▁vaccine	-12.7976
▁accused	-12.7977
▁bullied	-12.7977
▁weakened	-12.7977
▁payroll	-12.7978
▁detector	-12.7978
▁peeled	-12.7978
▁acquaint	-12.7979
▁molecul	-12.798
▁standby	-12.798
▁unlocked	-12.7981
▁critically	-12.7981
▁fitted	-12.7981
▁sufficiently	-12.7981
▁graceful	-12.7981
▁pickled	-12.7981
▁rob	-12.7981
▁troops	-12.7981
▁Chungju	-12.7982
▁travelling	-12.7982
▁validity	-12.7982
▁sharply	-12.7983
▁TSA	-12.7983
▁sailing	-12.7983
▁Rapunzel	-12.7983
▁eighth	-12.7984
▁faded	-12.7984
▁enjoyment	-12.7985
▁confessed	-12.7985
▁flashy	-12.7985
▁perfection	-12.7985
▁RMA	-12.7985
▁wrinkled	-12.7987
▁petals	-12.7988
▁predictable	-12.7988
▁Wheel	-12.7988
▁Johnson	-12.7988
▁implications	-12.7989
▁stroll	-12.7991
▁compression	-12.7992
▁naive	-12.7992
▁fuss	-12.7993
▁screwed	-12.7993
▁interrupted	-12.7993
▁justified	-12.7994
▁entrust	-12.7994
▁showcase	-12.7995
▁MR	-12.7996
▁utensils	-12.7997
▁fairness	-12.7997
▁bloomed	-12.7999
▁compress	-12.8
▁140	-12.8
▁2,500	-12.8
▁migration	-12.8003
▁revealing	-12.8004
▁jumper	-12.8005
▁supporter	-12.8005
▁2005	-12.8005
▁IU	-12.8005
▁thinly	-12.8009
▁Join	-12.8009
▁contaminated	-12.801
▁penguins	-12.8012
▁lining	-12.8013
▁persuaded	-12.8014
▁explored	-12.8015
▁destroying	-12.8015
▁teens	-12.8018
▁stray	-12.8022
▁matured	-12.8022
▁lord	-12.8024
▁enduring	-12.8025
▁Rain	-12.8025
▁Shi	-12.8025
▁churches	-12.8029
▁buffer	-12.8031
field	-12.8032
▁impress	-12.8033
plugged	-12.8033
▁goodnight	-12.8034
▁foul	-12.8035
▁automat	-12.8035
▁almonds	-12.8036
▁comforted	-12.8036
▁trainees	-12.8038
▁respectable	-12.8039
▁drawbacks	-12.8042
▁wiped	-12.8043
▁Kyo	-12.8047
▁briefing	-12.8048
▁Item	-12.8048
▁voted	-12.805
▁loosen	-12.8052
▁organisms	-12.8062
▁onboard	-12.8063
▁Boy	-12.8067
▁Compar	-12.8067
▁favored	-12.8075
▁elaborate	-12.8075
▁commuter	-12.8076
▁announcements	-12.8079
▁payday	-12.808
▁sorting	-12.808
▁liable	-12.8082
▁lense	-12.8083
▁fruitful	-12.8083
wept	-12.8084
▁attachments	-12.8094
▁dimensions	-12.8094
▁Exclud	-12.8095
▁Recommend	-12.8096
▁accessed	-12.8096
▁reminder	-12.8098
▁researches	-12.8099
▁suburbs	-12.81
▁Tao	-12.81
▁upright	-12.8109
▁emoticons	-12.8111
woo	-12.8122
▁webtoons	-12.8126
▁grams	-12.8127
▁rushing	-12.8129
quiring	-12.8137
▁gardens	-12.8155
▁kittens	-12.8155
ight	-12.816
amous	-12.8162
▁AS	-12.8166
▁noted	-12.8168
▁fears	-12.817
▁remover	-12.817
▁wh	-12.8171
▁protecti	-12.8173
rmed	-12.8183
▁arises	-12.8201
sung	-12.8206
▁fishy	-12.8212
▁105	-12.8218
▁towed	-12.822
▁borders	-12.8224
▁contemplate	-12.8225
▁servants	-12.8229
▁generates	-12.823
▁surveys	-12.8241
ac	-12.8242
▁Pack	-12.8247
▁refundable	-12.8248
▁dealers	-12.8253
▁vet	-12.8255
▁shades	-12.8258
▁powered	-12.8259
▁judges	-12.826
ware	-12.8264
lying	-12.8275
▁Cool	-12.8279
▁Key	-12.8283
▁sal	-12.8285
▁maps	-12.8289
▁POS	-12.8289
▁maths	-12.829
ke	-12.8292
▁Low	-12.8298
▁cm	-12.83
▁dieting	-12.8304
▁Udo	-12.831
▁Invoice	-12.8313
ither	-12.8314
▁extracts	-12.8316
national	-12.832
▁stair	-12.8323
▁cocktails	-12.8324
get	-12.8332
chang	-12.8334
▁splash	-12.8335
ka	-12.8337
tive	-12.834
▁GM	-12.8341
off	-12.8347
▁heights	-12.8358
▁drawers	-12.8362
▁crowds	-12.8363
PP	-12.8376
▁commands	-12.8384
▁scents	-12.8387
▁overlook	-12.8391
▁disputes	-12.8393
▁Hally	-12.8395
▁tub	-12.8406
▁Fo	-12.8409
ible	-12.8409
▁calculations	-12.8412
▁apologized	-12.8418
ure	-12.8419
violet	-12.8421
▁curves	-12.8436
ear	-12.844
▁Taxi	-12.8443
gae	-12.8451
▁symbols	-12.8453
sing	-12.8493
▁Par	-12.8494
▁13,000	-12.8507
30?	-12.8508
▁Years	-12.8511
▁Litt	-12.8513
ility	-12.8521
▁tens	-12.8532
▁instinct	-12.8533
▁stereo	-12.8547
▁Maj	-12.8576
uri	-12.8583
▁bleed	-12.8587
▁Found	-12.8588
▁blink	-12.859
▁HP	-12.8594
▁BT	-12.8597
▁AB	-12.86
▁addict	-12.8608
▁informal	-12.861
▁moisturize	-12.8611
▁razor	-12.8615
▁sidewalk	-12.8617
▁backbone	-12.8618
▁glitter	-12.8619
▁endeavor	-12.8621
▁sprout	-12.8623
▁disinfectant	-12.8624
▁repetition	-12.8625
▁sus	-12.8628
▁bunker	-12.8629
▁float	-12.8629
▁lizard	-12.863
▁trucks	-12.863
▁leaflet	-12.8632
▁temples	-12.8633
▁Adam	-12.8633
▁probation	-12.8634
▁appetizer	-12.8635
▁Muslim	-12.8637
▁cl	-12.8638
▁creature	-12.8639
▁comput	-12.8639
▁assumption	-12.8639
▁organism	-12.8641
▁gaps	-12.8641
▁Shoot	-12.8643
▁merchant	-12.8644
ney	-12.8645
▁crop	-12.8648
▁jaw	-12.8651
▁blackout	-12.8654
▁photoshoot	-12.8656
▁shave	-12.8665
▁lipsticks	-12.8666
▁Electronic	-12.8671
▁restrain	-12.8673
▁souls	-12.8674
▁downside	-12.8674
▁Julie	-12.8682
▁advanc	-12.8684
si	-12.8687
▁glove	-12.8689
uksa	-12.8694
▁Peace	-12.8695
▁habitat	-12.8698
▁fined	-12.87
▁prefers	-12.8706
▁Season	-12.871
▁melon	-12.8711
▁Latin	-12.8721
▁reasonabl	-12.8722
▁hy	-12.8722
▁google	-12.8722
▁Lab	-12.8722
▁faint	-12.8723
▁manipulate	-12.8726
raffic	-12.873
▁reconfirm	-12.8731
iled	-12.8736
▁arrogant	-12.8737
▁Log	-12.8738
▁insane	-12.8738
▁Carnival	-12.8739
▁Chelsea	-12.8739
▁Clinton	-12.8739
▁Council	-12.8739
▁Istanbul	-12.8739
▁Jessica	-12.8739
▁Jokbal	-12.8739
▁Kazakhstan	-12.8739
▁Lincoln	-12.8739
▁Picasso	-12.8739
▁Scotland	-12.8739
▁Sheraton	-12.8739
▁Shibuya	-12.8739
▁Silicon	-12.8739
▁acceleration	-12.8739
▁boycott	-12.8739
▁contagious	-12.8739
▁culprit	-12.8739
▁empathy	-12.8739
▁monopoly	-12.8739
▁parasol	-12.8739
▁sturdy	-12.8739
▁Jjajangmyeon	-12.8739
▁Kibera	-12.8739
▁libraries	-12.8739
▁ultrasonic	-12.8739
▁Walmart	-12.8739
▁whatsoever	-12.8739
▁ASIN	-12.8739
▁entities	-12.8739
▁puppet	-12.8739
▁restructuring	-12.8739
▁wavelength	-12.8739
▁Gyeongbok	-12.8739
▁diplomacy	-12.8739
▁monument	-12.8739
▁surgeries	-12.8739
▁Kanglim	-12.8739
▁Swimming	-12.8739
▁accusation	-12.8739
▁optimization	-12.8739
▁BMW	-12.8739
▁parsley	-12.8739
▁Premium	-12.8739
▁stimuli	-12.8739
▁unrealistic	-12.8739
▁residue	-12.8739
▁unacceptable	-12.8739
▁deliberation	-12.8739
▁cricket	-12.8739
▁deployment	-12.8739
▁Arirang	-12.8739
▁pdf	-12.8739
▁Chanel	-12.8739
▁Doosan	-12.8739
▁compliance	-12.8739
▁Beautiful	-12.8739
▁Elsa	-12.8739
▁testimony	-12.8739
▁hierarchy	-12.8739
▁scenic	-12.8739
▁buddy	-12.8739
▁considerably	-12.8739
▁hugged	-12.8739
▁emperor	-12.8739
▁EDF	-12.8739
▁Younghee	-12.874
▁radius	-12.874
▁Local	-12.874
▁retention	-12.874
▁flowerpot	-12.874
▁Basic	-12.874
▁CRD	-12.874
▁responsive	-12.874
▁surveillance	-12.874
▁Ganghwado	-12.874
▁sponsorship	-12.874
▁Coex	-12.874
▁collaborative	-12.874
▁briefcase	-12.874
▁enhancement	-12.874
▁stabbed	-12.874
▁Minjung	-12.874
▁mentality	-12.874
▁Oriental	-12.874
▁heartbreaking	-12.874
▁daddy	-12.874
▁Section	-12.8741
▁tenderloin	-12.8741
▁piping	-12.8741
▁localization	-12.8741
▁Francis	-12.8741
▁Matilda	-12.8741
▁periodically	-12.8741
▁metabolism	-12.8741
▁revive	-12.8742
▁bowel	-12.8742
▁Labor	-12.8742
▁Polar	-12.8742
▁mucus	-12.8742
▁synthetic	-12.8742
▁thriller	-12.8742
▁Kinder	-12.8742
▁Morocco	-12.8742
▁specialties	-12.8742
▁yelled	-12.8742
▁microscope	-12.8743
▁Donuts	-12.8743
▁hairband	-12.8743
▁Max	-12.8743
▁Email	-12.8743
▁supper	-12.8744
▁roaming	-12.8744
▁trousers	-12.8744
▁scarce	-12.8744
▁lingering	-12.8744
▁rotating	-12.8744
▁collections	-12.8744
▁Update	-12.8745
▁reimbursed	-12.8745
▁mankind	-12.8746
▁Proceed	-12.8746
▁Drug	-12.8746
▁45,000	-12.8746
▁notarized	-12.8746
▁overflowing	-12.8747
▁varied	-12.8747
▁contributing	-12.8747
▁noticing	-12.8747
▁uniqueness	-12.8748
▁Ensure	-12.8748
▁surgical	-12.8748
▁objectively	-12.8748
▁stimulating	-12.8748
▁Bio	-12.8748
▁admissions	-12.8749
▁excessively	-12.8749
▁disregard	-12.875
▁peacefully	-12.875
▁shouting	-12.875
▁tightened	-12.8751
▁joyfully	-12.8751
▁Cause	-12.8751
▁Nations	-12.8752
▁disrupt	-12.8752
▁discriminate	-12.8752
▁historically	-12.8752
▁backyard	-12.8753
▁hinder	-12.8753
▁galbi	-12.8753
▁blinking	-12.8754
▁nasty	-12.8754
▁edible	-12.8754
▁contradict	-12.8754
▁empire	-12.8755
CC	-12.8756
▁racing	-12.8756
▁Promotion	-12.8757
▁oils	-12.8757
▁cur	-12.8759
▁liability	-12.8759
▁conquer	-12.876
▁conveyed	-12.876
▁Davis	-12.8761
▁imperfect	-12.8761
▁anticipated	-12.8762
▁2020	-12.8763
▁Insurance	-12.8763
▁intact	-12.8763
▁breeder	-12.8763
▁specifics	-12.8764
▁Convention	-12.8764
▁Hurr	-12.8764
▁reducer	-12.8764
▁Calm	-12.8765
▁planner	-12.8767
▁poisoning	-12.8767
▁kissed	-12.8768
▁Standard	-12.8768
▁Champions	-12.8768
▁cutter	-12.8769
▁drift	-12.877
▁ripe	-12.877
▁shelves	-12.877
▁365	-12.8771
▁tiles	-12.8774
ding	-12.8775
▁Type	-12.8781
▁transported	-12.8783
▁validation	-12.8785
▁grading	-12.8785
▁Connect	-12.8786
▁civi	-12.8788
ether	-12.8788
▁Process	-12.879
▁prone	-12.8792
▁interpreting	-12.8793
▁Idol	-12.8794
▁remake	-12.8798
▁comb	-12.8798
come	-12.8798
▁offenders	-12.8801
▁walnuts	-12.8801
▁guts	-12.8802
▁Constitution	-12.8803
▁notion	-12.8804
▁relie	-12.8804
▁compensated	-12.8804
▁fighters	-12.8808
▁min	-12.8808
▁Cell	-12.8813
▁pirates	-12.8813
▁tracked	-12.8814
▁wigs	-12.882
▁Poke	-12.8825
▁sim	-12.8827
▁deposits	-12.8832
▁hostil	-12.8832
▁persons	-12.8833
▁Magic	-12.8835
▁prizes	-12.8836
▁inward	-12.8839
▁wallets	-12.8843
ds	-12.8849
▁Mall	-12.885
▁harmonize	-12.885
▁braise	-12.8851
▁301	-12.8851
▁adolescents	-12.8855
▁Driv	-12.8858
▁unfold	-12.886
▁safest	-12.8861
▁entertainers	-12.8866
▁cows	-12.8873
▁Event	-12.8874
▁Ph	-12.8876
▁curls	-12.8876
▁treaty	-12.8878
▁appoint	-12.8882
▁tilt	-12.8882
▁pleasing	-12.8883
▁alleviate	-12.8886
▁whoever	-12.8887
25	-12.8889
▁adhere	-12.8892
▁surpass	-12.8902
▁Total	-12.8903
▁sharks	-12.8908
▁Complete	-12.891
▁expires	-12.891
▁Tuesdays	-12.8914
▁Perfect	-12.8917
▁dresser	-12.8922
nless	-12.8922
▁specializ	-12.8928
having	-12.8928
▁bulbs	-12.893
jin	-12.8935
▁humane	-12.8936
▁overlaps	-12.8938
▁winds	-12.8939
▁scenarios	-12.8941
▁Vi	-12.8942
▁54	-12.8944
▁trending	-12.8944
▁highlights	-12.8947
▁transmit	-12.8949
▁vocation	-12.8949
su	-12.895
▁tumblers	-12.8957
▁tablets	-12.8958
6.	-12.896
▁Li	-12.8964
ca	-12.8967
▁laughs	-12.8975
▁Match	-12.8997
▁mu	-12.9012
▁traded	-12.9014
▁recognizes	-12.9018
reaching	-12.9018
▁prayers	-12.9021
▁panels	-12.9021
▁startups	-12.9024
U	-12.9029
▁pil	-12.9036
▁Hwang	-12.9042
▁MF	-12.9045
▁Ear	-12.9048
▁Consult	-12.9058
▁Week	-12.9059
▁Bulg	-12.906
▁Lily	-12.9061
hu	-12.9062
▁holders	-12.9063
▁watermelons	-12.9065
▁suspects	-12.9067
▁considerations	-12.9074
▁exert	-12.9077
▁lasting	-12.9084
▁infections	-12.9094
▁Hee	-12.9105
▁FA	-12.9109
▁violations	-12.9113
ja	-12.9123
io	-12.9123
ade	-12.9126
▁solves	-12.9127
▁Mask	-12.9127
▁seasonings	-12.9128
▁outward	-12.913
▁Foods	-12.914
▁airplanes	-12.9157
▁topping	-12.9166
sa	-12.917
▁compile	-12.9171
▁adjustments	-12.9173
▁cargos	-12.9173
▁Anne	-12.9178
▁eco	-12.918
▁Sign	-12.9187
▁120,000	-12.9191
piration	-12.9192
▁Wind	-12.9199
▁domains	-12.9201
▁CDs	-12.9202
▁guardians	-12.9204
▁Rub	-12.9206
Oh	-12.9211
▁Audi	-12.9211
▁sectors	-12.9219
yeon	-12.9229
seong	-12.9231
▁strikes	-12.9233
▁Hae	-12.9234
▁overdo	-12.9241
▁Ka	-12.925
▁Net	-12.9251
▁ego	-12.9259
▁fl	-12.926
▁sterilize	-12.9262
▁vegetarians	-12.9264
▁clan	-12.9264
▁browse	-12.9265
▁compassion	-12.9265
generating	-12.9268
anning	-12.9279
▁emphasiz	-12.9282
▁Bi	-12.9288
▁surfaces	-12.9295
▁litera	-12.9299
park	-12.9299
▁Pop	-12.9303
▁Nah	-12.9303
▁whisper	-12.9304
▁Pass	-12.9322
▁rage	-12.9324
▁spark	-12.9328
▁kills	-12.9329
▁villa	-12.9336
0,	-12.9343
▁66	-12.9345
Brown	-12.9347
▁conditioners	-12.9356
ush	-12.9363
▁ants	-12.9368
▁Pa	-12.9371
▁Investment	-12.938
spread	-12.9381
▁yo	-12.9384
▁quotes	-12.939
▁birthdays	-12.9391
ess	-12.9397
▁fuels	-12.9397
▁Track	-12.9401
▁Pe	-12.9409
▁Got	-12.941
▁bob	-12.9415
▁Julia	-12.9416
lly	-12.9418
▁3.5	-12.9421
▁Must	-12.9422
▁tee	-12.9427
▁scaffold	-12.944
▁speculation	-12.9447
▁Innovation	-12.9447
▁explode	-12.9449
▁imitation	-12.9449
▁vegan	-12.9451
jae	-12.9452
▁flaw	-12.9454
▁cleaners	-12.9455
▁pee	-12.9457
▁giraffe	-12.9457
▁heartbeat	-12.9457
▁titles	-12.9459
▁conception	-12.9462
▁Pain	-12.9462
▁enzyme	-12.9464
▁nozzle	-12.9465
▁56	-12.9465
▁Brazilian	-12.9466
▁newcomer	-12.9467
▁odor	-12.9468
▁capsule	-12.9468
▁Nazi	-12.9468
▁viewpoint	-12.947
▁Studio	-12.947
▁ritual	-12.9471
▁coworker	-12.9471
▁Flower	-12.9473
▁paths	-12.9475
mi	-12.9476
▁scholar	-12.9476
▁shorts	-12.9476
▁Gye	-12.9481
▁abalone	-12.9482
▁Mode	-12.9489
hrew	-12.949
▁advancement	-12.9493
▁manicure	-12.9497
CD	-12.9498
▁Sony	-12.9499
some	-12.9516
shed	-12.9521
▁Te	-12.9522
▁sigh	-12.9525
▁Sit	-12.9529
PM	-12.9534
▁Chu	-12.9546
▁hose	-12.9548
▁distress	-12.9548
▁cooker	-12.9548
fw	-12.9549
▁numbered	-12.955
▁extensions	-12.955
▁acquir	-12.9551
▁ruler	-12.9553
▁worsen	-12.9554
▁smoker	-12.9556
ab	-12.9557
▁prioritize	-12.9557
▁'	-12.9559
▁duplicate	-12.9559
▁Milan	-12.9563
▁enlighten	-12.9564
▁soundproof	-12.9566
▁scatter	-12.9567
▁Box	-12.9567
▁Organization	-12.957
▁tedious	-12.957
▁reckless	-12.957
▁apparent	-12.9571
ite	-12.9571
▁Gyeonggi	-12.9572
mmigration	-12.9572
▁Confucian	-12.9572
▁Alpha	-12.9572
▁Affairs	-12.9572
▁Afghanistan	-12.9572
▁Arizona	-12.9572
▁Blizzard	-12.9572
▁Celsius	-12.9572
▁Enterprise	-12.9572
▁Fukuoka	-12.9572
▁Graham	-12.9572
▁Jacob	-12.9572
▁Jajangmyeon	-12.9572
▁Manhattan	-12.9572
▁Melbourne	-12.9572
▁Mickey	-12.9572
▁PowerPoint	-12.9572
▁Scarlet	-12.9572
▁bazaar	-12.9572
▁dementia	-12.9572
▁galleries	-12.9572
▁longevity	-12.9572
▁metropolitan	-12.9572
▁threshold	-12.9572
▁transparency	-12.9572
▁Committee	-12.9572
▁Competition	-12.9572
▁Ghana	-12.9572
▁Gucci	-12.9572
▁congested	-12.9572
▁glorious	-12.9572
▁reckon	-12.9572
▁twitter	-12.9572
▁Embassy	-12.9572
▁Hanako	-12.9572
▁Makgeolli	-12.9572
▁comprehension	-12.9572
▁infrared	-12.9572
▁perseverance	-12.9572
▁Channel	-12.9572
▁Generation	-12.9572
▁Jeolla	-12.9572
▁dissatisfaction	-12.9572
▁queries	-12.9572
▁Cruise	-12.9572
▁Miami	-12.9572
▁ramyeon	-12.9572
▁lukewarm	-12.9572
▁pelvis	-12.9572
▁racist	-12.9572
▁Gunsan	-12.9572
▁deceiving	-12.9572
▁jungle	-12.9572
▁convergence	-12.9572
▁kakaotalk	-12.9572
▁Costco	-12.9572
▁Folk	-12.9572
▁cinnamon	-12.9572
▁Toshiba	-12.9572
▁jellyfish	-12.9572
▁banquet	-12.9572
▁delicacy	-12.9572
▁Baseball	-12.9573
▁unpredictable	-12.9573
▁patriotism	-12.9573
▁superpower	-12.9573
▁Contest	-12.9573
▁clarity	-12.9573
▁Planning	-12.9573
▁Blood	-12.9573
▁qualitative	-12.9573
▁ETD	-12.9573
▁Michelle	-12.9573
▁Georgia	-12.9573
▁perilla	-12.9573
▁unsatisfied	-12.9573
▁kiwi	-12.9573
▁rationality	-12.9573
▁Toyota	-12.9573
▁Exercising	-12.9573
▁kakao	-12.9573
▁retiring	-12.9573
▁trimmed	-12.9573
▁anemia	-12.9573
▁differentiation	-12.9573
▁unnatural	-12.9573
▁wing	-12.9573
▁impulse	-12.9573
▁royalty	-12.9573
▁Karl	-12.9573
▁Simply	-12.9573
▁COE	-12.9573
▁Feb	-12.9573
▁Relationship	-12.9573
▁paradise	-12.9573
▁Olive	-12.9573
▁calculator	-12.9573
▁username	-12.9574
▁Olle	-12.9574
▁juicy	-12.9574
▁minority	-12.9574
▁deficit	-12.9574
▁throbbing	-12.9574
▁judicia	-12.9574
▁Register	-12.9574
▁housekeeper	-12.9574
▁unfavorable	-12.9574
▁rubbing	-12.9574
▁Avenue	-12.9574
▁professionalism	-12.9574
▁transmitted	-12.9574
▁Jiwon	-12.9574
▁tuning	-12.9574
▁panorama	-12.9575
▁stably	-12.9575
▁heroin	-12.9575
▁reborn	-12.9575
▁Poland	-12.9575
▁remainder	-12.9575
▁Dinner	-12.9576
▁Ronaldo	-12.9576
▁familiarity	-12.9576
▁unbearable	-12.9576
▁Chief	-12.9576
▁Fuji	-12.9577
▁Hard	-12.9577
▁mapping	-12.9577
▁depicted	-12.9578
▁Experts	-12.9578
▁Bossam	-12.9578
▁rusty	-12.9578
▁netizens	-12.9578
▁dipping	-12.9578
▁Polish	-12.9579
▁intensely	-12.9579
▁stunning	-12.9579
▁belonging	-12.9579
▁commercialized	-12.958
▁frightening	-12.958
▁administered	-12.958
▁china	-12.958
▁Terms	-12.958
▁dissolved	-12.958
▁mythology	-12.9581
▁humidifier	-12.9582
▁fulfillment	-12.9582
▁accelerated	-12.9582
▁Jews	-12.9582
▁genuinely	-12.9582
▁harshly	-12.9582
▁possesses	-12.9582
▁magneti	-12.9582
▁storyline	-12.9583
▁smartest	-12.9583
▁boredom	-12.9583
▁turnover	-12.9584
▁inspector	-12.9585
▁flawless	-12.9585
▁consistency	-12.9586
▁2006	-12.9586
▁EOS	-12.9587
▁courteous	-12.9587
▁implies	-12.9587
▁securely	-12.9588
▁guidebook	-12.9588
▁darkest	-12.9588
▁glittering	-12.9588
▁actresses	-12.9588
▁Perform	-12.9589
che	-12.959
▁momentum	-12.959
▁Jake	-12.959
▁wives	-12.959
▁SAR	-12.9591
▁beaten	-12.9592
▁setback	-12.9592
▁grammatical	-12.9592
▁easygoing	-12.9592
▁bookmark	-12.9593
▁coaster	-12.9593
▁Content	-12.9593
▁hopeful	-12.9594
▁Sundae	-12.9594
▁regulate	-12.9595
▁alternate	-12.9595
▁Rules	-12.9595
▁sponsored	-12.9597
▁adaptor	-12.9597
▁gateway	-12.9599
▁recruited	-12.96
▁deadly	-12.96
▁Drive	-12.9601
▁waving	-12.9605
▁SKU	-12.9606
▁murdered	-12.9607
▁merge	-12.9608
00,	-12.9608
▁pastry	-12.9608
▁shifted	-12.9609
▁mentoring	-12.9609
▁explor	-12.961
▁Hyo	-12.9611
▁thankfully	-12.9611
▁Present	-12.9611
▁proudly	-12.9612
▁rows	-12.9613
▁Coming	-12.9613
▁Machine	-12.9615
▁leap	-12.9616
▁privately	-12.9616
der	-12.9618
▁gases	-12.9619
▁consulted	-12.962
▁interrupting	-12.9621
▁quieter	-12.9626
▁Pyeong	-12.9626
com	-12.9626
▁minimized	-12.963
▁silicone	-12.9631
▁bites	-12.9631
▁patents	-12.9633
▁reuse	-12.9636
▁Mango	-12.9636
▁performers	-12.964
▁muffins	-12.964
▁Ted	-12.9641
▁arising	-12.9642
▁kissing	-12.9642
▁fuck	-12.9642
▁shaken	-12.9643
▁Large	-12.9646
▁atoms	-12.9646
▁Auto	-12.9646
64	-12.9647
▁admired	-12.9648
▁hangers	-12.9648
▁Exi	-12.9649
▁figur	-12.9653
▁Simon	-12.9654
▁crave	-12.9657
put	-12.9657
ue	-12.9657
▁stripes	-12.9659
▁filing	-12.9662
▁inquir	-12.9664
▁witnesses	-12.9665
▁jar	-12.9666
▁Hanga	-12.9668
▁perfumes	-12.9668
▁Inha	-12.967
luxe	-12.9671
ni	-12.9674
za	-12.9681
▁outpatient	-12.9681
▁similarly	-12.9681
▁LCD	-12.9688
▁resid	-12.9696
▁bathing	-12.9699
▁DVDs	-12.9703
▁distributors	-12.9709
▁employers	-12.971
▁entrepreneurs	-12.9727
▁indicators	-12.9729
▁lett	-12.9729
▁automate	-12.973
▁pitchers	-12.973
▁Direct	-12.973
lette	-12.9733
uclear	-12.9737
▁Dec	-12.9741
▁tray	-12.9743
▁CV	-12.9745
▁Yun	-12.9747
▁postcards	-12.9748
▁Deep	-12.9748
▁strokes	-12.975
▁puzzles	-12.975
▁Walt	-12.9752
▁Brad	-12.9752
▁Gee	-12.9752
▁bumps	-12.9752
▁providers	-12.9753
▁meats	-12.9753
ease	-12.9754
▁insights	-12.9757
▁rap	-12.9759
▁Leo	-12.976
▁Opera	-12.9761
shi	-12.9766
▁rebuild	-12.9768
▁Face	-12.9769
▁compounds	-12.9772
▁Mona	-12.9775
▁quantit	-12.9775
▁commence	-12.9776
▁processor	-12.9781
▁claiming	-12.9784
▁SF	-12.9789
▁Mind	-12.9789
▁flush	-12.9792
▁Williams	-12.9792
▁contests	-12.9797
▁truthful	-12.9799
▁Fix	-12.9799
▁CI	-12.9801
▁41	-12.9809
▁concludes	-12.9809
▁earnings	-12.981
▁sober	-12.981
▁Fe	-12.9811
▁mechanisms	-12.9811
▁ruled	-12.9815
▁amendments	-12.982
▁intervene	-12.982
rest	-12.9821
will	-12.9822
▁chains	-12.9832
▁killer	-12.9834
▁threads	-12.9837
phone	-12.9837
▁underestimate	-12.9841
▁Pal	-12.9841
▁tigers	-12.9848
▁envi	-12.985
▁frost	-12.9851
ikewise	-12.9858
▁doubled	-12.986
▁deed	-12.9862
▁powders	-12.9864
▁Yeji	-12.9865
▁masters	-12.9866
▁burdens	-12.9868
uz	-12.9872
▁diamonds	-12.9874
▁fingerprints	-12.9874
▁pops	-12.9878
▁emit	-12.9882
▁tattoos	-12.9883
▁ti	-12.9884
▁invent	-12.9897
ig	-12.9897
▁succeeds	-12.9898
▁rankings	-12.9899
▁liter	-12.9902
ette	-12.9907
▁Yen	-12.9908
▁Bal	-12.9913
▁trainers	-12.9927
AM	-12.9929
q	-12.9932
▁odds	-12.9932
▁columns	-12.9936
▁stu	-12.9937
▁Eggs	-12.994
▁Youth	-12.9949
▁Angel	-12.9957
▁embedd	-12.9967
ye	-12.9974
▁PIC	-12.9976
▁sued	-12.998
AS	-12.9982
▁Assum	-12.9985
▁Chat	-12.9989
eul	-12.9989
suk	-12.9994
born	-12.9996
with	-13.0001
▁Cost	-13.0008
▁debates	-13.0015
▁unload	-13.0021
▁routines	-13.0027
ked	-13.0027
▁nut	-13.0028
▁Eco	-13.0035
▁Had	-13.0038
▁pillows	-13.0043
▁twins	-13.0044
ensity	-13.005
own	-13.0053
▁shi	-13.0056
▁Cheong	-13.0062
▁Kai	-13.0069
nce	-13.0078
ID	-13.0081
eval	-13.0085
▁AR	-13.0094
▁Fu	-13.01
▁Ray	-13.0106
▁girlfriends	-13.0113
▁clearing	-13.0123
▁minors	-13.0134
▁rip	-13.0136
avy	-13.0141
▁blanks	-13.0149
▁prank	-13.0151
▁salads	-13.0158
▁ample	-13.0163
▁350	-13.0169
▁reign	-13.0174
elow	-13.0175
▁Dry	-13.0176
putting	-13.0181
ons	-13.0183
▁sew	-13.0184
nam	-13.0185
Escape	-13.0185
▁Inc	-13.0187
▁greets	-13.0193
tang	-13.0198
▁sparkl	-13.0201
ux	-13.0212
▁Gift	-13.0213
but	-13.0219
▁deprive	-13.022
▁DD	-13.0222
▁Meat	-13.0224
▁motorcycles	-13.0224
ail	-13.0229
▁hearty	-13.0231
everal	-13.0237
▁Step	-13.024
▁dominate	-13.0243
wing	-13.0245
▁animations	-13.0251
▁Wood	-13.0252
nybody	-13.0258
▁heals	-13.0262
▁lawyers	-13.0268
pcs	-13.0269
▁ju	-13.027
▁postures	-13.0271
▁Udon	-13.0274
▁colleges	-13.0275
▁boyfriends	-13.0276
atching	-13.028
CP	-13.0287
▁Inform	-13.029
▁Tu	-13.0291
kin	-13.0291
ans	-13.0292
▁Va	-13.0293
▁workouts	-13.0295
▁recreation	-13.0301
▁cam	-13.0315
ky	-13.0318
▁worlds	-13.0323
nglish	-13.0324
ave	-13.0324
▁Shar	-13.0329
bus	-13.0334
00,000	-13.0337
cha	-13.0346
tting	-13.0348
▁shrink	-13.0353
▁veterinarian	-13.0356
▁juvenile	-13.0356
▁arcade	-13.0357
▁cigar	-13.0358
▁critic	-13.036
▁Space	-13.036
▁scanner	-13.0367
▁Prim	-13.0368
▁anchor	-13.037
▁newbie	-13.0371
▁temptation	-13.0371
▁coordinate	-13.0372
▁12,	-13.0373
▁notepad	-13.0373
▁swimsuit	-13.0373
▁handbag	-13.0374
▁owns	-13.0374
▁statute	-13.0374
▁ambition	-13.0374
▁conglomerate	-13.0376
gang	-13.0377
▁journalist	-13.0377
▁Heart	-13.0378
▁subcontractor	-13.0379
▁Noodle	-13.038
▁antibiotic	-13.038
▁Style	-13.038
▁blackhead	-13.038
▁villages	-13.0381
▁subtitle	-13.0381
ina	-13.0381
▁blush	-13.0382
▁offset	-13.0382
▁array	-13.0384
▁earring	-13.0384
ks	-13.0385
▁missile	-13.0386
▁villain	-13.0387
▁Individual	-13.0389
wood	-13.0389
▁mural	-13.0391
old	-13.0394
▁eraser	-13.0395
▁HS	-13.0397
▁Hol	-13.04
▁shortcoming	-13.0402
▁analyst	-13.0402
▁Record	-13.0409
▁educat	-13.041
▁pi	-13.041
ase	-13.0413
▁Wangsa	-13.0414
▁gloss	-13.0418
erial	-13.0419
▁developments	-13.042
▁invitations	-13.0421
▁hydro	-13.0426
town	-13.0429
▁connector	-13.0432
▁PP	-13.0435
▁Asan	-13.0436
ence	-13.0437
NT	-13.0446
▁unbelievabl	-13.0454
▁stitch	-13.0456
ix	-13.0457
▁fiance	-13.0458
▁hub	-13.0463
▁meditate	-13.0466
▁pioneer	-13.0466
▁deactivate	-13.0469
▁snowboard	-13.047
▁disclose	-13.0471
ere	-13.0471
▁enclose	-13.0472
▁rubbish	-13.0478
▁optimize	-13.0478
▁infringe	-13.0478
▁legitimate	-13.0479
▁Six	-13.0479
▁drag	-13.048
▁transcript	-13.0481
▁jumb	-13.0481
▁handicap	-13.0481
▁Scott	-13.0481
▁Dorothy	-13.0481
uebec	-13.0481
▁Alibaba	-13.0481
▁Ashley	-13.0481
▁Bangladesh	-13.0481
▁Botox	-13.0481
▁Cindy	-13.0481
▁Columbia	-13.0481
▁Economy	-13.0481
▁Kuhn	-13.0481
▁MacBook	-13.0481
▁adhesion	-13.0481
▁ashtray	-13.0481
▁bronze	-13.0481
▁cholesterol	-13.0481
▁cocaine	-13.0481
▁contraception	-13.0481
▁dermatologist	-13.0481
▁explosive	-13.0481
▁feasibility	-13.0481
▁frappuccino	-13.0481
▁hurried	-13.0481
▁lymph	-13.0481
▁nauseous	-13.0481
▁proverb	-13.0481
▁puberty	-13.0481
▁renovation	-13.0481
▁simplicity	-13.0481
▁squirrel	-13.0481
▁sympathetic	-13.0481
▁velocity	-13.0481
▁vicinity	-13.0481
▁Berkeley	-13.0481
▁Rainbow	-13.0481
▁Saipan	-13.0481
▁UAV	-13.0481
▁Volunteer	-13.0481
▁saliva	-13.0481
▁Babies	-13.0481
▁Calvin	-13.0481
▁Celebrities	-13.0481
▁Sonata	-13.0481
▁bartender	-13.0481
▁Freedom	-13.0481
▁credibility	-13.0481
▁legislation	-13.0481
▁Bundang	-13.0481
▁Hulk	-13.0481
▁Swift	-13.0481
▁precision	-13.0481
▁Commission	-13.0481
▁Eddie	-13.0481
▁cheerleading	-13.0481
▁calibration	-13.0481
▁naughty	-13.0481
▁Kenji	-13.0481
▁Pansori	-13.0481
▁Leonard	-13.0482
▁ignorant	-13.0482
▁trekking	-13.0482
▁tornado	-13.0482
▁pollack	-13.0482
▁Ginseng	-13.0482
▁conservation	-13.0482
▁lifespan	-13.0482
▁Delta	-13.0482
▁unattended	-13.0482
▁Construction	-13.0482
▁Overseas	-13.0482
▁inflation	-13.0482
▁Birthday	-13.0482
▁inheritance	-13.0482
▁enlightenment	-13.0482
▁proficiency	-13.0482
▁accessibility	-13.0482
▁Diego	-13.0482
▁Policy	-13.0482
▁GDP	-13.0482
▁Gapyeong	-13.0482
▁Colombia	-13.0482
▁reimbursement	-13.0482
▁flexibly	-13.0482
▁everlasting	-13.0482
▁NBA	-13.0482
▁citron	-13.0482
▁KBS	-13.0482
▁deletion	-13.0482
▁Nursing	-13.0482
▁skeptical	-13.0482
▁Kelly	-13.0482
▁trimming	-13.0482
▁charisma	-13.0482
▁Narita	-13.0482
▁peptide	-13.0482
[...]
