<unk>	0
<s>	0
</s>	0
.	-2.4576
?	-4.08673
,	-4.17362
의	-4.36472
▁	-4.43361
▁나	-4.57258
▁수	-4.73102
▁당신	-4.75711
▁것	-4.83865
▁저	-4.93817
▁그	-5.00319
▁우리	-5.08155
▁이	-5.16795
▁내	-5.24229
▁제	-5.37152
▁있습니다	-5.42954
입니다	-5.70342
▁있는	-5.74724
고	-5.85232
▁안	-5.86534
▁더	-5.90086
▁너	-5.9129
▁때	-5.93367
▁네	-5.95978
▁오늘	-5.99784
▁한	-6.00919
지	-6.02512
습니다	-6.03642
한	-6.05639
들	-6.07926
게	-6.09029
▁지금	-6.097
▁잘	-6.11011
▁할	-6.11899
▁있어요	-6.15733
▁일	-6.17498
합니다	-6.21715
▁사람	-6.22434
기	-6.23983
▁시간	-6.24399
▁너무	-6.25115
요	-6.25182
▁합니다	-6.28248
▁많이	-6.36737
▁다른	-6.37181
▁제품	-6.37531
▁전	-6.40874
▁한국	-6.42503
는	-6.45801
▁그녀	-6.47993
▁그것	-6.49043
▁집	-6.4916
▁때문	-6.50244
▁있나요	-6.51092
▁여기	-6.51998
서	-6.52882
▁정말	-6.54849
▁좀	-6.56342
▁이번	-6.5785
▁것입니다	-6.58679
도	-6.60009
▁어떻게	-6.61015
▁해요	-6.6311
▁있어	-6.63298
▁다시	-6.63355
▁다음	-6.63717
▁많은	-6.6435
▁주	-6.64598
▁저희	-6.64767
일	-6.65099
▁거	-6.65168
▁하는	-6.65295
▁좋은	-6.65346
▁난	-6.65426
▁게	-6.65743
히	-6.6629
▁가장	-6.67592
▁그들	-6.67655
▁위해	-6.67704
▁중	-6.68511
할	-6.68665
▁친구	-6.68725
이에요	-6.69338
다	-6.69928
▁후	-6.70913
▁1	-6.71517
▁회사	-6.72028
▁사람들	-6.72079
▁이것	-6.72903
▁말	-6.73176
▁2	-6.73484
▁어떤	-6.77256
하고	-6.81081
인	-6.81129
▁문제	-6.8447
▁대한	-6.85221
▁다	-6.85308
▁사진	-6.85386
▁함께	-6.85594
▁하고	-6.86508
▁두	-6.87911
▁거예요	-6.8879
▁생각	-6.89361
▁같이	-6.89866
▁못	-6.89998
가	-6.90603
하는	-6.91589
▁3	-6.91998
▁그리고	-6.94173
▁거야	-6.94296
▁대해	-6.96697
▁모든	-6.96857
월	-6.97001
▁그럼	-6.97022
▁내일	-6.97103
했습니다	-6.97698
▁같아요	-6.98067
▁바랍니다	-6.98718
▁몇	-7.00469
▁같아	-7.00753
하게	-7.01409
면	-7.02006
나	-7.02177
시	-7.03552
▁왜	-7.04043
▁영어	-7.04122
▁혹시	-7.04736
▁주세요	-7.04942
▁건	-7.05565
해서	-7.05872
▁됩니다	-7.0673
▁음식	-7.07434
▁해	-7.08017
▁하지만	-7.08074
▁하나	-7.09386
▁어디	-7.10464
했어요	-7.10915
년	-7.11365
▁정도	-7.1357
해요	-7.14052
▁영화	-7.14293
▁없습니다	-7.14489
▁얼마	-7.16729
▁줄	-7.16742
▁바로	-7.17397
▁조금	-7.17467
▁아직	-7.17478
▁번	-7.17828
▁여행	-7.1788
▁마음	-7.18257
▁곳	-7.1847
▁같은	-7.18749
▁있을	-7.19049
된	-7.19887
▁싶습니다	-7.19961
▁될	-7.21517
▁모두	-7.23318
▁학교	-7.24359
▁보고	-7.25509
▁앞	-7.25686
▁어제	-7.27201
▁그래서	-7.28009
▁갈	-7.28893
▁매우	-7.30062
▁확인	-7.30436
▁이제	-7.30586
▁큰	-7.30703
▁알고	-7.31454
▁가지고	-7.33278
▁현재	-7.33983
▁돈	-7.34027
▁가격	-7.3444
▁싶어요	-7.34729
▁항상	-7.35555
▁5	-7.36802
▁방법	-7.37432
▁가지	-7.3869
▁것이에요	-7.39232
▁같습니다	-7.39551
▁날	-7.40494
▁걸	-7.40778
야	-7.41093
▁주문	-7.413
▁않습니다	-7.41524
▁해야	-7.41771
▁이유	-7.42826
▁10	-7.43554
▁언제	-7.44047
적인	-7.44953
▁건가요	-7.45217
▁있어서	-7.45459
▁친구들	-7.45678
▁책	-7.4648
▁수업	-7.46524
▁동안	-7.469
▁가는	-7.47283
▁차	-7.4807
▁또한	-7.48242
▁연락	-7.49893
▁있을까요	-7.49913
▁사용	-7.50021
분	-7.50799
▁만약	-7.51564
▁경우	-7.51634
▁적	-7.51741
은	-7.51978
▁자신	-7.5203
▁그렇게	-7.52313
▁부분	-7.52638
▁상품	-7.52858
▁처음	-7.53161
▁꼭	-7.5322
▁먼저	-7.53333
▁전화	-7.5339
▁없어요	-7.54938
나요	-7.5495
하기	-7.55399
▁무엇	-7.55908
▁4	-7.55942
하지	-7.56179
이	-7.57245
▁했어요	-7.5738
▁새로운	-7.5873
▁버스	-7.58989
▁점	-7.59382
▁저녁	-7.60284
▁이렇게	-7.60424
▁볼	-7.60523
▁빨리	-7.61134
▁계속	-7.62063
▁있는데	-7.62276
▁내용	-7.63673
▁그런	-7.63713
▁아래	-7.64107
▁정보	-7.64726
▁통해	-7.64918
던	-7.65484
▁도움	-7.65487
▁없는	-7.6557
개	-7.66434
어요	-7.66435
▁남자	-7.66496
▁보내	-7.66682
▁이름	-7.66722
▁호텔	-7.67919
▁하지	-7.68007
▁달	-7.68139
▁추가	-7.68352
▁아침	-7.68625
▁싶어	-7.6864
▁또	-7.68694
▁데	-7.68761
▁요즘	-7.68856
니	-7.69564
었습니다	-7.69683
▁아무	-7.69834
▁있다	-7.69877
▁이런	-7.69953
됩니다	-7.70079
▁아주	-7.70482
▁번째	-7.71053
▁있습니까	-7.71581
▁여자	-7.71617
▁예약	-7.71841
▁일정	-7.71911
▁위한	-7.71985
▁이야기	-7.72652
라고	-7.7278
▁미국	-7.72966
▁가	-7.73021
▁방	-7.73457
▁물건	-7.73861
▁위해서	-7.74061
▁하는데	-7.74276
만	-7.7432
길	-7.74639
▁않아요	-7.75514
▁눈	-7.75567
▁가족	-7.75932
▁무슨	-7.76143
▁이미	-7.76188
▁배송	-7.76617
▁되는	-7.76887
▁진행	-7.77087
해야	-7.77464
▁시	-7.77662
▁옷	-7.7807
▁고객	-7.78084
▁그냥	-7.78487
▁물	-7.78686
및	-7.78686
▁이상	-7.79344
▁좋아하는	-7.79397
▁부탁드립니다	-7.79517
▁따라	-7.79826
▁하겠습니다	-7.79834
▁여러	-7.80675
▁등	-7.80784
▁가서	-7.81173
▁메일	-7.8172
▁위	-7.81849
▁대해서	-7.81956
▁한번	-7.8238
▁하루	-7.82865
▁되나요	-7.82872
이라고	-7.83067
▁있으면	-7.83186
하여	-7.83667
▁상황	-7.83742
자	-7.84086
▁하나요	-7.85214
하겠습니다	-7.85264
▁될까요	-7.85357
▁이곳	-7.85494
▁시험	-7.85736
▁없어	-7.86571
▁준비	-7.86575
▁개	-7.86788
▁열심히	-7.86876
▁비용	-7.8698
도록	-7.87223
▁살	-7.87231
번	-7.87282
▁않고	-7.87561
▁그러면	-7.88652
▁수도	-7.88756
▁직접	-7.88924
▁본	-7.89264
▁공부	-7.89458
▁알	-7.8954
▁카드	-7.90058
▁했습니다	-7.90221
▁있는지	-7.90737
▁꿈	-7.90839
로	-7.90868
▁해서	-7.90948
▁일본	-7.91193
다고	-7.91294
▁감사합니다	-7.9137
▁필요	-7.91418
▁겁니다	-7.91477
▁거기	-7.91684
▁어느	-7.91888
▁생각합니다	-7.92335
▁하면	-7.92352
▁마지막	-7.92436
▁서비스	-7.92521
▁운동	-7.92893
세요	-7.92894
▁결과	-7.92911
▁뒤	-7.93015
▁계획	-7.93112
▁다양한	-7.93152
▁지	-7.93313
▁나라	-7.93796
▁않아	-7.94521
▁않	-7.95011
▁되어	-7.95222
▁사랑	-7.95267
▁필요한	-7.9531
▁혼자	-7.95335
▁엄마	-7.95352
▁디자인	-7.96341
▁제일	-7.96436
을	-7.97358
▁그곳	-7.97614
▁6	-7.98052
▁자리	-7.98113
▁온	-7.98727
▁먹고	-7.99133
▁않은	-7.99346
▁사	-7.99416
▁자주	-7.9951
▁샘플	-7.99935
▁경험	-7.99989
▁받을	-8.00938
▁A	-8.01113
▁아니라	-8.01149
▁있었습니다	-8.01579
▁없이	-8.0165
▁작업	-8.01694
▁있고	-8.01737
시간	-8.02117
▁사실	-8.02392
▁게임	-8.02511
▁약	-8.02518
셔서	-8.02823
▁서로	-8.03423
▁있다고	-8.03869
▁관심	-8.03893
▁길	-8.03965
▁이건	-8.03974
▁그래도	-8.0429
▁밤	-8.04529
▁비	-8.05258
▁때문입니다	-8.05745
!	-8.05875
▁세	-8.05902
▁중국	-8.06035
▁기분	-8.06095
▁이러한	-8.06108
▁몸	-8.06203
▁싶은	-8.06565
▁회의	-8.06584
▁가능합니다	-8.06868
▁맛	-8.07055
▁타고	-8.07218
▁중요한	-8.07346
▁되었습니다	-8.07861
▁선물	-8.07945
▁아이	-8.08043
▁그러나	-8.08047
▁생각해요	-8.08401
▁싶은데	-8.08973
▁있도록	-8.08981
주세요	-8.09302
▁가고	-8.09382
▁첫	-8.09434
▁아이들	-8.09519
▁프로그램	-8.09931
으면	-8.10729
▁그런데	-8.10916
▁7	-8.11035
▁주말	-8.11189
▁같은데	-8.11357
▁결제	-8.11428
▁오후	-8.11525
▁서류	-8.11761
▁죄송합니다	-8.11821
과	-8.1195
실	-8.12058
▁가야	-8.12093
▁된	-8.12201
▁속	-8.12299
인가요	-8.12802
겠습니다	-8.1327
▁오래	-8.13379
▁않는	-8.13408
해주세요	-8.1349
▁올	-8.13529
▁알려주세요	-8.13535
▁따로	-8.13762
▁매일	-8.14145
▁선생님	-8.14365
▁8	-8.14626
▁요청	-8.14887
층	-8.1508
▁모습	-8.15082
▁업무	-8.15845
▁누구	-8.16149
▁세계	-8.1633
하도록	-8.1636
▁요리	-8.1657
▁말고	-8.16644
▁삶	-8.16827
▁머리	-8.16925
▁30	-8.17291
▁식사	-8.17891
▁뭐	-8.17952
▁비행기	-8.18108
▁상태	-8.18116
▁예정입니다	-8.18117
▁들어	-8.18235
▁구매	-8.18331
▁들	-8.1855
▁가게	-8.19042
▁거에요	-8.19085
까	-8.19914
▁옆	-8.20077
진	-8.20182
라는	-8.20943
▁알려	-8.21011
하였습니다	-8.21085
명	-8.21183
하세요	-8.21245
▁기회	-8.21307
▁서울	-8.21555
▁팀	-8.21608
▁컴퓨터	-8.21694
▁되고	-8.21721
▁부모님	-8.22779
▁공항	-8.22792
▁건강	-8.23445
▁노래	-8.23649
▁돼요	-8.23651
▁가능한	-8.24045
▁그건	-8.24115
▁일찍	-8.24698
▁손	-8.2507
▁좋아	-8.25227
▁사항	-8.25547
▁금액	-8.25861
▁파일	-8.25876
러	-8.26453
▁술	-8.26812
▁커피	-8.27078
▁학생들	-8.2713
▁있다면	-8.27364
▁시작	-8.27734
▁잠	-8.2774
▁좋을	-8.27825
▁20	-8.28094
▁지역	-8.28838
▁근처	-8.28897
▁종류	-8.28991
▁자료	-8.28991
▁그림	-8.29001
▁작은	-8.29179
▁곧	-8.29449
될	-8.2946
▁이메일	-8.29614
▁최근	-8.29734
▁이후	-8.29765
▁먹을	-8.29816
▁가면	-8.29862
▁있기	-8.29882
▁번호	-8.30345
▁첨부	-8.30575
▁인터넷	-8.30712
입니까	-8.30747
▁병원	-8.30797
▁사이즈	-8.31256
▁장소	-8.31377
▁음악	-8.31402
했던	-8.31501
▁만들어	-8.31508
▁주소	-8.31532
▁하기	-8.31573
점	-8.32275
▁필요합니다	-8.32306
이라는	-8.32379
▁죄송하지만	-8.32568
▁있게	-8.32592
▁나와	-8.32766
▁왜냐하면	-8.33011
▁피부	-8.33298
▁의미	-8.33586
▁노력	-8.33605
▁관련	-8.3384
▁기억	-8.34126
▁9	-8.34475
▁직원	-8.34825
▁않았습니다	-8.35051
▁우선	-8.3506
▁한국의	-8.35263
▁좋아요	-8.35675
▁사이	-8.35723
▁사고	-8.35912
▁나중	-8.35932
▁원하는	-8.36064
▁가방	-8.36398
▁교육	-8.36516
▁미리	-8.36525
▁와서	-8.3681
니다	-8.3682
함	-8.36898
▁자세	-8.37039
▁쪽	-8.37425
▁변경	-8.3752
▁날씨	-8.37659
▁그때	-8.37672
▁밥	-8.37787
▁것들	-8.37795
되었습니다	-8.38192
▁배	-8.38196
어	-8.38458
엔	-8.38499
▁식당	-8.38525
▁여러분	-8.38715
▁월요일	-8.3873
신	-8.38765
▁행동	-8.38826
▁있지	-8.38971
예요	-8.39275
▁환불	-8.3947
▁좋겠어요	-8.40003
▁메시지	-8.40092
하면	-8.40128
▁잠시	-8.40386
▁대부분	-8.4044
▁잘못	-8.40913
▁영향	-8.41074
▁되면	-8.41258
▁보면	-8.41425
▁밖	-8.41444
▁마세요	-8.41879
▁자기	-8.4191
▁예	-8.42007
▁프로젝트	-8.42045
네요	-8.42233
▁해당	-8.42375
▁걱정	-8.42426
습니까	-8.4264
▁남	-8.42668
대	-8.42891
▁했는데	-8.4303
▁부	-8.43031
▁활동	-8.43072
▁문화	-8.43095
▁있다는	-8.43216
▁힘	-8.43528
▁최고	-8.43573
원	-8.43922
▁약속	-8.43926
▁총	-8.4404
▁핸드폰	-8.44179
▁너희	-8.44215
▁아마	-8.44265
▁봐	-8.44287
▁계약	-8.4445
▁인기	-8.44468
▁좋습니다	-8.44477
▁톰	-8.44621
▁출장	-8.44844
▁답변	-8.44904
▁입	-8.4505
▁저번	-8.45203
▁기간	-8.45234
▁아닙니다	-8.45276
▁사업	-8.45392
▁대학	-8.45589
▁지하철	-8.45844
▁금요일	-8.45918
는데	-8.46082
이야	-8.46112
▁그렇다면	-8.46372
▁지난	-8.46395
▁진짜	-8.46409
▁얼굴	-8.46541
▁최대한	-8.4656
거나	-8.46601
▁학생	-8.46761
▁기능	-8.46784
▁먹는	-8.46854
▁없어서	-8.4708
▁받고	-8.47179
▁인해	-8.47185
▁세상	-8.47288
▁귀사	-8.47414
다는	-8.47522
▁일단	-8.47577
▁새로	-8.47634
리	-8.48131
▁새	-8.48216
긴	-8.48329
▁의견	-8.48401
▁대신	-8.48408
▁유명한	-8.48409
▁아닌	-8.4846
▁기술	-8.48809
▁여름	-8.48979
▁메뉴	-8.49266
▁주는	-8.49326
▁보는	-8.49331
▁과정	-8.49568
▁오전	-8.49678
▁테니	-8.49812
▁되지	-8.49902
▁사용할	-8.50393
▁주변	-8.50414
▁드리겠습니다	-8.50534
▁판매	-8.50575
▁있으니	-8.51029
▁날짜	-8.51084
인지	-8.51109
▁생각해	-8.51148
주	-8.51153
▁광고	-8.51209
▁은행	-8.51288
▁확인해	-8.5131
▁돼	-8.51374
▁참	-8.51431
▁사는	-8.51519
인데	-8.51552
와	-8.51821
▁점심	-8.52163
▁얘기	-8.52281
▁시스템	-8.52293
▁보통	-8.5252
▁수량	-8.52718
▁직업	-8.5276
▁반	-8.53214
▁인생	-8.53429
▁만나	-8.53609
▁시장	-8.54073
▁도시	-8.54263
▁개인	-8.54338
▁일주일	-8.5496
▁포장	-8.55171
▁소리	-8.55177
▁생산	-8.55243
▁설명	-8.55306
라	-8.5554
며	-8.55735
장	-8.55779
▁보여	-8.55953
대로	-8.56138
▁아니면	-8.56238
▁차이	-8.56326
▁살고	-8.56536
▁방문	-8.57259
▁건물	-8.57331
▁토요일	-8.57345
▁지원	-8.57433
▁이해	-8.57747
라도	-8.57775
▁아	-8.57928
▁갑자기	-8.5803
▁열	-8.58393
▁관계	-8.5849
▁행복	-8.5856
▁이전	-8.58723
▁생활	-8.58954
▁있었어요	-8.58963
▁고객님	-8.59338
에	-8.5935
▁결정	-8.59537
▁연구	-8.60062
▁절대	-8.60213
▁올해	-8.60429
▁이용	-8.60474
▁짐	-8.60506
▁만들	-8.60584
▁발표	-8.60827
▁12	-8.60908
▁간	-8.60934
▁대화	-8.61001
▁택시	-8.61167
니까	-8.6142
▁받은	-8.61445
▁경기	-8.61498
▁질문	-8.61658
▁오는	-8.61784
▁문	-8.61802
▁보	-8.61851
▁전혀	-8.61882
▁딸	-8.61889
▁또는	-8.6191
▁누가	-8.6191
▁그게	-8.61949
▁선택	-8.62091
이고	-8.62241
▁B	-8.62491
▁없을	-8.62511
▁목표	-8.62654
지만	-8.62753
▁원래	-8.62937
▁늦게	-8.63686
▁보니	-8.63694
▁분	-8.63732
▁이거	-8.63847
가요	-8.64031
성	-8.64054
드립니다	-8.6425
가지	-8.64666
▁해외	-8.64932
▁둘	-8.64982
관한	-8.65109
▁굉장	-8.65267
▁예전	-8.65294
▁손님	-8.65394
▁쉽게	-8.65421
▁할인	-8.65441
▁미래	-8.65629
▁해도	-8.65925
▁대로	-8.65929
▁이미지	-8.66281
▁처리	-8.66472
▁드립니다	-8.66648
▁필리핀	-8.66833
▁가능한가요	-8.67019
▁중입니다	-8.67084
▁아버지	-8.6717
▁끝	-8.67345
▁요금	-8.67503
▁생일	-8.67568
▁선적	-8.68132
▁업체	-8.68144
▁씨	-8.6822
▁개발	-8.68221
▁산	-8.68227
▁맛있는	-8.6851
▁일요일	-8.68571
▁환경	-8.69296
▁테스트	-8.69317
▁좋겠어	-8.69401
▁별로	-8.69449
▁화장실	-8.69454
▁행사	-8.69605
▁누군가	-8.69645
▁있지만	-8.69646
이기	-8.69717
▁없나요	-8.69732
▁받았습니다	-8.6992
▁공장	-8.69979
▁모델	-8.7003
▁휴가	-8.70174
줍니다	-8.70357
▁공연	-8.70433
시면	-8.70595
▁파티	-8.70638
용	-8.7078
▁카메라	-8.7126
해도	-8.71283
▁사무실	-8.71516
▁좋지	-8.71599
▁매장	-8.71646
▁공간	-8.7193
▁왔습니다	-8.72195
하려고	-8.72244
▁충분	-8.72282
▁완전	-8.72497
▁많아서	-8.72705
▁보낼	-8.72884
▁관리	-8.72987
▁검사	-8.7311
▁배우	-8.73167
질	-8.73215
▁인간	-8.73311
▁우리나라	-8.73421
▁거리	-8.73629
▁색상	-8.74024
▁변화	-8.74097
▁발송	-8.74199
▁원	-8.74288
▁가끔	-8.74296
▁힘들	-8.74368
▁작품	-8.7448
▁벌써	-8.74633
▁특히	-8.74822
▁사회	-8.74871
▁말씀	-8.75
▁그래	-8.75246
▁만날	-8.75287
▁기대	-8.75309
▁마	-8.75508
▁느낌	-8.7551
▁기존	-8.75847
▁넌	-8.76042
▁좋아해요	-8.76106
▁취소	-8.76175
죠	-8.76175
▁능력	-8.76217
▁않아서	-8.76235
▁만	-8.76413
▁겨울	-8.76794
▁오	-8.769
▁명	-8.77032
▁11	-8.77167
▁거로	-8.77267
▁영상	-8.77734
▁드릴게요	-8.77859
▁효과	-8.78187
▁재고	-8.78296
▁무료	-8.78381
▁최선	-8.78419
▁높은	-8.78598
▁국가	-8.78784
▁찾고	-8.78884
▁외	-8.78923
▁방금	-8.79073
▁영수증	-8.79207
▁사이트	-8.79245
▁특별한	-8.79396
집니다	-8.79476
▁자동차	-8.79484
▁글	-8.7955
▁방식	-8.79596
▁좋아합니다	-8.79611
▁불	-8.7963
▁아니야	-8.79658
▁실수	-8.7966
▁좋겠습니다	-8.79708
▁결혼	-8.7971
하며	-8.79776
▁않았어요	-8.79813
▁한다고	-8.79992
▁만든	-8.80182
▁필요해요	-8.802
▁위치	-8.80355
▁없	-8.80431
▁대학교	-8.80534
▁미팅	-8.80539
▁따라서	-8.80543
▁크게	-8.80543
▁전부	-8.8059
▁신경	-8.8067
▁남편	-8.80684
▁왔어요	-8.81219
▁주문한	-8.81262
▁제게	-8.81391
▁만드는	-8.81504
▁더욱	-8.8152
▁보기	-8.81655
▁하는지	-8.81802
▁기계	-8.82095
▁아름다운	-8.821
별	-8.82104
▁빠른	-8.82176
▁각	-8.82191
▁외국인	-8.82219
▁편지	-8.8231
▁응	-8.82361
▁가족들	-8.82568
해	-8.82664
▁언어	-8.82827
▁조건	-8.82995
▁교환	-8.83044
▁와	-8.83224
나의	-8.8326
시기	-8.83626
개의	-8.83682
▁아니요	-8.83691
▁않으면	-8.83766
▁가진	-8.83767
▁나이	-8.83907
꽤	-8.84403
▁보낸	-8.84437
▁한국어	-8.84451
▁갖고	-8.84454
▁받지	-8.8486
▁바라	-8.85094
▁사용하는	-8.85101
▁가치	-8.85161
▁기준	-8.85172
▁만큼	-8.85293
▁텐데	-8.8547
수	-8.85643
▁성격	-8.85772
▁크기	-8.85823
▁어머니	-8.85981
▁받아	-8.86077
▁교수님	-8.86213
▁멋진	-8.86865
▁가기	-8.86944
립니다	-8.86966
▁수정	-8.86975
▁거래	-8.87038
▁주제	-8.87041
▁결국	-8.87092
▁저기	-8.87251
▁정확한	-8.87527
▁표	-8.87754
▁주실	-8.87797
▁등록	-8.8809
▁문의	-8.88116
▁주로	-8.88189
▁신발	-8.88286
▁늘	-8.88291
▁맞는	-8.88372
▁안녕하세요	-8.88516
이었어요	-8.88532
▁바다	-8.88535
였습니다	-8.88554
▁역시	-8.88628
▁많습니다	-8.88765
▁관해	-8.88983
었어요	-8.89086
▁브랜드	-8.89141
▁키	-8.89227
는지	-8.89589
▁보러	-8.89822
▁나오는	-8.9005
▁분야	-8.90287
▁주시면	-8.90611
▁아빠	-8.90679
▁안내	-8.90825
▁보내주세요	-8.90878
▁아들	-8.90934
▁100	-8.9105
데	-8.91247
▁제작	-8.91279
▁강아지	-8.91495
▁데이터	-8.91988
▁앱	-8.92128
▁15	-8.92403
▁싶지	-8.92551
▁바	-8.92558
▁해주세요	-8.92567
▁오면	-8.9276
▁그걸	-8.92819
▁갑니다	-8.9286
▁제공	-8.93037
▁타	-8.93129
▁드라마	-8.93142
▁전체	-8.93327
▁축제	-8.93392
▁스트레스	-8.93541
개월	-8.93707
▁보세요	-8.93712
▁거죠	-8.93885
▁듣고	-8.93888
▁아는	-8.94014
드리겠습니다	-8.94021
▁자	-8.94082
▁아까	-8.94213
▁시에	-8.94449
▁기차	-8.9451
▁전달	-8.94578
달러	-8.94636
▁언제나	-8.94793
▁물론	-8.94849
▁기다리고	-8.9494
▁문자	-8.9512
▁알게	-8.95329
▁가까운	-8.95349
▁기업	-8.95418
▁주고	-8.95506
▁막	-8.95557
상	-8.95614
▁스케줄	-8.95736
씬	-8.95824
▁소개	-8.95879
▁소식	-8.95888
▁도착	-8.95942
되는	-8.961
▁신청	-8.96219
▁있니	-8.96252
▁마케팅	-8.96437
▁하세요	-8.96528
하면서	-8.96886
▁이게	-8.96926
▁작년	-8.97079
훨	-8.97174
▁역할	-8.97524
▁장	-8.97541
▁반드시	-8.97595
▁무	-8.9761
▁이걸	-8.97818
▁있어야	-8.97904
▁번역	-8.97908
▁바람	-8.97989
▁꽃	-8.97995
▁모르겠어요	-8.98894
▁같아서	-8.99176
면서	-8.9927
▁법	-8.99385
▁고등학교	-8.99414
▁분위기	-8.99452
▁있었어	-8.99552
▁준	-8.99634
하러	-8.99727
▁나온	-8.99839
▁했어	-8.99933
▁평소	-8.99994
▁성적	-9.00008
▁부산	-9.00561
▁없고	-9.00659
▁아니에요	-9.00931
▁일부	-9.0108
▁즐거운	-9.01124
▁부서	-9.01151
▁의해	-9.0119
▁진심	-9.01238
▁각각	-9.01357
▁순간	-9.01547
▁찾을	-9.01548
▁나머지	-9.01581
▁추억	-9.01595
▁현금	-9.0174
▁계산	-9.01808
▁분들	-9.0189
▁며칠	-9.01911
▁발생	-9.01913
▁알겠습니다	-9.0196
▁보이는	-9.02008
▁쓸	-9.02117
▁오랜만	-9.02149
▁과제	-9.02251
▁내년	-9.02336
▁줍니다	-9.02411
▁영국	-9.02434
▁아기	-9.02525
▁대	-9.02695
▁개의	-9.0271
▁고양이	-9.02717
▁티켓	-9.02778
▁제안	-9.02894
차	-9.02943
▁없는데	-9.02955
▁힘든	-9.02974
▁검토	-9.03232
▁온라인	-9.03336
▁수요일	-9.03469
▁작성	-9.03513
▁건데	-9.03688
▁들었습니다	-9.0369
▁잔	-9.03877
▁같네요	-9.03933
사	-9.04264
▁알아	-9.04348
▁드릴	-9.04473
려고	-9.04751
▁정	-9.05064
▁잠깐	-9.0509
갔습니다	-9.05271
동안	-9.05362
▁들고	-9.05368
▁침대	-9.05377
▁덕분	-9.05397
▁문서	-9.05443
▁아니	-9.05476
▁바라요	-9.05538
▁내게	-9.05816
▁회신	-9.05931
▁감정	-9.05988
▁되기	-9.06029
▁원합니다	-9.0603
▁여전히	-9.06195
▁없다고	-9.06312
▁관련된	-9.06322
▁양	-9.06343
▁표현	-9.06344
▁실력	-9.0636
▁역사	-9.06561
▁두고	-9.06623
▁발	-9.06732
▁다리	-9.068
▁주시겠어요	-9.06831
다가	-9.06957
▁널	-9.07094
▁의사	-9.07128
▁지난번	-9.0723
▁못한	-9.07246
▁행복한	-9.07331
▁형태	-9.07393
▁정확히	-9.07417
▁지급	-9.07574
▁이벤트	-9.07665
▁스타일	-9.07698
▁할게요	-9.07743
▁보입니다	-9.07753
▁우린	-9.07841
▁인천	-9.07916
▁설치	-9.0799
▁아무것	-9.08039
▁받는	-9.08124
▁계정	-9.08201
▁말하는	-9.08204
▁정부	-9.0839
▁역	-9.08813
▁인형	-9.08834
▁주시	-9.08942
▁오른쪽	-9.08958
하실	-9.0896
▁단지	-9.09104
▁직장	-9.0912
▁생각하는	-9.09174
▁장점	-9.0919
▁딱	-9.09283
▁확인하고	-9.09564
▁입고	-9.09623
▁성공	-9.09659
▁세트	-9.09687
▁중이에요	-9.097
스	-9.09776
▁어때	-9.10142
▁고민	-9.10187
적	-9.10302
▁동물	-9.10329
▁지난주	-9.10347
▁재료	-9.104
▁직원들	-9.10488
▁않았어	-9.10597
되지	-9.10656
▁담당자	-9.10748
▁언제든	-9.10792
었던	-9.10832
▁물품	-9.10939
▁방향	-9.11008
비	-9.11111
▁그거	-9.1118
▁스스로	-9.11274
▁들었어요	-9.11335
▁통화	-9.11502
▁공원	-9.11575
▁적용	-9.11663
▁장비	-9.11685
▁무엇인가요	-9.11712
▁사건	-9.11829
선	-9.11834
▁파	-9.11961
▁그대로	-9.12064
▁기본	-9.12151
군요	-9.12475
한다고	-9.12546
▁된다면	-9.12661
▁보고서	-9.12814
▁먹어	-9.12912
▁단어	-9.13065
▁외국	-9.13068
▁못했습니다	-9.13263
▁존재	-9.13342
▁일하고	-9.13519
▁종이	-9.13582
▁길이	-9.13599
▁목요일	-9.13637
▁치료	-9.13682
▁어려운	-9.13718
▁책임	-9.13725
▁통해서	-9.13728
▁고기	-9.13759
▁남자친구	-9.1377
▁추천해	-9.1379
▁감사하겠습니다	-9.13869
▁박스	-9.1387
▁음료	-9.13889
▁특별	-9.13906
▁피	-9.1396
▁위험	-9.14051
▁인보이스	-9.14058
▁당장	-9.1411
▁그동안	-9.14188
▁약간	-9.14242
▁연습	-9.14245
▁할지	-9.14288
▁참고	-9.14377
▁대하여	-9.14423
▁많아요	-9.14514
▁목적	-9.14563
▁청소	-9.14727
▁운전	-9.14825
▁그렇군요	-9.14832
▁여권	-9.1502
▁어떨까	-9.15075
권	-9.15193
▁안전	-9.15286
▁어때요	-9.15303
▁언제쯤	-9.15435
▁되	-9.15503
▁간단	-9.15701
▁뭘	-9.15905
▁업데이트	-9.16123
▁감사드립니다	-9.16155
▁봐요	-9.16182
▁아이템	-9.16301
▁답장	-9.16321
▁여성	-9.16465
▁잊지	-9.16684
감	-9.16697
▁들어가	-9.16805
▁팔	-9.16867
▁건지	-9.16909
제	-9.16995
▁낮	-9.17021
이며	-9.17081
▁가능성	-9.17226
회	-9.17255
▁축구	-9.17406
▁하	-9.17422
▁아마도	-9.17428
▁승인	-9.17552
▁객실	-9.17683
▁도서관	-9.17751
역	-9.17896
▁있으며	-9.18031
▁원인	-9.18099
▁못할	-9.18188
▁견적	-9.18192
▁맥주	-9.18252
▁어떠한	-9.18318
▁중요	-9.18349
▁인사	-9.18545
▁그럴	-9.1867
▁어쩔	-9.1867
▁그렇지	-9.18708
▁근데	-9.19001
시길	-9.19054
▁주십시오	-9.19186
▁과거	-9.19275
▁말해	-9.19369
▁계약서	-9.19437
금	-9.19493
▁신	-9.19634
합니까	-9.19687
▁쓰는	-9.19689
▁입장	-9.20028
력	-9.20043
▁숙소	-9.20082
▁부탁	-9.20096
려면	-9.20137
▁사장님	-9.20142
▁카페	-9.20192
였어요	-9.20337
▁자연	-9.20377
▁문장	-9.20617
▁최종	-9.20659
▁소비자	-9.20715
▁여자친구	-9.20748
하시면	-9.20749
▁않아도	-9.20842
▁거라고	-9.21174
세	-9.21224
▁많아	-9.21283
▁환자	-9.21535
▁화요일	-9.21547
▁취미	-9.21739
▁확실히	-9.2175
▁해결	-9.21775
▁합니까	-9.21796
▁차량	-9.21813
▁하려고	-9.21942
▁어렵습니다	-9.22107
▁생각하고	-9.22334
▁보내고	-9.22526
당	-9.22545
▁갔어요	-9.22658
▁원해요	-9.2267
▁스포츠	-9.22692
▁단	-9.22788
▁운영	-9.2282
▁않나요	-9.22854
▁그날	-9.22881
▁있을까	-9.22886
▁모르겠어	-9.22934
▁참여	-9.22952
▁맞아	-9.22978
▁수리	-9.23032
▁계좌	-9.23142
▁영업	-9.23154
네	-9.23213
▁빠르게	-9.2327
▁평가	-9.23366
▁오지	-9.23468
▁프랑스	-9.23487
▁자전거	-9.23557
여	-9.23561
▁있으신가요	-9.23755
▁하죠	-9.23852
▁홈페이지	-9.23986
▁고장	-9.2423
▁촬영	-9.24288
팀	-9.24436
▁선수	-9.24576
▁경찰	-9.24618
▁품질	-9.2462
▁넣어	-9.24767
했을	-9.2478
▁휴대폰	-9.24821
▁줘	-9.24883
▁편	-9.25
▁요구	-9.25108
▁감사	-9.25325
▁조사	-9.25407
▁있던	-9.25433
▁혹은	-9.25673
납니다	-9.25932
▁부품	-9.2594
▁자체	-9.25965
▁고마워	-9.26098
보세요	-9.26187
▁크리스마스	-9.26295
▁뭔가	-9.26301
▁상	-9.26393
▁찾아	-9.26476
▁완료	-9.26506
▁담배	-9.26535
▁리스트	-9.2671
▁유럽	-9.26833
▁맛있	-9.26868
▁정신	-9.26946
▁케이크	-9.26989
▁표시	-9.27133
량	-9.27136
▁전통	-9.27144
▁나무	-9.27191
래도	-9.27204
▁도착할	-9.27361
▁분석	-9.27385
▁부담	-9.27418
▁입금	-9.27495
▁색	-9.27589
▁병	-9.27713
▁맞나요	-9.27775
▁사랑하는	-9.27785
▁피해	-9.27843
▁않게	-9.27925
어서	-9.28063
▁하니	-9.28106
▁그룹	-9.28171
▁마치	-9.28195
▁했던	-9.28299
▁않도록	-9.28498
▁과일	-9.2853
물	-9.28583
▁쓰고	-9.28652
▁홍콩	-9.28698
▁포인트	-9.28812
▁예정	-9.2885
▁쇼핑	-9.2885
자들	-9.28973
▁즐겁게	-9.28976
것	-9.28978
▁못해서	-9.28991
▁한국인	-9.29284
▁할머니	-9.29306
▁알려주시면	-9.29313
▁아내	-9.29461
▁선	-9.29499
▁궁금합니다	-9.29555
살	-9.29557
▁좌석	-9.29648
▁일하는	-9.29662
▁연결	-9.29723
▁놀러	-9.29786
▁치킨	-9.29916
▁말씀해	-9.30026
▁만나서	-9.30096
▁미안하지만	-9.30122
▁달라고	-9.30135
▁이용할	-9.30166
▁비슷한	-9.30192
▁단계	-9.30242
▁배달	-9.30304
▁천천히	-9.30378
▁방학	-9.30527
▁대표	-9.30675
▁지도	-9.30745
하나요	-9.30771
▁언니	-9.3087
자꾸	-9.3089
▁학원	-9.31044
이었습니다	-9.31064
▁알려주	-9.31205
▁화장품	-9.31237
▁말한	-9.31353
▁레스토랑	-9.31416
▁같은데요	-9.31449
▁들었어	-9.31688
▁왼쪽	-9.31708
▁금방	-9.31715
▁한데	-9.31728
이면	-9.31792
▁오랫	-9.3187
씩	-9.31907
▁스마트폰	-9.31907
▁제주도	-9.31939
▁반응	-9.31997
▁뜻	-9.32161
▁예상	-9.32191
▁모양	-9.32208
▁페이스북	-9.32213
▁정말로	-9.32224
▁느낄	-9.32404
▁요청한	-9.32507
▁왔는데	-9.32674
▁상처	-9.32819
하려면	-9.32832
▁페이지	-9.32876
▁만들고	-9.32919
▁냄새	-9.32948
▁있었던	-9.32984
▁C	-9.3303
▁초	-9.33088
▁뉴욕	-9.33097
▁명이	-9.33222
▁졸업	-9.33327
음	-9.33425
▁사과	-9.33453
▁종종	-9.3372
치	-9.33789
▁어린이	-9.33819
시나요	-9.33836
▁절차	-9.33877
▁걱정하지	-9.33903
▁지내고	-9.33912
▁개선	-9.3394
▁정리	-9.33958
▁마시고	-9.33974
▁찍은	-9.341
▁화가	-9.34158
▁예정이에요	-9.34175
▁끝나고	-9.34291
▁의자	-9.34612
다면	-9.34677
학년	-9.3478
▁배우고	-9.34883
▁치즈	-9.34884
▁할까요	-9.34916
▁것이라고	-9.34918
▁나쁜	-9.35077
▁공	-9.35131
▁인도	-9.35205
▁전공	-9.35241
▁확인할	-9.35281
▁홍보	-9.35401
▁추천	-9.35421
▁남아	-9.35483
▁관광	-9.3549
▁말이야	-9.35592
날	-9.35765
▁제품들	-9.35784
▁색깔	-9.35855
부	-9.35937
▁한다는	-9.36273
▁개인적	-9.36277
온	-9.36308
▁점수	-9.36319
▁사용자	-9.36385
▁내부	-9.36448
▁국내	-9.36489
▁기다려	-9.36539
▁어렸을	-9.36583
▁없다	-9.36702
▁주기	-9.36746
▁되는지	-9.36868
▁동생	-9.36884
▁50	-9.36939
▁고객들	-9.36976
▁발전	-9.37027
▁걸릴	-9.37029
료	-9.37109
▁먹으면	-9.37186
▁구	-9.37561
▁탈	-9.37604
▁규정	-9.37655
겠어요	-9.37817
▁숙제	-9.37857
▁보냅니다	-9.37943
▁수술	-9.37992
▁감기	-9.38053
▁신고	-9.38056
▁피자	-9.3819
▁하면서	-9.38201
▁전화번호	-9.38211
▁방송	-9.38242
▁가려고	-9.3839
하신	-9.38411
▁좋아하지	-9.38449
▁김	-9.38533
▁TV	-9.38699
▁없으면	-9.38721
▁초콜릿	-9.38762
위	-9.38854
▁갔다	-9.38869
▁만난	-9.38985
▁하늘	-9.39192
▁긴	-9.39196
▁버튼	-9.3926
건	-9.39332
▁뿐	-9.39349
▁맞아요	-9.39438
▁따뜻한	-9.39542
▁희망	-9.39675
▁기록	-9.39756
소	-9.40055
▁제출	-9.40072
기에	-9.40177
▁서	-9.40294
▁버전	-9.40315
▁집중	-9.40346
▁면접	-9.40351
록	-9.40381
▁높	-9.40409
▁아니고	-9.40413
▁빵	-9.40551
▁오더	-9.40565
▁연기	-9.40577
▁일반	-9.40591
았습니다	-9.40618
▁중인	-9.40662
▁거짓말	-9.40677
▁말할	-9.40782
▁근무	-9.40787
▁명의	-9.40848
▁기	-9.40954
▁미안해	-9.41003
▁만나는	-9.41018
등	-9.41038
▁당연히	-9.41192
▁실제로	-9.41203
▁오직	-9.41487
▁좋겠다	-9.41569
심	-9.41572
못했어요	-9.41599
듭니다	-9.41769
▁독일	-9.41782
▁맞지	-9.41835
▁귀하	-9.42171
▁화면	-9.4223
▁최대	-9.42349
▁인상	-9.42433
할게요	-9.42477
▁실제	-9.42627
▁없었	-9.42655
▁자고	-9.4291
▁학기	-9.42956
▁현장	-9.43
▁정류장	-9.43014
▁없었어요	-9.43165
▁가시면	-9.43199
▁있었다	-9.43257
▁속도	-9.43329
▁싶다	-9.43341
▁가요	-9.4349
▁그중	-9.43577
▁잘못된	-9.43714
▁송금	-9.43813
편하게	-9.44178
▁동아리	-9.44324
▁투자	-9.44329
있습니다	-9.44407
▁중간	-9.44414
▁사용하고	-9.44434
▁바꿔	-9.4449
▁택배	-9.44877
▁진행할	-9.44926
▁마을	-9.44938
▁답	-9.44956
▁설정	-9.45004
▁별	-9.45008
▁적은	-9.45028
2	-9.45075
▁돼서	-9.45119
집	-9.45137
▁지구	-9.45595
거든요	-9.4564
▁주인공	-9.45718
▁없지만	-9.45765
▁출근	-9.45816
▁봤어요	-9.45847
▁가을	-9.45893
▁모르는	-9.46018
▁보내주신	-9.4604
▁싶어서	-9.46073
▁받았어요	-9.46103
▁캐나다	-9.46214
▁모	-9.46221
▁식	-9.46234
▁미안해요	-9.46235
▁투어	-9.46307
▁얻	-9.46357
겠습니까	-9.46567
▁퇴근	-9.46579
▁부탁합니다	-9.46627
했으면	-9.46642
▁가능한지	-9.46647
▁다이어트	-9.46674
▁구조	-9.46725
▁소스	-9.47033
▁되었어요	-9.47125
▁동시	-9.47146
▁사용하지	-9.47161
식	-9.47174
▁대회	-9.47299
▁인원	-9.47328
▁즐길	-9.47362
▁주요	-9.47448
▁만한	-9.47492
▁제발	-9.47665
▁엄청	-9.47731
▁어젯밤	-9.4774
한다는	-9.47863
▁자동	-9.4805
▁아이디어	-9.48067
▁가능할까요	-9.48204
▁된다	-9.48205
▁가능	-9.48226
▁40	-9.48317
▁아파트	-9.48426
▁동네	-9.48442
▁본인	-9.48459
간	-9.48487
▁긍정적인	-9.48555
▁찍어	-9.48617
▁거지	-9.48617
▁분이	-9.48646
▁공급	-9.48685
▁특징	-9.48795
▁거라	-9.48882
▁방이	-9.48945
▁나올	-9.48987
▁유지	-9.49043
이지만	-9.4916
▁접수	-9.49176
▁써	-9.49218
▁조	-9.4926
▁우유	-9.49273
▁이용해	-9.49275
▁실험	-9.49436
▁일들	-9.49491
▁언젠가	-9.49557
▁와인	-9.49557
▁환전	-9.4959
▁수학	-9.49729
▁컬러	-9.49751
▁박물관	-9.4979
▁고마워요	-9.49845
전	-9.49924
▁모릅니다	-9.49934
▁싫어	-9.4996
▁것인지	-9.50117
▁장면	-9.50215
▁타는	-9.50222
▁국제	-9.50265
줘서	-9.50321
▁받아야	-9.50361
▁종일	-9.50412
▁당	-9.50503
▁비자	-9.50508
볼	-9.50646
▁생각하지	-9.50647
▁여동생	-9.50666
▁교회	-9.50722
▁싶	-9.50872
▁수준	-9.51068
▁있죠	-9.51166
▁베트남	-9.51243
▁사용해	-9.5138
▁호주	-9.51411
▁하러	-9.51434
▁이쪽	-9.51455
▁수수료	-9.51468
▁기사	-9.51525
▁운송	-9.51565
▁새벽	-9.51599
이라	-9.51696
▁카카오톡	-9.51769
▁반품	-9.51787
▁휴식	-9.51801
1	-9.5185
▁값	-9.51905
라면	-9.51913
▁보내는	-9.5201
▁가능해요	-9.52058
▁이동	-9.52062
하거나	-9.52155
▁주지	-9.5219
▁에너지	-9.52311
▁지식	-9.52315
▁경제	-9.52336
▁싶은데요	-9.52337
되어야	-9.52353
안	-9.52487
▁요소	-9.52516
▁가정	-9.52518
▁전쟁	-9.52538
▁바닥	-9.52867
줄	-9.52997
▁보이지	-9.53121
▁관련하여	-9.53166
▁춤	-9.53282
▁않기	-9.53336
▁괜찮아요	-9.5348
▁오기	-9.53551
▁보내준	-9.53584
▁알아요	-9.53659
▁있으세요	-9.53692
▁테이블	-9.53724
▁이유로	-9.53744
▁빛	-9.53777
▁다릅니다	-9.53782
▁강	-9.539
▁봄	-9.54095
▁보관	-9.54156
▁배울	-9.54159
▁드릴까요	-9.54216
▁사람이에요	-9.54245
▁이탈리아	-9.54248
▁보호	-9.54269
▁인터뷰	-9.54344
▁목소리	-9.54435
▁가능하다면	-9.5445
▁겁니까	-9.54478
▁가르쳐	-9.54549
때	-9.54589
▁오류	-9.5463
▁상자	-9.54772
▁가려면	-9.5484
▁성장	-9.54864
▁지갑	-9.54885
드릴게요	-9.54997
▁대상	-9.5509
▁요청합니다	-9.55102
▁소중한	-9.55126
▁무엇인지	-9.5529
▁보내드리겠습니다	-9.55308
▁없다는	-9.55354
▁출발	-9.55355
▁한다면	-9.55366
▁각자	-9.55481
▁비즈니스	-9.55512
▁먹으러	-9.55575
▁수입	-9.55696
▁성	-9.55698
▁어린	-9.55737
▁하자	-9.55893
▁시절	-9.55924
운	-9.5594
▁수영	-9.56082
런	-9.56087
▁상당	-9.56166
▁제한	-9.56251
▁왔어	-9.56447
▁못하는	-9.56462
▁하며	-9.56556
든	-9.56593
척	-9.56632
▁유	-9.56745
▁얻을	-9.56755
이라서	-9.56875
▁찾는	-9.56916
▁이내	-9.56933
▁조직	-9.57045
하는데	-9.57055
법	-9.57149
▁콘서트	-9.57181
▁오세요	-9.57216
▁없네요	-9.57261
▁못해	-9.57301
▁구체적	-9.57307
▁먹	-9.57316
▁있을지	-9.5732
▁그러	-9.57373
▁전문	-9.5744
▁도대체	-9.57505
▁매	-9.57594
▁백화점	-9.57615
▁이사	-9.57687
▁김치	-9.57735
▁자유	-9.57814
▁쓰	-9.57842
▁솔직히	-9.57916
▁먹지	-9.58022
▁됩니까	-9.58038
▁측	-9.58071
▁그저	-9.58141
▁화물	-9.58236
▁코드	-9.58463
▁몰라요	-9.585
▁거니	-9.58533
디	-9.58544
▁되어서	-9.58598
표	-9.58739
▁어려울	-9.58771
▁흥미	-9.58777
▁된다고	-9.58778
릴	-9.58941
▁화	-9.58951
▁이슈	-9.58951
▁분명	-9.58953
▁멀리	-9.58975
▁시대	-9.59227
▁앉아	-9.59232
▁여	-9.59431
▁신용카드	-9.59481
▁외부	-9.596
▁괜찮아	-9.5966
▁설명해	-9.59688
▁쓰레기	-9.59743
▁담당	-9.59795
▁애	-9.59849
▁예쁜	-9.59969
▁태국	-9.59989
▁아닌가요	-9.60034
▁시내	-9.60053
▁주신	-9.60075
▁시설	-9.60132
▁뉴스	-9.6016
줄게요	-9.60256
▁못하고	-9.60268
▁동영상	-9.60305
▁그러므로	-9.60324
▁거래처	-9.60375
▁봅니다	-9.6047
까요	-9.60523
▁생각했어요	-9.60558
▁항공	-9.60572
▁넣고	-9.60585
▁있	-9.60776
▁그렇지만	-9.60799
▁용기	-9.6089
▁좋아해	-9.60999
▁이해할	-9.61013
▁산업	-9.61014
▁행복하게	-9.61056
▁미	-9.61088
▁년	-9.6111
▁주면	-9.61189
▁쉽지	-9.61194
▁마사지	-9.61228
▁시계	-9.61265
▁특정	-9.61296
▁발급	-9.61331
▁읽고	-9.61345
▁목록	-9.61351
▁현실	-9.61359
▁정책	-9.61376
▁않는다	-9.61405
▁팬	-9.61431
달	-9.61484
곤	-9.61715
▁좋아서	-9.61797
호	-9.61846
▁재	-9.62021
▁만들기	-9.62027
▁다르게	-9.62145
▁벌	-9.62204
▁심	-9.62207
▁불량	-9.6222
▁가수	-9.62271
▁열정	-9.62296
▁하게	-9.62333
▁분명히	-9.62468
▁제거	-9.62519
▁사정	-9.62533
▁심지어	-9.62768
▁바꿀	-9.62851
▁자재	-9.62891
▁엄청나	-9.62974
▁당신들	-9.62996
▁매출	-9.63049
▁들었는데	-9.63074
▁보험	-9.63123
임	-9.63249
▁못해요	-9.63255
▁맞	-9.63285
▁없다면	-9.63387
▁당시	-9.63446
보고	-9.63552
▁몇몇	-9.6362
▁먹기	-9.63649
▁재미있는	-9.63728
▁작동	-9.63772
터	-9.63779
▁가자	-9.63885
▁상담	-9.63915
▁노	-9.63969
▁이상한	-9.63986
▁괜찮은	-9.64036
▁소	-9.64052
▁궁금한	-9.64069
▁조언	-9.64069
▁포함	-9.64184
▁알려주시	-9.64223
▁쿠폰	-9.64352
▁책상	-9.64373
▁중심	-9.64379
셔야	-9.64426
▁창고	-9.64437
▁옛날	-9.64445
▁강의	-9.64513
본	-9.64554
▁만나고	-9.64558
▁끝나	-9.64558
▁준비해	-9.64602
▁가득	-9.64606
▁깊은	-9.64606
한다면	-9.64774
▁오빠	-9.64775
▁말했어요	-9.64894
▁맞습니다	-9.64902
▁여유	-9.65041
하길	-9.65067
▁강한	-9.65089
십시오	-9.65103
▁덜	-9.65108
값	-9.65113
▁도전	-9.65133
▁받기	-9.65143
▁있었는데	-9.65174
▁24	-9.652
▁규칙	-9.65266
▁형	-9.65266
▁만나기	-9.65306
▁출시	-9.65449
▁달러	-9.6546
▁신제품	-9.65489
▁어릴	-9.6571
▁꾸준히	-9.65749
▁여부	-9.65899
▁오랜	-9.65901
▁클럽	-9.65923
▁웹사이트	-9.66105
▁쓰지	-9.66159
▁관해서	-9.66183
▁성분	-9.662
▁위하여	-9.66369
▁구매할	-9.66446
라서	-9.66526
▁즉시	-9.66622
단	-9.66665
▁생긴	-9.66696
▁말하고	-9.66756
저	-9.66809
이라면	-9.66849
▁넘	-9.66874
▁보상	-9.66936
▁됐어요	-9.66959
▁짧은	-9.66996
▁맨	-9.6701
▁텔레비전	-9.67028
▁가까이	-9.67053
▁예술	-9.67227
▁그리	-9.6724
아	-9.67314
▁괜찮습니다	-9.67318
▁맞춰	-9.67324
▁느껴	-9.67388
판	-9.67416
▁대체	-9.6748
되어	-9.67568
▁해줄	-9.67584
▁요새	-9.67868
▁몰라	-9.67869
▁협의	-9.67879
▁훌륭한	-9.67948
▁현상	-9.68155
란	-9.68185
▁출구	-9.68403
▁문제점	-9.68405
▁현지	-9.68415
▁어려워	-9.68567
▁전기	-9.68576
박	-9.68608
했는지	-9.68623
▁고	-9.68749
▁땅	-9.68771
▁품목	-9.68852
명의	-9.68915
▁쓴	-9.68955
▁보시면	-9.68999
▁일할	-9.69125
▁주의	-9.69238
▁전략	-9.69452
▁골프	-9.6952
▁똑같은	-9.69541
▁바지	-9.69741
▁공유	-9.69757
▁부족한	-9.69804
▁본사	-9.69907
▁풀	-9.69944
▁비디오	-9.70222
▁불가능	-9.70228
▁목	-9.70245
▁시각	-9.70288
▁않지만	-9.70315
▁구성	-9.70337
▁보냈습니다	-9.7036
▁동일한	-9.70509
▁소개해	-9.70542
▁에어컨	-9.70546
▁이익	-9.70601
▁여자들	-9.70663
▁현대	-9.70687
▁인한	-9.70898
하시는	-9.70919
▁어려움	-9.70997
▁최소	-9.71035
▁19	-9.71064
▁떨어져	-9.71155
▁별도	-9.7123
형	-9.71327
▁18	-9.71378
▁테니까	-9.71444
▁보여요	-9.71498
▁고맙습니다	-9.71543
▁중국어	-9.7167
▁포함되어	-9.71764
▁결혼식	-9.71863
씨	-9.719
▁노트북	-9.71904
▁더욱더	-9.71946
▁증가	-9.71951
▁학습	-9.71978
▁것입니까	-9.72027
▁비싼	-9.72031
쯤	-9.72153
▁챙겨	-9.72183
▁아파서	-9.72188
▁쉬는	-9.72203
▁힘들어	-9.72356
▁공부하는	-9.72584
▁봐야	-9.7263
▁보았습니다	-9.72644
▁보내주	-9.72778
▁코스	-9.72885
▁끝난	-9.73136
▁얼른	-9.73258
▁있으시면	-9.73317
▁배경	-9.73352
▁단점	-9.7337
▁조용	-9.73407
▁송장	-9.73457
▁과목	-9.73563
▁S	-9.73595
▁되는데	-9.73637
▁수영장	-9.73677
▁풍경	-9.73702
▁상상	-9.73704
▁온도	-9.73712
▁보면서	-9.73786
▁바탕	-9.73788
하셔야	-9.73918
▁재미	-9.73962
▁주위	-9.73995
▁취업	-9.74
하기에	-9.74038
▁마무리	-9.74095
▁잘하는	-9.74127
트	-9.74132
▁불구하고	-9.74225
▁시켜	-9.74237
▁연락처	-9.74259
▁서버	-9.74295
▁자격증	-9.74301
▁불편	-9.74392
▁단체	-9.74441
▁매주	-9.74548
▁봤어	-9.74563
▁봤는데	-9.74825
▁경쟁	-9.74859
▁적극적	-9.74864
▁검색	-9.74895
▁담	-9.7494
▁못합니다	-9.74977
▁없었어	-9.75023
▁듣는	-9.75117
더라고요	-9.75149
▁상대방	-9.7515
▁주장	-9.75154
▁신뢰	-9.75172
있는	-9.75243
▁체험	-9.75261
▁항목	-9.75371
▁공기	-9.75441
▁친한	-9.75501
▁무언가	-9.75511
▁오히려	-9.75616
▁케이스	-9.75618
▁기본적	-9.75736
▁질	-9.75753
▁사전	-9.75787
▁그래요	-9.7581
▁주차	-9.7582
▁인증	-9.75839
▁좋게	-9.75955
▁코	-9.76
▁소녀	-9.76041
에요	-9.7607
▁무리	-9.76076
▁그러니까	-9.76178
▁좋을까요	-9.76241
했는데	-9.7629
▁듯	-9.76314
▁나눠	-9.76322
▁패션	-9.76326
▁시작했어요	-9.76439
▁들어요	-9.76444
▁도	-9.76446
▁사회적	-9.7655
▁만족	-9.7656
▁참석	-9.76584
▁서명	-9.76598
에겐	-9.76635
▁주시겠습니까	-9.76644
구나	-9.76702
▁오고	-9.76748
▁그쪽	-9.7689
▁하네요	-9.76947
▁뭐라고	-9.77038
번째	-9.77063
▁인식	-9.77075
▁빈	-9.77085
▁잡	-9.77116
▁보지	-9.7716
▁감사해요	-9.77214
▁좋았	-9.77224
해보세요	-9.77229
▁순	-9.77361
되고	-9.77426
▁할아버지	-9.77458
▁다니는	-9.77461
▁군대	-9.77589
▁등이	-9.77753
▁전해	-9.7776
▁괜찮을	-9.77984
▁중학교	-9.78039
▁첫째	-9.78069
주시겠어요	-9.78106
▁없을까요	-9.78149
▁단순	-9.78256
▁측정	-9.7835
▁따른	-9.78377
▁작가	-9.78454
▁필요할	-9.78511
▁기다려주세요	-9.7859
▁생겼	-9.78814
▁대답	-9.78849
▁숨	-9.78911
▁세탁	-9.7896
▁교체	-9.78998
▁우체국	-9.79145
D	-9.79203
▁하시	-9.79217
▁증상	-9.79262
▁양식	-9.79288
▁않을까	-9.79288
▁공부할	-9.79315
▁타면	-9.79332
었으면	-9.79373
▁디저트	-9.79382
▁나갈	-9.79387
▁소통	-9.7947
▁찾기	-9.79482
▁이틀	-9.79485
▁부탁드려요	-9.79599
▁콘텐츠	-9.79634
▁보다	-9.79643
▁했지만	-9.79746
드	-9.7977
▁좋다고	-9.79787
원입니다	-9.79846
▁향	-9.79892
▁라인	-9.7991
▁매운	-9.79927
▁이들	-9.79971
▁있네요	-9.79994
▁캐릭터	-9.80019
▁과학	-9.80024
▁있었으면	-9.80095
합시다	-9.80199
▁숫자	-9.80259
▁소년	-9.80321
▁먹은	-9.80369
▁신문	-9.80387
문	-9.80391
▁갔	-9.8044
▁대기	-9.8044
▁대략	-9.80453
▁싸	-9.80453
▁찍	-9.8055
▁줘서	-9.80648
▁않는다면	-9.80689
▁그만	-9.80746
▁주문했는데	-9.80795
▁시작할	-9.80847
▁입학	-9.80936
▁피아노	-9.81004
▁조정	-9.81037
▁밑	-9.81039
▁파트너	-9.81065
▁하나님	-9.81076
▁입구	-9.81122
▁충분한	-9.81151
하고자	-9.81165
▁사용하여	-9.81288
▁모자	-9.8142
렸습니다	-9.81444
▁드디어	-9.81456
▁열차	-9.81492
▁당사	-9.81536
▁도와	-9.81543
▁논의	-9.81597
▁예산	-9.81651
▁상세	-9.81686
▁순서	-9.81716
왔습니다	-9.81725
▁공부하고	-9.81754
▁경비	-9.81812
▁교통	-9.81828
수록	-9.81829
▁듣기	-9.81858
▁다녀	-9.81874
▁땐	-9.81922
▁올려	-9.81973
▁전시회	-9.82019
▁그런지	-9.82148
▁고통	-9.82178
▁허리	-9.82267
▁실적	-9.82332
▁물어봐	-9.82536
▁세금	-9.82561
▁아픈	-9.82586
▁감동	-9.82613
▁생선	-9.82643
▁도착하면	-9.82662
병	-9.82807
▁불러	-9.8286
▁되었다	-9.82861
했다고	-9.82904
▁있으니까	-9.83014
▁매년	-9.83107
▁이것들	-9.83125
▁행운	-9.83233
▁먹었어요	-9.83265
▁근육	-9.83344
▁범죄	-9.83392
▁하는데요	-9.83489
▁기쁩니다	-9.83504
▁장난감	-9.83528
▁유일	-9.83617
서의	-9.83671
▁인쇄	-9.83713
▁발견	-9.83715
▁진실	-9.83756
에선	-9.83773
중	-9.83791
▁놀	-9.83881
▁향상	-9.83904
▁급한	-9.83977
▁중이야	-9.84032
거야	-9.84048
▁태도	-9.84093
받을	-9.8414
▁배송비	-9.84164
▁성인	-9.84166
▁알지	-9.84203
▁무게	-9.84347
▁원하지	-9.84451
▁넣	-9.84473
▁바이어	-9.84497
▁검은색	-9.84533
▁북한	-9.84599
▁찾	-9.84624
▁갔어	-9.84638
▁새해	-9.84656
▁지불	-9.84726
▁견적서	-9.84812
▁크림	-9.84878
▁채	-9.84933
▁햄버거	-9.85028
린	-9.85097
▁자신감	-9.85156
▁라면	-9.85158
▁되었어	-9.85179
▁가도	-9.85182
▁입력	-9.85219
▁오해	-9.85498
▁보안	-9.85524
▁기타	-9.85582
▁아이스크림	-9.85588
▁바빠서	-9.856
▁존	-9.85603
▁면	-9.85672
▁부족	-9.85679
▁시기	-9.85718
▁맞게	-9.85719
▁25	-9.85829
▁모임	-9.85858
▁나가서	-9.86007
▁많	-9.86361
mm	-9.86452
▁수많은	-9.86522
번호	-9.86532
▁즐겨	-9.86604
▁귀	-9.86716
▁구매한	-9.86775
▁저렴한	-9.86856
▁소재	-9.86866
▁유리	-9.86873
▁어	-9.86935
▁얼마인가요	-9.86976
▁힘들어요	-9.87089
▁섬	-9.87107
▁성과	-9.87237
▁모르겠습니다	-9.87263
▁타입	-9.87282
▁훈련	-9.87317
▁들어갈	-9.87372
▁발주	-9.87401
▁않을까요	-9.87433
kg	-9.87582
▁대통령	-9.87685
▁출고	-9.87783
▁다니고	-9.87968
▁벽	-9.88008
▁보니까	-9.88028
▁받아서	-9.88085
▁바란다	-9.88121
화	-9.88178
▁대한민국	-9.88213
▁실	-9.88262
▁기반	-9.88297
▁스티커	-9.88324
▁가입	-9.88439
▁샐러드	-9.88476
▁통관	-9.8857
▁읽	-9.88634
▁관련해서	-9.88649
▁의무	-9.88688
▁고려	-9.88693
하셔도	-9.88856
셨나요	-9.88883
▁매력	-9.88918
▁스테이크	-9.89018
▁가슴	-9.89067
▁걸어	-9.89109
▁링크	-9.89115
▁200	-9.89127
▁접근	-9.89176
▁계신	-9.89198
▁층	-9.89217
▁표정	-9.89225
▁죽음	-9.89244
▁도쿄	-9.89272
▁성함	-9.89316
▁권리	-9.8934
릅니다	-9.89363
▁그렇습니다	-9.8945
▁나와서	-9.89453
▁상대	-9.89464
▁의사소통	-9.89465
▁그다음	-9.89572
▁생길	-9.89586
▁살아	-9.89668
▁떠나	-9.89695
▁낮은	-9.89708
▁많고	-9.89872
▁심각한	-9.8988
▁셔틀버스	-9.89882
잖아	-9.89886
▁데이트	-9.90012
▁열쇠	-9.90167
▁죽	-9.90191
▁삼성	-9.90265
▁보자	-9.90292
▁조금씩	-9.90297
▁정상	-9.90321
▁친	-9.90345
▁놓고	-9.90346
▁SNS	-9.90386
▁될까	-9.90396
▁공정	-9.90403
▁편의점	-9.90449
▁왕	-9.90451
▁들어간	-9.90456
▁돌	-9.90481
초	-9.90506
▁도와줄	-9.90509
▁나은	-9.90616
▁배터리	-9.90623
▁좋아하고	-9.90634
▁긴장	-9.9068
▁가이드	-9.90799
▁센터	-9.9081
▁지속	-9.9086
종일	-9.909
▁반대	-9.90914
▁평생	-9.90915
▁엘리베이터	-9.90934
▁연락해	-9.9095
▁미안합니다	-9.90974
▁일상	-9.91005
▁완성	-9.9103
▁체크	-9.91067
▁운	-9.91072
▁비해	-9.91117
3	-9.91201
▁같	-9.91213
▁특성	-9.91223
분들	-9.91264
님	-9.91268
▁500	-9.91276
▁계절	-9.91281
▁마실	-9.91284
▁괜찮을까	-9.91345
▁오신	-9.91393
▁전시	-9.91407
▁설계	-9.9145
▁아이디	-9.9146
▁고향	-9.91487
▁이용해서	-9.91493
▁13	-9.91526
▁많지	-9.91642
▁먹습니다	-9.91704
▁하실	-9.91718
약	-9.91798
내	-9.91823
▁수출	-9.91829
▁음식점	-9.91964
▁피드백	-9.92313
▁원단	-9.92328
▁일반적	-9.9236
▁비타민	-9.92394
▁생각했습니다	-9.92407
▁있어도	-9.92441
▁실패	-9.92445
만한	-9.92468
▁낼	-9.9249
▁가세요	-9.925
▁비밀	-9.92528
▁가는데	-9.92542
▁좋	-9.92571
▁연극	-9.92609
▁기다려야	-9.92675
▁지방	-9.9271
▁냉장고	-9.92726
▁먹어야	-9.92845
▁너희들	-9.92866
▁알았어	-9.92946
▁기초	-9.9295
▁알려줄	-9.92983
급하게	-9.93056
증	-9.93071
▁주인	-9.93086
▁확인해주세요	-9.93105
▁둘째	-9.93123
천	-9.93153
▁쉬운	-9.93289
▁14	-9.93384
▁장치	-9.93422
▁생겨서	-9.93451
▁가져다	-9.93618
▁기도	-9.93666
쪽	-9.93701
▁런던	-9.93711
▁살짝	-9.93719
▁영원히	-9.93749
▁위로	-9.93761
년간	-9.93823
▁신분증	-9.9384
▁바래	-9.93897
시킬	-9.93956
하십시오	-9.93959
▁경기장	-9.93985
▁범위	-9.94021
주시면	-9.94031
▁대만	-9.94063
▁보일	-9.94119
률	-9.94139
▁빼	-9.9414
▁나옵니다	-9.94202
▁구매자	-9.94213
▁행복해	-9.9427
▁기관	-9.94395
▁해변	-9.94487
▁만났	-9.94518
▁보이	-9.94613
▁16	-9.94648
▁나오지	-9.9465
▁먹었습니다	-9.94651
▁러시아	-9.94667
▁공사	-9.94673
▁어울리는	-9.94707
▁저쪽	-9.94729
▁부위	-9.94738
▁야구	-9.94854
▁사진들	-9.94887
끼리	-9.94965
▁진정한	-9.94994
▁몰라서	-9.95039
▁파악	-9.95042
▁진행하고	-9.95073
▁소설	-9.95093
▁청구	-9.95153
▁주문하신	-9.95159
▁후회	-9.95159
▁쉬고	-9.95194
▁방문할	-9.95203
▁절	-9.95241
▁보내줄	-9.95261
▁그러니	-9.95305
▁하여	-9.9531
시다	-9.95324
▁기숙사	-9.95401
▁들어서	-9.95412
▁아마존	-9.95422
십니까	-9.95483
▁받	-9.95584
▁콜라	-9.95593
▁탑승	-9.95608
▁분실	-9.95609
▁통	-9.95662
▁봉사	-9.95738
지도	-9.95745
간의	-9.95761
▁마감	-9.95816
▁재밌	-9.95833
▁승무원	-9.95892
율	-9.95894
▁드는	-9.95896
더니	-9.9591
통	-9.9593
▁달리	-9.96033
▁신호	-9.96037
▁계단	-9.96038
▁믿	-9.96047
하다고	-9.96159
▁정확하	-9.9616
배	-9.96201
▁먹어요	-9.96211
난	-9.96318
▁않았다	-9.96324
▁판단	-9.96519
▁단가	-9.96537
▁창문	-9.96561
▁내내	-9.96578
▁보내주시	-9.966
▁타야	-9.96606
▁그렇기	-9.96695
▁좋아해서	-9.96704
▁변	-9.96707
▁내리	-9.9674
▁보냈어요	-9.96787
▁전체적	-9.96954
▁알아야	-9.97149
▁자유롭게	-9.97195
▁빨간색	-9.97212
▁맘	-9.97212
▁패키지	-9.97252
▁같지	-9.97311
▁말씀해주세요	-9.97347
▁초등학교	-9.97374
▁미술	-9.97433
▁원하시는	-9.97453
▁예약한	-9.97544
▁디자이너	-9.97598
▁실행	-9.9761
▁진	-9.97666
▁지하철역	-9.97701
▁괜찮	-9.97808
▁늦은	-9.97813
▁비행	-9.97862
▁대단	-9.97875
▁재미있게	-9.97887
▁관람	-9.979
없이	-9.97909
▁궁금해요	-9.97927
▁네트워크	-9.97964
▁추석	-9.98011
▁이외	-9.98032
갑니다	-9.98111
▁한복	-9.98133
▁미소	-9.98188
▁없으니	-9.98272
할까요	-9.98284
cm	-9.98328
▁사서	-9.98353
▁믿을	-9.98354
▁설탕	-9.98357
▁말하지	-9.98401
▁마치고	-9.98448
▁적어도	-9.98483
▁유명	-9.98561
▁생각할	-9.98571
▁보내주시면	-9.98583
▁다섯	-9.98601
▁휴대전화	-9.98804
호선	-9.98835
▁전화해	-9.9886
▁잡지	-9.98878
▁좋고	-9.98896
▁얼음	-9.98986
▁연	-9.99025
▁상관	-9.99097
▁양해	-9.99258
▁적응	-9.99309
▁습관	-9.99393
▁적절한	-9.99415
▁지내	-9.99502
▁예약하고	-9.99554
▁시도	-9.99683
▁흰색	-9.99695
▁그릇	-9.99709
책	-9.99792
▁남는	-9.99841
▁사용한	-10.0006
▁알려줘	-10.0012
▁죄송해요	-10.0017
▁제조	-10.0023
하시나요	-10.0033
▁먹방	-10.0038
▁예방	-10.0053
▁동	-10.006
▁그러게	-10.0062
▁사야	-10.0079
▁자는	-10.0084
▁컵	-10.0096
▁느끼고	-10.0097
▁항공사	-10.0097
▁일이에요	-10.01
울	-10.0109
▁일본어	-10.0109
제품	-10.0117
▁생각엔	-10.012
▁채소	-10.0124
▁과	-10.0126
▁하시면	-10.0129
▁다행히	-10.0136
▁엄청난	-10.0137
▁것인가요	-10.0139
▁좋겠네요	-10.0141
▁쉬	-10.0152
▁조절	-10.0153
▁조치	-10.0157
▁17	-10.0157
▁하니까	-10.0158
▁걸어서	-10.0174
▁마찬가지	-10.0174
인들	-10.0176
▁그분	-10.018
▁싶을	-10.0181
▁시청	-10.0187
석	-10.0188
▁물질	-10.019
▁부모	-10.019
▁올림픽	-10.0193
셔도	-10.0194
으신가요	-10.0195
▁태풍	-10.0197
▁내야	-10.0199
▁통증	-10.0201
▁기름	-10.0203
▁요청하신	-10.0206
▁목적지	-10.0212
▁평균	-10.0216
▁앉아서	-10.0219
방	-10.0219
▁완벽	-10.0224
▁끝나면	-10.023
▁걸려	-10.023
▁남성	-10.0231
▁샀는데	-10.0233
▁알려주실	-10.0243
▁생각하세요	-10.0247
▁제공해	-10.0249
▁책임감	-10.0253
구	-10.0253
▁월급	-10.0254
이네요	-10.0256
▁여러분들	-10.0256
▁귀여운	-10.0259
▁청소년	-10.0262
▁없기	-10.0265
▁입원	-10.0276
▁봐도	-10.028
▁공식	-10.0284
▁주문할	-10.0295
▁통한	-10.03
되나요	-10.0302
▁연휴	-10.0304
▁파리	-10.031
▁젊은	-10.0325
류	-10.0327
▁한글	-10.0329
되었으면	-10.0331
이니까	-10.036
▁회원	-10.036
▁잡고	-10.0361
져	-10.0362
▁되길	-10.0372
▁선택한	-10.0373
▁칼	-10.0377
▁팀장님	-10.0379
▁스페인	-10.0379
▁각종	-10.0382
▁연주	-10.0389
▁비밀번호	-10.0397
▁상사	-10.0397
▁선수들	-10.0398
▁옵션	-10.0402
▁가져가	-10.0402
▁발라	-10.0408
▁고객사	-10.041
움	-10.041
▁곁	-10.0413
여서	-10.0421
▁시작한	-10.0423
▁즉	-10.0427
답니다	-10.0431
▁조각	-10.0436
▁확신	-10.0439
▁발생한	-10.0442
▁방해	-10.0444
▁1,000	-10.0458
▁지각	-10.0459
▁비교	-10.0464
회사	-10.0476
▁가질	-10.0477
▁찾으	-10.0479
▁글로벌	-10.0479
▁믿고	-10.0479
▁의지	-10.0482
랑	-10.0484
▁아름답	-10.0495
▁숙박	-10.0497
▁지하	-10.0498
▁남동생	-10.0502
▁무조건	-10.0514
▁친절	-10.0515
▁도와드리겠습니다	-10.0516
▁쉴	-10.052
▁청구서	-10.0526
▁손가락	-10.0529
▁사례	-10.053
▁있음	-10.0531
▁아시아	-10.0536
▁쇼	-10.0538
▁물건들	-10.0538
껏	-10.055
▁야채	-10.0554
▁긍정적	-10.0576
▁규모	-10.0592
▁채널	-10.0595
▁합시다	-10.0605
▁짓	-10.0612
▁연예인	-10.0614
▁행위	-10.0629
▁보내세요	-10.0633
▁전원	-10.0637
▁따르면	-10.0643
▁받으면	-10.0652
▁나면	-10.0658
▁샤워	-10.067
▁굳	-10.0674
겠다고	-10.0681
▁드리고	-10.0686
▁치	-10.0693
▁동물들	-10.07
▁우산	-10.0701
▁근거	-10.0701
▁반송	-10.0704
▁교실	-10.0707
▁쭉	-10.0711
▁오시면	-10.0719
해주시면	-10.072
▁과자	-10.0721
▁수행	-10.0722
더라도	-10.0724
▁할까	-10.0724
▁우편	-10.0728
달라고	-10.0728
▁연장	-10.0728
▁것이고	-10.0739
▁봤습니다	-10.0741
▁어깨	-10.0743
▁가시	-10.0744
▁어떤가요	-10.0755
▁밝은	-10.0759
▁어차피	-10.0766
▁세관	-10.0768
▁모바일	-10.077
▁말아	-10.0774
▁때문이야	-10.0776
▁들어가는	-10.0783
▁다닐	-10.079
▁D	-10.0794
▁음	-10.08
▁발행	-10.0808
▁그러는데	-10.0813
▁일입니다	-10.0815
▁쓰여	-10.0823
▁아뇨	-10.083
▁산책	-10.083
▁의심	-10.083
▁잡아	-10.0833
▁어른	-10.0838
▁유치원	-10.0839
▁도로	-10.0839
▁계란	-10.0839
▁마트	-10.0844
▁지키	-10.0849
힌	-10.0859
▁미디어	-10.0861
▁포기하지	-10.0865
▁준비되어	-10.0867
▁라벨	-10.087
▁번씩	-10.087
▁완벽한	-10.0872
▁혜택	-10.0874
▁뭔가요	-10.0883
▁지점	-10.0889
▁마리	-10.0893
▁명절	-10.0895
▁생명	-10.0895
▁걸로	-10.0898
▁중요하다	-10.0901
▁자원	-10.0905
▁말해주세요	-10.0911
▁차례	-10.0916
▁우주	-10.0916
아예	-10.0917
▁주문하고	-10.0923
▁국민	-10.0924
처리	-10.0924
▁무대	-10.0931
▁했을	-10.0931
▁했고	-10.0934
스러운	-10.0937
▁들어가서	-10.0938
▁식물	-10.095
▁빌려	-10.0951
냅니다	-10.0952
거	-10.0956
▁세부	-10.0961
▁비싸	-10.0963
▁기다리	-10.097
▁모르겠지만	-10.097
▁말씀하시는	-10.0974
▁빼고	-10.0974
▁심장	-10.0984
▁진행하는	-10.0988
▁좋았어요	-10.0989
▁있는데요	-10.0992
▁친절한	-10.0996
이니	-10.1013
▁샀	-10.1016
▁감	-10.1022
▁구경	-10.1023
▁양념	-10.1026
▁교사	-10.1032
▁원본	-10.1033
▁F	-10.1035
▁불만	-10.1036
▁매니저	-10.104
드리도록	-10.1042
▁밴드	-10.1052
▁이용하는	-10.1057
▁배웠	-10.1061
▁남자들	-10.1061
▁되게	-10.1062
▁줄게	-10.1066
▁정해진	-10.1068
산	-10.1078
▁우	-10.1084
으며	-10.1085
▁푹	-10.1087
주십시오	-10.1094
▁화장	-10.1095
▁왔	-10.1106
▁관점	-10.1106
▁21	-10.1108
▁팀원들	-10.1109
▁H	-10.1114
▁신규	-10.1118
▁인	-10.1119
▁도구	-10.1138
▁애들	-10.1147
▁M	-10.1149
▁보내지	-10.1152
이어서	-10.1156
▁남들	-10.1158
▁좋다	-10.1163
▁문구	-10.1164
▁파스타	-10.1169
▁것이다	-10.1169
▁시즌	-10.118
▁증거	-10.119
났습니다	-10.1195
▁손님들	-10.1197
▁의도	-10.1202
▁영역	-10.1203
▁제목	-10.1204
▁바쁜	-10.121
▁착용	-10.1213
▁해수욕장	-10.1219
▁제외하고	-10.1223
▁중앙	-10.1223
▁권	-10.123
▁오픈	-10.1238
시쯤	-10.1243
▁담아	-10.1244
▁쇼핑몰	-10.1249
대한	-10.1253
▁읽는	-10.1256
▁식품	-10.1257
▁느끼는	-10.1267
▁게다가	-10.1269
▁23	-10.1273
▁제공하는	-10.1282
용하여	-10.1286
왔을	-10.1299
▁안내해	-10.1302
▁싱가포르	-10.1303
▁충전	-10.1306
▁형식	-10.131
▁아니지만	-10.1313
하셨나요	-10.1317
▁지나	-10.132
▁통과	-10.132
▁측면	-10.1328
▁싶었어요	-10.1329
▁죽을	-10.1336
▁알았어요	-10.1336
▁염색	-10.1338
▁날이에요	-10.1341
▁간호사	-10.1347
▁방안	-10.1351
▁지시	-10.1357
▁참조	-10.1362
▁편이	-10.1367
▁믿음	-10.1369
▁느꼈	-10.1369
▁렌즈	-10.137
▁뿐입니다	-10.1371
▁관광지	-10.1373
▁컨테이너	-10.1375
▁판매하고	-10.1376
▁모르겠네요	-10.1383
▁판매자	-10.1397
▁색이	-10.1409
십니다	-10.1412
▁파란색	-10.1412
▁갈게요	-10.1415
▁보내겠습니다	-10.1419
▁진료	-10.1431
▁음료수	-10.1431
▁협상	-10.1437
▁뜨거운	-10.1437
▁말씀하신	-10.1444
어야	-10.1444
퍼센트	-10.1447
▁배운	-10.1457
▁스	-10.1457
▁T	-10.1459
▁알기	-10.1485
▁닭	-10.1487
▁바꾸고	-10.1495
▁웹	-10.15
▁조심	-10.1503
▁향해	-10.1504
▁잘하고	-10.1504
▁뇌	-10.1504
▁소프트웨어	-10.151
▁대중교통	-10.1511
렸어요	-10.152
▁전자	-10.1521
▁펜	-10.1522
▁도면	-10.1529
▁예매	-10.1542
▁영화관	-10.1543
▁주차장	-10.1555
▁사려고	-10.1561
▁이해해	-10.1562
▁가능할	-10.1577
▁향이	-10.1578
▁왜냐면	-10.1581
▁금	-10.1584
▁거니까	-10.1586
▁전문가	-10.1588
▁커플	-10.1593
m	-10.1599
▁기념	-10.1602
자리	-10.1604
▁통제	-10.1612
▁조립	-10.1614
▁발생하는	-10.1615
▁구할	-10.1617
▁곡	-10.1626
▁빨간	-10.1627
▁종교	-10.1628
주실래요	-10.163
▁간식	-10.1632
▁박	-10.1633
억	-10.1635
▁초기	-10.1636
▁해외여행	-10.164
불	-10.1642
▁알아보고	-10.1645
▁취소하고	-10.1647
▁구글	-10.1649
▁이해하기	-10.165
▁준비하고	-10.1653
▁경력	-10.1654
▁봐서	-10.1654
▁똑같이	-10.1656
▁항공권	-10.1656
▁애플리케이션	-10.1657
▁커버	-10.1657
티	-10.1662
▁권한	-10.1677
▁제외한	-10.1681
▁개념	-10.1682
▁채팅	-10.1691
▁채용	-10.1699
▁바쁘	-10.1705
▁써야	-10.1716
▁많을	-10.1717
▁2015	-10.1725
▁얘기해	-10.1727
▁향수	-10.1731
▁좋네요	-10.1739
▁커서	-10.1739
▁듣	-10.174
▁무역	-10.1747
▁도와주	-10.1749
▁말아요	-10.1757
▁적당한	-10.1761
▁받았어	-10.1763
▁반복	-10.1772
▁다만	-10.1776
▁마시는	-10.1777
C	-10.1789
▁토론	-10.1791
▁말해요	-10.1796
▁어떠세요	-10.1798
▁소금	-10.1804
▁팝	-10.1807
▁웃음	-10.1807
▁업그레이드	-10.1807
▁동의	-10.1814
정	-10.1815
▁싶지만	-10.1821
▁성공적	-10.1824
▁생기면	-10.1826
▁도착해서	-10.1826
▁정의	-10.183
▁뭐야	-10.184
▁되도록	-10.1843
▁맞는지	-10.1848
▁번만	-10.1853
▁활용	-10.1857
▁않았는데	-10.1858
▁출하	-10.1864
복	-10.187
이자	-10.1874
▁논문	-10.1876
▁주스	-10.1881
편	-10.1886
▁읽을	-10.1888
▁동료	-10.1897
▁유행	-10.1902
▁포함한	-10.1903
▁회계	-10.1903
▁선택할	-10.1908
▁주시고	-10.1914
▁생기	-10.1918
이다	-10.1919
▁곳입니다	-10.1923
▁당일	-10.1934
▁페이팔	-10.194
▁2016	-10.1946
▁구매하고	-10.1948
▁휴일	-10.1949
▁받습니다	-10.195
겠네요	-10.1956
▁잃	-10.1958
▁예쁘	-10.1966
▁이른	-10.1971
▁환승	-10.1982
▁리더	-10.1987
▁P	-10.1989
▁찍고	-10.1992
▁이해하고	-10.1997
꺼	-10.2002
하지만	-10.2005
▁경제적	-10.2007
▁봤을	-10.2011
▁오렌지	-10.2015
▁있다가	-10.2018
▁노력할	-10.202
▁넓은	-10.2022
▁가운데	-10.2023
▁감자	-10.2026
▁돌아올	-10.2029
▁즐겁	-10.2034
▁부장님	-10.2035
A	-10.2036
▁한잔	-10.2037
▁거면	-10.2038
마	-10.2039
▁동작	-10.2052
▁부탁해요	-10.2055
▁스키	-10.2056
▁가나요	-10.2057
▁룸	-10.2067
▁사기	-10.2074
걸	-10.2074
▁강남	-10.2076
하느라	-10.2076
▁알레르기	-10.2089
▁높이	-10.2092
▁만일	-10.2101
▁볼게요	-10.2111
▁패턴	-10.2117
▁비슷	-10.2118
▁예측	-10.212
▁실내	-10.2127
▁60	-10.2131
▁협력	-10.2133
▁기다리는	-10.2134
▁일어나	-10.2136
▁예의	-10.2146
▁에	-10.2147
▁초대	-10.2162
조	-10.2163
▁움직임	-10.2166
▁않았으면	-10.217
▁자연스럽게	-10.2171
▁전망	-10.2171
미	-10.2172
▁그러고	-10.2185
▁간단하게	-10.2186
▁오늘날	-10.2194
▁필수	-10.22
▁주문서	-10.2206
매번	-10.2208
▁바보	-10.2208
▁것이라	-10.2209
▁삭제	-10.2209
▁일반적인	-10.2213
▁싫어요	-10.2213
▁죄송한데	-10.2216
▁놀고	-10.222
▁칠	-10.222
▁아세요	-10.2221
S	-10.2224
▁눈물	-10.2225
주셨으면	-10.2228
▁취	-10.2231
▁봤	-10.2233
▁큽니	-10.2238
▁점검	-10.2238
▁인정	-10.2239
▁지진	-10.2241
▁최초	-10.2241
▁아름다움	-10.2243
▁알았는데	-10.2243
▁걸리나요	-10.2243
▁원한다면	-10.2244
▁때때로	-10.225
▁변동	-10.2261
▁많다	-10.2276
▁회	-10.2278
▁상점	-10.2279
▁핵심	-10.229
▁사러	-10.2291
▁싫어하는	-10.2292
▁여성들	-10.2299
▁좋은데	-10.2299
듯이	-10.2301
▁강화	-10.2308
▁예약할	-10.2315
▁첨부파일	-10.2316
▁말하기	-10.2319
▁슬퍼	-10.2319
▁뮤지컬	-10.2319
▁된다는	-10.2328
▁장난	-10.2328
▁싶네요	-10.2329
▁게스트하우스	-10.2331
▁필요하다고	-10.2333
▁메인	-10.234
▁맞춰서	-10.2341
받은	-10.2347
▁G	-10.2351
▁수익	-10.2352
▁남지	-10.2353
▁아프	-10.2355
거에요	-10.2359
▁저장	-10.236
▁읽어	-10.236
▁기획	-10.2361
▁외모	-10.2362
▁열어	-10.2365
▁알아보	-10.2369
▁의식	-10.2372
4	-10.2379
킵니다	-10.2383
▁놀이	-10.239
▁깊이	-10.2393
▁상관없이	-10.2394
▁하던	-10.2398
▁준비할	-10.2411
▁만들어서	-10.2418
▁편입니다	-10.2419
▁사용하면	-10.2426
▁용량	-10.2428
▁보인다	-10.2435
▁일어나는	-10.2436
▁안쪽	-10.2444
▁유학	-10.2447
사항	-10.2453
▁먹었어	-10.2455
▁아닌데	-10.2461
▁포함된	-10.2463
▁먼	-10.2464
▁살기	-10.2465
▁있나	-10.2465
▁정치	-10.2477
▁끊임없	-10.2479
▁접속	-10.248
▁기사님	-10.2485
▁드세요	-10.2485
▁상의	-10.2487
▁보내야	-10.249
▁알았습니다	-10.249
▁소비	-10.2493
▁텐데요	-10.2494
▁수건	-10.2499
▁걸립니	-10.2504
▁신나	-10.2509
▁판매하는	-10.2512
▁기부	-10.2516
▁만남	-10.2516
▁끝내	-10.2519
▁편한	-10.2528
▁여행자	-10.2531
발	-10.2538
▁취향	-10.2538
▁갔을	-10.2545
▁아니라고	-10.2545
▁구두	-10.255
▁될지	-10.2554
▁샀어요	-10.2563
▁연락드리겠습니다	-10.2568
▁보게	-10.2574
▁많았	-10.2578
▁않네요	-10.2582
▁이해하지	-10.2582
▁파마	-10.2585
▁고정	-10.2586
▁정원	-10.2588
▁시점	-10.2588
▁세일	-10.2594
▁있었고	-10.2594
이신가요	-10.26
▁경영	-10.2607
사의	-10.2608
▁그리워	-10.261
▁주방	-10.2613
▁영양	-10.2615
▁농구	-10.2619
▁DHL	-10.2622
▁많은데	-10.2624
▁나왔어요	-10.2629
▁크고	-10.2629
▁충격	-10.263
▁감각	-10.2635
▁도착한	-10.2639
▁보내주실	-10.2641
▁다양	-10.2641
▁노란색	-10.2643
▁기재	-10.2646
다니	-10.2647
▁따	-10.2648
▁났어요	-10.2651
▁정식	-10.2653
▁감소	-10.2659
게요	-10.2662
▁풍부	-10.2671
▁들어온	-10.2672
▁떡볶이	-10.2675
▁야근	-10.2678
▁신선	-10.2685
▁맛있어	-10.2689
▁반영	-10.2689
▁행복하	-10.2698
▁받게	-10.2701
▁뭔지	-10.2702
▁자금	-10.2704
▁준비한	-10.2706
▁위험한	-10.2712
▁픽업	-10.2716
▁정상적	-10.2727
▁발생할	-10.2727
▁음식들	-10.2728
▁기다릴	-10.2729
비용	-10.2732
▁해결할	-10.2735
품	-10.2735
▁되죠	-10.274
▁독립	-10.2744
▁편이에요	-10.2748
▁수분	-10.2771
▁오래전	-10.2776
▁같으니	-10.2778
▁프로필	-10.278
▁그렇죠	-10.2781
▁가볍게	-10.2782
▁맡은	-10.2782
세기	-10.2788
▁아쉬워	-10.2788
▁돌아가	-10.279
▁가능하면	-10.2795
▁케이블	-10.2795
▁노력하고	-10.2801
▁모르	-10.2803
▁짜증	-10.281
▁드리도록	-10.2814
▁끝날	-10.2817
▁됐어	-10.2819
▁응원	-10.2825
걸로	-10.2825
▁조회	-10.2828
▁중인데	-10.2829
▁수프	-10.283
▁가구	-10.2832
갈	-10.2835
크	-10.2838
▁바라보	-10.2849
콘	-10.2849
▁생	-10.285
▁찍는	-10.2856
▁받았는데	-10.2859
▁가져	-10.286
▁노인	-10.2863
▁쿠키	-10.2866
▁커	-10.2871
▁E	-10.2872
▁싶다고	-10.2873
돼요	-10.2873
▁안경	-10.2878
▁세계적	-10.2879
관	-10.2882
▁인구	-10.2884
▁배치	-10.289
▁보내기	-10.289
▁개수	-10.2891
▁공격	-10.2892
▁협조	-10.2892
곳	-10.2901
▁최소한	-10.2902
상의	-10.2906
▁드려	-10.2906
▁누	-10.2921
▁장르	-10.2924
▁점심시간	-10.2941
▁되어야	-10.2942
▁메이크업	-10.2942
▁인스타그램	-10.2943
▁조식	-10.2948
▁드레스	-10.2951
리고	-10.2955
▁극장	-10.2957
▁오일	-10.2965
인데요	-10.2971
▁걸려요	-10.2972
보	-10.298
▁참가	-10.298
▁마시	-10.2987
▁했	-10.2989
▁수치	-10.2998
일이	-10.3
▁금지	-10.3001
▁보냈	-10.3004
▁건축	-10.3006
▁바르	-10.3009
▁무릎	-10.302
▁보며	-10.3021
되면	-10.3022
▁갔다가	-10.3026
▁일어날	-10.3029
▁통하여	-10.3031
▁빌딩	-10.3037
▁정지	-10.304
▁운임	-10.304
▁기뻐요	-10.3043
▁오게	-10.3048
▁기쁨	-10.3049
▁일자리	-10.3058
▁부인	-10.3062
말	-10.3069
▁축하	-10.3073
▁해보고	-10.3086
▁허락	-10.3088
▁프린트	-10.3088
▁바꾸	-10.3091
▁표면	-10.3091
▁이웃	-10.3096
▁차별	-10.3097
행	-10.3101
▁회식	-10.3105
▁아이폰	-10.3105
▁군	-10.3107
주시겠습니까	-10.3108
▁깨	-10.3111
▁자격	-10.3113
▁나오면	-10.3114
▁코너	-10.3119
▁빌리	-10.3129
▁보겠습니다	-10.3136
▁남기	-10.3136
▁싶다면	-10.3136
▁로고	-10.3148
5	-10.3157
▁진정	-10.3157
▁얻기	-10.3162
▁기뻐	-10.3162
▁방문해	-10.3165
▁로봇	-10.3172
▁빠진	-10.3176
▁눌러	-10.3179
▁나누어	-10.3185
▁품	-10.3186
▁만들어진	-10.3187
▁소고기	-10.3189
▁늦어	-10.3198
▁환율	-10.3204
▁꺼내	-10.3208
▁증명서	-10.3216
▁아니다	-10.3219
▁잘하지	-10.322
▁중요해	-10.3226
▁나가는	-10.3227
▁의한	-10.3229
이죠	-10.3229
▁수표	-10.3233
종	-10.3237
동	-10.3242
센터	-10.325
▁돼지	-10.325
▁고생	-10.3251
▁싶었	-10.3253
▁행복해요	-10.326
정보	-10.3261
▁늦을	-10.3268
▁다음번	-10.3271
▁사원	-10.3276
▁사용해요	-10.3276
▁그렇다	-10.3281
▁시작하는	-10.3281
▁들지	-10.3282
▁손해	-10.3283
두	-10.3283
▁대표적	-10.3284
▁좋아할	-10.3285
▁도중	-10.3287
▁명령	-10.3294
▁확정	-10.3298
▁사인	-10.3299
자마자	-10.3301
▁해주	-10.3305
절	-10.3308
▁비율	-10.331
▁써서	-10.3313
다른	-10.3321
▁칭찬	-10.3327
▁소개할	-10.333
었는데	-10.3331
체	-10.3336
▁정거장	-10.3342
▁회복	-10.3342
▁꽉	-10.3347
▁실례지만	-10.3357
▁장식	-10.3362
잖아요	-10.3362
▁부탁드리겠습니다	-10.3363
▁자극	-10.3369
▁발달	-10.3369
▁편안한	-10.337
▁피곤해서	-10.337
s	-10.3382
▁가보고	-10.3383
▁없었다	-10.3384
▁빌릴	-10.3386
▁그린	-10.3386
▁차이점	-10.3391
▁할게	-10.3392
▁줘야	-10.3395
▁되니	-10.3408
▁추천합니다	-10.341
▁인하여	-10.3414
▁않았	-10.3415
▁몰랐어	-10.3418
▁기원	-10.3418
▁납품	-10.342
▁긴급	-10.3423
▁죄	-10.3428
보도록	-10.343
▁우정	-10.3435
▁태양	-10.3437
▁포	-10.3439
▁우연히	-10.344
▁백	-10.3443
▁일어나서	-10.345
프	-10.3454
▁외국인들	-10.3456
▁달콤한	-10.3458
▁아파요	-10.346
그	-10.3463
▁땀	-10.3467
▁만들었어요	-10.3469
▁해결하기	-10.3483
▁평화	-10.3483
▁누나	-10.3486
박스	-10.3491
▁나왔습니다	-10.3496
▁대금	-10.3499
▁지켜	-10.35
▁기한	-10.35
▁구분	-10.3509
▁드리는	-10.351
▁멤버	-10.3518
▁중이라	-10.3519
▁명세	-10.3521
▁감독	-10.3523
▁모니터	-10.3524
계	-10.3524
▁교통사고	-10.3526
▁악	-10.3526
▁계시는	-10.3528
▁동일	-10.3529
▁독특한	-10.353
▁필터	-10.3531
▁않다고	-10.3532
▁리포트	-10.3532
▁샌드위치	-10.3534
▁전달해	-10.3538
▁진행되고	-10.3546
▁등산	-10.3546
▁출력	-10.356
▁불편한	-10.3563
▁계기	-10.3565
▁사랑하고	-10.3566
이었어	-10.3571
▁정확	-10.3572
▁지낼	-10.3576
거리	-10.3577
▁바퀴	-10.3588
▁어디인가요	-10.3589
▁머물	-10.3593
시겠어요	-10.3595
▁들면	-10.3606
▁어쩌면	-10.3611
▁진행해	-10.3613
▁온다고	-10.3615
▁흐름	-10.3618
▁해줍니다	-10.3619
▁상승	-10.3619
▁계세요	-10.3619
▁셔츠	-10.3619
▁팁	-10.3619
▁가죽	-10.3626
▁입맛	-10.3626
▁만나요	-10.3634
▁급여	-10.3639
▁이론	-10.364
▁도착하는	-10.364
▁부정적	-10.3647
▁찍어서	-10.365
▁한계	-10.3651
▁지연	-10.3657
래	-10.3658
▁최신	-10.3669
▁깨끗	-10.367
▁통합	-10.3671
▁설	-10.3678
▁봅시다	-10.3686
으니	-10.3688
▁주길	-10.3689
해줄	-10.3696
▁올바른	-10.3698
▁데리러	-10.3699
▁도울	-10.3701
▁즐거움	-10.3703
▁쓰기	-10.3704
▁돌려	-10.3704
됐어요	-10.3707
▁깊게	-10.3715
되기	-10.3715
▁적합한	-10.3718
▁하나씩	-10.3718
으니까	-10.3722
▁배려	-10.3723
▁심사	-10.3725
▁기내	-10.373
▁같다고	-10.3733
▁적립	-10.3734
잔	-10.3734
▁포장해	-10.3744
▁사면	-10.3746
▁변경할	-10.3748
▁문제들	-10.3755
▁속이	-10.3759
▁발음	-10.3762
▁되었고	-10.3765
▁했으면	-10.3772
▁영	-10.3774
▁건조	-10.3774
▁준비해야	-10.3778
▁기기	-10.3779
▁워낙	-10.3783
▁경향	-10.3783
▁과연	-10.3783
해드리겠습니다	-10.3785
▁뛰어난	-10.3786
▁흥미로운	-10.3787
▁적어	-10.3788
▁놓	-10.38
더	-10.3812
래요	-10.3815
▁전용	-10.3816
▁그만큼	-10.3819
▁필요하면	-10.382
▁양이	-10.3826
▁평일	-10.3831
▁PO	-10.3831
▁알아봐	-10.3836
하던	-10.3844
▁보네요	-10.385
▁드려요	-10.3853
▁필요하지	-10.3854
▁카	-10.3866
시장	-10.3887
▁밝	-10.3892
▁수단	-10.3894
▁노력하겠습니다	-10.39
▁일자	-10.3905
▁만화	-10.3905
▁고르	-10.3915
▁대학생	-10.3918
▁불법	-10.3922
▁말이에요	-10.3926
▁오시	-10.394
▁내려서	-10.3941
▁싫	-10.3941
▁먹어서	-10.3942
▁지지	-10.3951
▁시골	-10.3958
주실	-10.3962
▁스마트	-10.3962
▁공포	-10.3963
▁좋아하는데	-10.3963
▁애완동물	-10.3964
▁간격	-10.3965
▁물고기	-10.3968
처	-10.3968
▁옮겨	-10.397
▁다를	-10.397
▁싶었는데	-10.3971
▁돌아갈	-10.3973
하십니까	-10.3978
▁영광	-10.3979
▁블랙	-10.398
▁만나면	-10.3982
▁해줘	-10.3983
▁않습니까	-10.399
하	-10.3992
▁아파	-10.3992
▁테니스	-10.4002
▁없는지	-10.4008
▁골라	-10.4009
▁상징	-10.4009
▁소문	-10.401
가셔서	-10.4011
▁만들었	-10.4013
킹	-10.4018
▁구멍	-10.4026
▁대구	-10.4029
▁확인했습니다	-10.4031
▁축하해	-10.4039
▁지원자	-10.4045
▁하므로	-10.4048
▁내릴	-10.4049
▁됐습니다	-10.4053
▁해산물	-10.4054
▁어떻습니까	-10.4056
▁사촌	-10.4056
▁갖	-10.4062
▁보이는데	-10.4062
▁용도	-10.407
▁ABC	-10.4071
▁만들어졌	-10.4072
▁질병	-10.4072
▁화려	-10.4076
▁27	-10.408
▁앞서	-10.4081
▁전화기	-10.4081
▁확장	-10.4082
▁종	-10.4085
▁천	-10.4089
▁도착했어요	-10.4093
▁모르고	-10.4098
▁느끼	-10.4102
▁변호사	-10.4107
▁쥐	-10.4116
▁선호	-10.4118
▁공지	-10.4124
▁무엇인가	-10.4126
급	-10.4127
▁업로드	-10.4135
▁교수	-10.4141
▁K	-10.4141
▁찾아가	-10.4144
▁차라리	-10.4144
▁줘요	-10.4146
▁2017	-10.415
▁아이돌	-10.4151
▁않은데	-10.4151
▁쌀	-10.4153
▁기념품	-10.4158
▁프랑스어	-10.4158
▁피로	-10.4163
▁10,000	-10.4167
▁연락할	-10.4175
▁우수	-10.4179
▁환불해	-10.4183
▁해결책	-10.4184
▁중요하게	-10.4184
주일	-10.4185
▁뛰어	-10.4186
바	-10.4195
▁하던데	-10.4217
▁좋았어	-10.4218
▁곳이에요	-10.4219
▁외국어	-10.4221
▁내려가	-10.4222
▁종료	-10.423
▁열리는	-10.423
▁있잖아	-10.4231
버스	-10.4236
▁머리카락	-10.4237
▁마침내	-10.4238
▁치수	-10.4238
▁다행이네요	-10.424
▁마스크	-10.4244
▁영혼	-10.4246
▁듭니다	-10.4248
▁성능	-10.4248
▁토마토	-10.4249
▁조만	-10.4254
▁믿어	-10.4254
▁신용	-10.4258
▁새롭	-10.4261
되었어요	-10.4266
▁사랑해	-10.4269
▁작성해	-10.4271
▁5,000	-10.4274
▁찾아서	-10.4291
▁겪	-10.4292
▁어렵다	-10.4298
▁팬들	-10.4298
▁칸	-10.4299
▁스크린	-10.4305
대학교	-10.431
▁싶기	-10.4323
▁사용해야	-10.4324
▁입는	-10.4325
▁들어오	-10.4326
▁가지는	-10.4328
▁유튜브	-10.4328
▁컨셉	-10.433
▁부드럽게	-10.4333
▁미용실	-10.4334
▁확실한	-10.4338
▁팔고	-10.4342
했지만	-10.4342
▁체력	-10.4342
▁체크아웃	-10.4347
시험	-10.4349
▁삼촌	-10.435
g	-10.4352
▁연어	-10.4354
▁소원	-10.4368
▁수집	-10.4374
▁위반	-10.4377
▁물량	-10.4378
▁복지	-10.4385
드린	-10.4386
을까요	-10.4396
국	-10.4401
▁강도	-10.4403
년대	-10.4415
▁멈추	-10.4416
▁빠져	-10.442
▁교복	-10.442
▁태권도	-10.4423
▁부드러운	-10.4423
▁지나면	-10.4424
▁로비	-10.4425
▁지내는	-10.4427
▁모르지만	-10.4427
▁지난달	-10.4428
▁생각하면	-10.4435
▁내려	-10.4437
어도	-10.4437
▁보내드릴게요	-10.4438
▁회화	-10.4448
▁정리해	-10.4451
▁없게	-10.4457
▁코트	-10.4463
▁새우	-10.4465
▁필요해	-10.4467
▁펴	-10.4471
▁희망합니다	-10.4475
▁안전한	-10.4475
느라	-10.4477
▁싼	-10.4481
▁약국	-10.4483
▁되네요	-10.4484
▁대전	-10.4487
▁오셔서	-10.4495
▁합의	-10.4498
▁싶었어	-10.4498
채로	-10.45
▁위치한	-10.4509
▁어쨌든	-10.4516
▁맞죠	-10.4519
▁평범한	-10.4519
▁매뉴얼	-10.4525
▁영감	-10.4526
▁차가운	-10.4531
▁결론	-10.4532
▁시일	-10.4538
▁시선	-10.454
▁심한	-10.4543
▁데리	-10.4552
▁메리	-10.4556
▁생각하나요	-10.4558
▁타임	-10.4561
▁인력	-10.4587
▁이용한	-10.4591
▁거울	-10.4593
이지	-10.4596
▁추운	-10.46
▁달라	-10.4603
▁바닷가	-10.4613
머리	-10.4614
▁포스터	-10.4616
▁나쁘지	-10.462
▁서둘러	-10.4628
▁삼	-10.4628
▁제시	-10.4633
▁승리	-10.4635
▁인재	-10.4639
▁연인	-10.4647
▁궁금해	-10.465
▁판매가	-10.4651
▁재밌는	-10.4653
▁소음	-10.4655
▁통장	-10.4659
▁넣어서	-10.466
▁효과적	-10.4662
▁집단	-10.4665
▁실망	-10.4667
▁단위	-10.4674
▁아닌지	-10.4679
돼서	-10.4682
▁연속	-10.4685
하다가	-10.4698
▁일어난	-10.4705
▁보증금	-10.4708
▁요인	-10.4709
▁어울릴	-10.4711
▁뒤쪽	-10.4713
▁짧게	-10.4716
▁필요한데	-10.4716
▁앨범	-10.4719
▁표본	-10.4721
▁리뷰	-10.4726
▁건너	-10.4727
▁보여주는	-10.4729
▁복잡한	-10.4733
▁수령	-10.4734
▁보였어	-10.4736
▁만나지	-10.4736
▁보여주세요	-10.474
▁현	-10.4747
▁그래야	-10.4756
▁조용한	-10.4763
이므로	-10.4768
▁보내면	-10.4772
▁알려주면	-10.4779
▁말하면	-10.4786
▁걸리는	-10.4793
하시고	-10.4793
▁행	-10.4795
▁추적	-10.48
▁책자	-10.4801
▁이때	-10.4802
▁글자	-10.4805
▁구워	-10.4813
해주는	-10.4813
았어요	-10.4816
▁댓글	-10.482
▁척	-10.4823
▁부족해서	-10.4824
▁마음속	-10.4824
▁공개	-10.4825
▁미술관	-10.4829
던데	-10.4834
▁도착하지	-10.4841
▁믿지	-10.4842
▁해주는	-10.4846
▁듣지	-10.4846
토	-10.4849
▁받으실	-10.4853
▁싶고	-10.4855
▁딸기	-10.4861
▁싶다는	-10.4864
▁출발하는	-10.4869
▁졸업식	-10.4878
▁읽기	-10.4885
▁생각하기	-10.4885
▁유형	-10.489
▁출석	-10.4891
▁위기	-10.4891
▁22	-10.4893
▁노력하는	-10.4898
▁깜짝	-10.49
▁달려	-10.4902
▁선박	-10.4903
▁내면	-10.4916
▁마침	-10.4916
▁균형	-10.4917
▁대리님	-10.4921
▁작	-10.4922
▁플랫폼	-10.4923
▁대중	-10.4928
▁느끼게	-10.4929
▁교정	-10.4933
▁형성	-10.4933
▁급	-10.4937
▁다운로드	-10.4938
▁돌아	-10.4942
▁파손	-10.4944
▁살아요	-10.495
후	-10.4951
▁방법입니다	-10.4953
▁제공할	-10.4955
▁설비	-10.4962
▁않다	-10.4964
▁착한	-10.4964
이든	-10.4965
▁접	-10.4967
▁회의실	-10.497
▁불가능한	-10.4972
▁흡수	-10.4974
▁반지	-10.4978
▁휴대	-10.4979
▁스토리	-10.4981
▁아닐까	-10.4982
▁폭	-10.4982
겠다	-10.4984
▁300	-10.4988
▁립스틱	-10.4993
▁향기	-10.4998
▁놀라	-10.4999
▁승객	-10.5004
▁욕구	-10.5005
▁말라고	-10.5006
▁동전	-10.5009
▁실례합니다	-10.5011
▁이해하는	-10.5012
▁사용되는	-10.5013
▁사용하기	-10.5016
▁와야	-10.5017
▁b	-10.5017
시겠습니까	-10.5018
▁해서요	-10.5019
▁시작하기	-10.5022
▁손상	-10.5022
교육	-10.5027
▁입사	-10.5031
셨습니까	-10.504
▁아니라면	-10.5046
▁올라가	-10.5056
▁자신들	-10.506
시고	-10.5064
▁로그인	-10.5066
▁인도네시아	-10.5067
▁그러지	-10.5074
▁한국말	-10.5074
▁다해	-10.5077
▁걸까	-10.5078
▁모르겠는데	-10.5081
있어요	-10.5083
▁사랑할	-10.5085
▁다소	-10.5087
▁옷들	-10.5089
군	-10.5101
▁길게	-10.5102
▁일상생활	-10.5103
▁프로모션	-10.5107
▁죽은	-10.511
▁들어오는	-10.5111
▁오토바이	-10.5112
▁인턴	-10.5115
려	-10.5117
▁미치는	-10.5123
▁기운	-10.5124
▁만났어요	-10.5125
▁조리	-10.5127
했고	-10.5135
▁것인가	-10.5135
▁마련	-10.5136
▁홀	-10.514
▁학점	-10.514
▁도장	-10.514
▁드시면	-10.5141
▁적게	-10.5142
▁되세요	-10.5146
▁다니	-10.5148
▁보장	-10.516
▁결재	-10.5163
▁맡겨	-10.5163
지고	-10.5165
▁여행사	-10.5168
▁스파	-10.5169
▁보이네요	-10.5175
▁시민	-10.5191
▁터미널	-10.5193
속	-10.5194
▁생각한	-10.5199
▁소포	-10.5199
▁IT	-10.5201
▁추후	-10.5201
▁흡연	-10.5203
▁경치	-10.5207
▁길거리	-10.5207
▁무사	-10.5208
▁확인해보니	-10.5209
▁주식	-10.5218
론	-10.5221
▁법적	-10.5222
▁넣을	-10.5223
▁포함해서	-10.523
해주길	-10.5231
반	-10.5232
▁태어나	-10.5233
▁놓치	-10.5235
오	-10.5237
▁해주시면	-10.524
▁낫	-10.524
▁사랑합니다	-10.5241
▁뭐든	-10.5241
▁비빔밥	-10.5241
▁이루기	-10.5252
▁체크인	-10.5255
▁a	-10.5255
근	-10.526
▁같고	-10.5261
준	-10.5261
▁디지털	-10.5265
▁취직	-10.5266
▁대응	-10.5277
▁접시	-10.5279
▁고대	-10.5283
가고	-10.5283
▁의료	-10.5288
▁조명	-10.529
▁슬	-10.5297
▁간다고	-10.5299
▁슬픔	-10.5302
▁적당량	-10.5305
▁알다시피	-10.5306
▁물론이죠	-10.5307
하시겠어요	-10.5309
▁필요하신	-10.5313
봅시다	-10.5314
▁건설	-10.5316
▁보려고	-10.532
▁환영합니다	-10.5322
시오	-10.5326
▁법인	-10.5328
▁신청서	-10.5328
▁치마	-10.5329
▁예시	-10.534
▁바꾸는	-10.5347
▁호수	-10.535
▁날입니다	-10.5353
▁빌	-10.5354
▁좋아지	-10.5358
▁일어났	-10.5363
▁판	-10.5363
▁해드릴게요	-10.5365
▁붙여	-10.537
▁군데	-10.5372
▁규제	-10.5385
했다는	-10.5386
▁건강하게	-10.5388
▁세포	-10.5393
▁드린	-10.5393
아서	-10.5401
▁셋째	-10.5405
▁야외	-10.5405
▁느낍니	-10.5407
▁떠날	-10.5407
▁당분간	-10.5408
▁신체	-10.5409
▁구성되어	-10.5409
▁화이트	-10.5411
▁야경	-10.5415
▁알려주십시오	-10.5418
▁가졌	-10.5423
색	-10.5425
▁그랬	-10.5426
▁말해줘	-10.5429
▁외출	-10.5432
▁보내줘	-10.5435
▁않는다고	-10.5441
▁수화물	-10.5442
▁매달	-10.5443
금액	-10.5446
▁송부	-10.5451
▁겉	-10.5452
▁찾지	-10.5453
▁리	-10.5469
▁대여	-10.5475
▁같다	-10.5475
▁이용하면	-10.5476
▁세미나	-10.548
이젠	-10.5485
▁반면	-10.5491
▁시작했	-10.5494
▁버	-10.5494
▁통역	-10.5495
▁더불어	-10.5496
▁수정할	-10.5511
▁라디오	-10.5511
▁사용하	-10.5512
▁지정	-10.5514
▁브라질	-10.5516
▁대량	-10.5517
▁피곤	-10.5519
▁지불해야	-10.5524
▁강력한	-10.5525
▁예상됩니다	-10.5528
▁응답	-10.5528
▁프로	-10.5538
▁코팅	-10.5539
▁서점	-10.5542
했나요	-10.5543
▁깨끗한	-10.5547
▁무엇일까	-10.555
▁떡	-10.5551
▁회사들	-10.5558
▁움직이	-10.5565
써	-10.5567
▁사양	-10.5567
▁센서	-10.5568
▁주머니	-10.5569
▁가져오	-10.557
▁갈게	-10.5573
▁의상	-10.5581
▁블록	-10.5583
▁경	-10.5585
▁잘할	-10.5585
▁화재	-10.5591
▁알아서	-10.5591
▁부스	-10.5595
▁모여	-10.5596
▁모아	-10.5609
▁모르겠다	-10.5609
▁베	-10.5614
▁벚꽃	-10.5614
▁결코	-10.5615
▁하느님	-10.5617
▁가벼운	-10.5617
▁애니메이션	-10.5619
▁가본	-10.562
▁소중	-10.5623
▁입술	-10.5624
▁국물	-10.5628
▁장애	-10.5629
▁이따가	-10.5629
▁끈	-10.563
▁알려져	-10.5634
▁앞쪽	-10.5635
▁거품	-10.5635
▁구매하신	-10.5638
▁추	-10.5641
▁호	-10.5642
▁물어보고	-10.5643
▁스킨	-10.5643
▁들어올	-10.5644
▁제도	-10.5649
룸	-10.5651
▁타인	-10.5651
▁올게요	-10.5657
▁좋지만	-10.5658
▁분리	-10.5659
드릴까요	-10.5666
▁특허	-10.5669
▁부착	-10.5669
▁수정된	-10.5672
▁되겠습니다	-10.5674
▁가스	-10.5675
▁관	-10.5676
▁경주	-10.5678
▁임시	-10.568
▁뽑	-10.5693
▁L	-10.5706
▁갈등	-10.5709
경	-10.571
▁털	-10.5712
▁재능	-10.5712
▁햇빛	-10.5721
▁군인	-10.5722
▁롯데	-10.5725
▁인테리어	-10.5728
▁위협	-10.5729
▁인물	-10.5729
▁않았지만	-10.573
▁마십시오	-10.5736
▁운명	-10.5739
▁반찬	-10.574
▁스타	-10.5744
▁드시고	-10.5744
▁유지하	-10.5747
▁있었나요	-10.5749
▁살면서	-10.5751
청	-10.5753
▁봉투	-10.5755
▁오염	-10.5757
▁익	-10.5761
▁참여할	-10.5771
▁적당	-10.5774
▁보여주고	-10.5776
▁걸린	-10.5776
하시기	-10.578
▁확인한	-10.5782
▁확인하세요	-10.5782
▁28	-10.5784
▁사진입니다	-10.5787
▁유통	-10.5798
었어	-10.5803
▁구성원	-10.5809
포	-10.581
▁캠핑	-10.5815
버렸어요	-10.582
▁중요성	-10.5822
▁헬스장	-10.5824
▁존경	-10.5828
▁스파게티	-10.5832
▁출산	-10.5832
▁터키	-10.5836
▁봉사활동	-10.5837
▁화학	-10.5839
▁유효	-10.5839
▁거부	-10.5842
▁부르	-10.5843
▁주어진	-10.5845
▁진로	-10.5845
▁돌아오는	-10.5846
▁인해서	-10.5849
파	-10.585
낸	-10.5859
▁비누	-10.5862
▁몰랐어요	-10.5865
▁동료들	-10.5866
▁불편하게	-10.5869
▁관세	-10.5871
▁확인해야	-10.5871
▁시트	-10.5876
▁얼마입니까	-10.5886
▁동기	-10.5888
▁떨어진	-10.5895
▁전송	-10.591
▁크	-10.5911
▁포기	-10.5912
▁집안	-10.5914
▁따르	-10.5916
▁사장	-10.5917
▁재질	-10.5927
▁자녀	-10.5928
▁소유	-10.5929
▁창의적	-10.5935
▁교류	-10.5936
▁먹자	-10.5938
▁임신	-10.5939
▁만들어야	-10.5939
▁초록색	-10.5939
▁거절	-10.5942
▁나가	-10.5945
▁괜찮다면	-10.5945
▁사랑스러운	-10.5945
▁내역	-10.5947
▁동일하게	-10.5952
▁하다	-10.5952
▁판매할	-10.5956
▁반입	-10.5957
▁여보세요	-10.5961
▁싶으면	-10.5965
▁안녕	-10.5966
▁가지게	-10.5971
▁묵을	-10.5972
▁대학원	-10.5979
▁가깝	-10.5979
▁커다	-10.5979
▁꼼꼼	-10.5979
▁나오나요	-10.5984
해주실	-10.5988
▁먼지	-10.5996
▁진출	-10.6
▁혁신	-10.6
▁뽑아	-10.6002
▁갔는데	-10.6006
니깐	-10.6016
친	-10.6018
▁합격	-10.6021
▁주셔야	-10.6022
주는	-10.6023
▁N	-10.6032
▁희생	-10.6043
▁않았을	-10.6044
▁얘기하고	-10.6046
▁마이크	-10.605
림	-10.6051
▁달걀	-10.6058
▁남녀	-10.606
▁야간	-10.6061
▁쓰면	-10.6063
▁갈까	-10.6066
▁잊을	-10.6069
인분	-10.6069
▁걸리지	-10.6071
▁어디든	-10.6074
▁돌아오	-10.608
▁소주	-10.6081
▁올린	-10.6082
▁달라요	-10.6085
▁복사	-10.6091
▁뿌리	-10.61
▁완벽하	-10.6101
▁활성화	-10.6106
낼	-10.6111
▁생성	-10.6114
▁채워	-10.6125
▁잤	-10.6126
▁조합	-10.6127
▁있길	-10.6128
▁않겠습니다	-10.6131
▁시작해요	-10.6135
▁줄일	-10.6141
▁즐기는	-10.6149
▁체육관	-10.6152
▁드리면	-10.6153
▁소화	-10.6158
▁원피스	-10.616
둔	-10.6162
▁안타깝게	-10.6164
▁조카	-10.6165
▁불편함	-10.6165
▁대비	-10.6167
▁2014	-10.6168
▁없지	-10.6169
▁전액	-10.6172
▁해당하는	-10.6173
루	-10.6174
▁재킷	-10.6174
▁없죠	-10.6174
▁오실	-10.6174
▁법률	-10.6175
▁보조	-10.6179
▁행복할	-10.6179
▁팩	-10.6185
▁기침	-10.6185
▁최	-10.6185
▁노트	-10.6192
▁결석	-10.6196
▁언급	-10.6197
▁온다면	-10.6198
▁붙	-10.6199
▁명단	-10.6201
▁부부	-10.6202
▁동물원	-10.6218
▁26	-10.6221
▁입어	-10.6222
▁이용하	-10.6239
▁폭력	-10.6249
▁진행될	-10.625
▁사라지	-10.6252
▁나름	-10.6261
▁변경된	-10.6262
▁찾아야	-10.6264
▁오사카	-10.6264
▁북	-10.6266
▁도와주는	-10.6266
▁제공하고	-10.6268
▁소파	-10.6272
▁두려움	-10.6272
▁관리자	-10.6275
▁확률	-10.6276
포인트	-10.6277
▁찬	-10.6277
하십니다	-10.6279
▁갈래	-10.628
▁프린터	-10.6283
▁나와요	-10.6286
▁그다지	-10.6288
▁보여서	-10.6292
▁시행	-10.6292
▁즐기고	-10.63
▁클래식	-10.6301
▁했나요	-10.6304
▁웃고	-10.6307
▁여섯	-10.6313
▁대출	-10.6319
▁반죽	-10.6322
▁관광객	-10.6325
▁입국	-10.6326
▁많다고	-10.6333
▁이하	-10.6336
▁것이기	-10.6336
▁만들어요	-10.6341
▁문법	-10.6343
▁섭취	-10.6347
▁결혼할	-10.6356
▁출입	-10.6356
▁드	-10.636
▁묻	-10.6363
▁느낀	-10.637
▁썼	-10.6375
▁이태원	-10.6377
▁예약했는데	-10.6378
▁복	-10.6381
▁어두운	-10.6383
▁나눌	-10.6385
▁탈의실	-10.6386
▁살아가는	-10.6386
▁연필	-10.6389
▁옵니다	-10.6392
▁플라스틱	-10.6393
학기	-10.6393
▁창가	-10.6402
▁자식	-10.6402
있긴	-10.6403
▁아프리카	-10.6408
▁캠프	-10.641
▁주사	-10.6412
▁불고기	-10.6413
▁그대	-10.6413
▁존중	-10.6413
▁띄	-10.6417
▁달라서	-10.6419
▁끼	-10.6421
▁연관	-10.6425
▁장애인	-10.6428
▁않았고	-10.643
▁영원	-10.6431
이었던	-10.6433
▁끝내고	-10.6441
▁해석	-10.6442
▁이혼	-10.6445
▁메모	-10.6449
▁운전자	-10.6449
▁얻는	-10.6449
▁판매해요	-10.6449
▁물어	-10.6451
칠	-10.6451
▁리조트	-10.6452
▁있는가	-10.6456
▁단순한	-10.6457
▁그러는	-10.6457
▁확인했어요	-10.6457
▁준다고	-10.6457
▁위해선	-10.6465
▁PC	-10.6474
▁개최	-10.6475
망	-10.6476
▁생각했던	-10.6478
▁해주고	-10.6478
지역	-10.6479
▁작아	-10.648
▁내부적	-10.6481
▁처리할	-10.6488
▁우려	-10.6488
지요	-10.649
▁있겠습니다	-10.6491
▁티	-10.6494
▁웃	-10.6499
▁느껴져	-10.6499
▁엔지니어	-10.65
▁카탈로그	-10.6502
▁항공편	-10.6503
▁메뉴판	-10.6506
▁커뮤니케이션	-10.651
▁한참	-10.6514
▁보유하고	-10.6516
▁웃는	-10.6517
하네요	-10.6517
▁소셜	-10.6517
▁드실	-10.652
▁불가합니다	-10.652
▁친절하	-10.652
▁숲	-10.6526
▁경쟁력	-10.653
▁생기는	-10.6531
▁하긴	-10.6535
▁섞어	-10.6539
기간	-10.654
슨	-10.6541
코	-10.6544
▁생각입니다	-10.6545
하려는	-10.6548
▁암	-10.6549
▁없도록	-10.6549
▁확보	-10.6549
▁이야기하고	-10.655
▁줬	-10.6556
▁좋아하기	-10.6556
▁체육	-10.6565
▁누워	-10.6568
▁주문하면	-10.6571
더라	-10.6575
▁다녀왔	-10.6577
▁허용	-10.658
▁오는데	-10.6581
▁싶어서요	-10.6582
▁많기	-10.6587
▁공주	-10.6591
▁생각이에요	-10.6592
▁설득	-10.6595
▁반납	-10.6598
우	-10.6598
▁고유	-10.6599
▁사본	-10.6601
▁컨펌	-10.6602
▁요리사	-10.6603
▁결	-10.6607
▁수요	-10.6608
▁있어서요	-10.6611
▁보이고	-10.6612
▁아프지	-10.6614
▁변하지	-10.6616
▁하신	-10.6617
▁메세지	-10.6617
▁중국인	-10.6618
정적인	-10.6624
▁이불	-10.6625
▁지적	-10.6626
▁손톱	-10.6627
▁올릴	-10.6629
▁운동화	-10.6629
▁집안일	-10.6632
▁천연	-10.6634
▁사랑해요	-10.6636
▁도와주세요	-10.6637
▁즐거웠	-10.6637
지는	-10.6637
았던	-10.664
▁들어가면	-10.664
▁고치	-10.6643
▁벗어나	-10.6646
▁신입	-10.6656
▁가만	-10.6659
▁방지	-10.6665
▁구역	-10.667
▁일어나지	-10.6672
▁선정	-10.6672
▁노선	-10.6673
▁경쟁사	-10.6683
▁배우기	-10.6685
▁배우들	-10.6685
▁재활용	-10.6687
▁것이며	-10.6689
▁이야기할	-10.669
▁방문하	-10.6696
▁교훈	-10.6697
▁작용	-10.6698
▁31	-10.6699
▁보시고	-10.67
▁고소	-10.6703
▁블루	-10.6708
e	-10.6708
▁요가	-10.6709
▁전환	-10.6712
가는	-10.6713
▁증명	-10.6718
▁고등학생	-10.6726
▁구름	-10.673
과정	-10.6731
▁영문	-10.6731
▁엑셀	-10.6732
▁무서운	-10.6733
▁토익	-10.6733
▁저렴하	-10.6733
▁멕시코	-10.6735
▁하와이	-10.6736
▁거실	-10.6736
▁운영하는	-10.674
▁연결해	-10.674
▁헤어	-10.6741
▁에이전트	-10.6742
▁확실하게	-10.6743
▁한식	-10.6743
▁지켜야	-10.6746
▁말씀해주시면	-10.6746
▁열려	-10.6749
▁종목	-10.6756
이긴	-10.676
▁뭐예요	-10.6761
▁박람회	-10.6762
▁발생하지	-10.6765
▁맞추	-10.6772
▁연애	-10.6775
▁넘는	-10.6775
▁약이	-10.6776
▁도입	-10.6779
▁상해	-10.6783
▁다녀오	-10.6785
로운	-10.6794
▁생겨	-10.6794
▁도착했습니다	-10.6794
▁욕심	-10.6795
▁학과	-10.6796
▁하다가	-10.6797
▁협업	-10.6797
▁풀어	-10.6816
▁되어있	-10.6816
▁운행	-10.6816
▁부르는	-10.6817
▁하셔야	-10.6818
하셔서	-10.682
▁있었을	-10.6825
▁강조	-10.6826
▁원산지	-10.6829
▁맛집	-10.683
백	-10.6834
▁개별	-10.6836
▁분류	-10.6837
▁지속적	-10.6839
▁식탁	-10.6841
▁줄래	-10.6843
▁개성	-10.6844
M	-10.6851
▁연말	-10.6855
▁검은	-10.6855
▁기말고사	-10.6855
▁스위스	-10.686
▁부탁드릴게요	-10.6861
▁벌금	-10.6863
▁편견	-10.6866
▁대단한	-10.6867
▁받아볼	-10.6869
▁목걸이	-10.6877
▁표현하는	-10.6877
▁넣으면	-10.6878
▁김밥	-10.688
겠지만	-10.6883
▁초과	-10.6897
▁출신	-10.69
▁치과	-10.6901
▁판매합니다	-10.6909
▁탄	-10.6909
▁다음주	-10.6909
▁맡	-10.6914
▁갔었어	-10.6914
▁효율적	-10.6922
▁해본	-10.6924
▁생각했는데	-10.6925
깁니다	-10.693
길래	-10.6932
자료	-10.6933
▁운영하고	-10.6934
▁처리해	-10.6936
▁어떤지	-10.6937
▁아동	-10.6939
▁분홍색	-10.6939
▁전반적	-10.694
▁절약	-10.6945
▁세대	-10.6951
▁잡을	-10.6952
카드	-10.6957
▁않는데	-10.6961
▁효과적인	-10.6961
▁물어봤	-10.6967
▁허가	-10.697
▁슬픈	-10.6972
▁연봉	-10.6973
▁향후	-10.6974
▁모른다	-10.6975
▁중간고사	-10.6976
▁다행이에요	-10.6979
▁보람	-10.6979
▁이력서	-10.6979
▁해결해	-10.6981
▁알림	-10.6983
▁대형	-10.6985
▁사유	-10.6985
므로	-10.6985
▁흔적	-10.6986
▁순수	-10.6989
▁매체	-10.699
▁시원한	-10.6991
▁80	-10.6992
일까요	-10.6994
▁초밥	-10.6997
▁일기	-10.6999
▁말레이시아	-10.7
▁보내드리	-10.7001
▁뿐이야	-10.7003
▁걸려서	-10.701
▁자산	-10.701
▁용어	-10.7012
▁믿어요	-10.7019
▁생겼어요	-10.7024
하나	-10.7025
▁벌레	-10.7033
업체	-10.7035
건가요	-10.7035
▁솔루션	-10.7037
▁안심	-10.7041
▁요구하는	-10.7046
▁세팅	-10.7046
▁늦	-10.7048
▁나가야	-10.7049
▁불리는	-10.7057
▁벨	-10.706
▁들어가지	-10.7063
▁않는다는	-10.7066
▁잃어버린	-10.7069
▁전날	-10.7071
하셨습니다	-10.7075
▁확인해서	-10.7084
해드릴게요	-10.7084
▁번역기	-10.7087
▁철	-10.7089
▁건가	-10.7089
▁예능	-10.709
▁늦어서	-10.7092
▁공감	-10.7092
▁싸움	-10.7094
▁몰	-10.7094
▁아닐	-10.7096
▁마닐라	-10.7096
▁아냐	-10.7097
▁액세서리	-10.7098
▁반대편	-10.7099
▁블로그	-10.7102
▁이번엔	-10.7103
▁따뜻하게	-10.7104
▁이루어져	-10.7104
▁시리즈	-10.7113
▁금융	-10.7114
▁의류	-10.7114
▁타이어	-10.7116
▁처벌	-10.7116
▁하얀	-10.7116
▁못했어	-10.712
▁울고	-10.7128
▁연차	-10.7129
▁만나자	-10.7129
▁먹어보	-10.7138
▁이용하고	-10.7145
▁보여줄	-10.7147
▁고용	-10.7151
▁파트	-10.7158
▁빠지	-10.7159
▁보냈어	-10.7161
▁유통기	-10.7165
▁하더라도	-10.7167
시키는	-10.7168
▁든	-10.718
힐	-10.7181
▁좋을까	-10.7184
▁소지	-10.7186
▁통신	-10.7188
▁씁니	-10.7195
▁부여	-10.7197
km	-10.7201
▁애인	-10.7205
셨어요	-10.7207
▁지출	-10.7209
▁후기	-10.7212
▁흠	-10.7213
▁예수님	-10.722
▁뉴질랜드	-10.7221
▁돼지고기	-10.7221
▁한국인들	-10.7224
▁친해지	-10.7234
▁하거나	-10.7235
▁에러	-10.7235
▁양말	-10.7242
▁과장님	-10.7251
▁개봉	-10.7251
▁정해져	-10.7252
▁갑시다	-10.7255
▁있었	-10.7255
하라고	-10.7256
▁벗	-10.7261
▁낚시	-10.7261
▁했다고	-10.7264
▁경찰서	-10.7267
▁연출	-10.7275
▁알려준	-10.7278
▁치는	-10.7278
▁편안하	-10.7285
▁설명할	-10.7287
▁여행하는	-10.7287
▁현황	-10.7293
▁과학자	-10.7297
▁치고	-10.73
▁그리스	-10.7301
▁설명서	-10.7303
▁처음이라	-10.7305
▁상호	-10.7307
▁사망	-10.7314
▁되었는데	-10.7315
▁무엇이든	-10.7325
▁얇	-10.733
▁달성	-10.7338
▁상품들	-10.7339
탄	-10.7339
▁용돈	-10.7343
▁겨우	-10.7344
▁형제	-10.7345
▁45	-10.7346
▁마셔	-10.7351
▁조심하세요	-10.7351
▁상황입니다	-10.7361
▁말입니다	-10.7366
▁없음	-10.737
으세요	-10.7371
▁주문할게요	-10.7374
▁모듈	-10.7378
▁3,000	-10.7383
▁게이트	-10.7385
▁닫	-10.7385
라인	-10.7389
▁끝나서	-10.7391
▁왔다	-10.7406
▁적어서	-10.7406
▁패드	-10.7407
▁연구소	-10.7409
▁축복	-10.7412
▁예약해	-10.7417
▁올리	-10.7424
▁준다	-10.7426
▁누락	-10.7427
▁해주실	-10.7429
▁뛰	-10.7432
▁혼란	-10.7435
▁나오	-10.7436
▁틀	-10.7444
▁와요	-10.7446
▁다름	-10.7446
즈	-10.7448
▁내려야	-10.7458
작업	-10.7458
▁등급	-10.7459
▁거라면	-10.746
▁맞을	-10.7464
▁배드민턴	-10.7473
▁연설	-10.7475
▁미안한데	-10.7475
▁태어난	-10.7476
▁몰랐는데	-10.7478
▁프레젠테이션	-10.748
▁학업	-10.7481
각	-10.7488
▁원하시면	-10.7491
▁파워	-10.7492
▁마시면	-10.7494
▁더워서	-10.7495
▁기여	-10.7499
였어	-10.7499
▁원활	-10.7501
더군요	-10.7505
▁초점	-10.7505
▁일하기	-10.7508
▁말아야	-10.7508
▁예술가	-10.751
▁사람이야	-10.7511
▁댁	-10.7512
겠죠	-10.7514
▁스펙	-10.7514
냈습니다	-10.7514
▁확인하는	-10.7518
▁여행지	-10.752
▁부족합니다	-10.752
개씩	-10.7527
▁고쳐	-10.7529
▁당연	-10.7533
소리	-10.7534
▁손실	-10.7537
▁콩	-10.7537
▁관찰	-10.7537
▁알지만	-10.7538
▁투표	-10.7542
▁정신적	-10.7542
▁걸까요	-10.7544
▁성실	-10.7545
▁줬어요	-10.7545
▁거라서	-10.7559
학교	-10.7561
단계	-10.7564
창	-10.7567
▁되었나요	-10.7571
▁조선	-10.7575
▁무시	-10.7579
▁부탁해	-10.7579
▁붙이	-10.7584
▁토끼	-10.7587
▁정치적	-10.7589
▁표준	-10.7591
▁여긴	-10.7591
▁나타나	-10.7592
▁화상	-10.7593
▁넓	-10.7598
▁토	-10.7605
▁와이파이	-10.7607
▁도시락	-10.7607
▁있었는지	-10.7613
▁받으	-10.7614
▁부상	-10.7614
해달라고	-10.7615
코드	-10.7616
▁준비하는	-10.7616
▁압력	-10.7622
▁침	-10.7626
▁70	-10.763
등의	-10.763
▁이상하게	-10.763
▁불가능합니	-10.7633
▁트럭	-10.7634
살이	-10.7634
▁머무르	-10.7641
▁우승	-10.7643
▁하단	-10.7647
▁삼겹살	-10.7647
▁찾아보	-10.7648
든지	-10.7654
▁검증	-10.7656
▁편집	-10.7659
▁아는데	-10.7659
▁소요	-10.7663
▁남겨	-10.7664
▁농담	-10.7668
▁공무원	-10.7671
▁학생입니다	-10.7676
▁함께하는	-10.7681
▁되니까	-10.7684
▁제시간	-10.7684
▁갑	-10.7685
▁고려해	-10.7686
▁맛있어요	-10.7687
▁차단	-10.7689
▁바뀐	-10.7692
▁확인하여	-10.7694
▁뒷	-10.7698
▁세워	-10.7698
▁깎아	-10.7699
액	-10.7709
▁좋았을	-10.7712
▁걔	-10.7719
학	-10.7719
▁키보드	-10.773
▁감자튀김	-10.7731
▁그렇구나	-10.7731
▁인천공항	-10.7731
▁없네	-10.7732
▁바나나	-10.7733
▁성경	-10.7733
▁말하자면	-10.7733
▁도와드릴게요	-10.7735
▁문화적	-10.7735
▁필요하다면	-10.7735
▁아저씨	-10.7735
▁체중	-10.7739
▁일행	-10.774
▁학교생활	-10.7741
▁예정이야	-10.7742
▁기다리겠습니다	-10.7742
▁바랄게요	-10.7743
▁인연	-10.7743
▁스미스	-10.7746
▁제출해야	-10.7751
▁있었지만	-10.7752
▁함	-10.7754
▁결함	-10.7756
▁여쭤봐	-10.7757
▁멤버들	-10.7758
▁내용물	-10.7763
▁갖게	-10.7765
▁자살	-10.7769
▁설립	-10.7772
▁성공할	-10.7774
▁퇴근하고	-10.7774
▁간다면	-10.7775
▁단백질	-10.7783
▁변경하고	-10.7785
찬	-10.7786
y	-10.7788
▁후식	-10.7797
▁창	-10.7805
링	-10.7807
레	-10.7814
▁필름	-10.782
▁이럴	-10.7823
▁한강	-10.7828
▁발표할	-10.783
▁표기	-10.7831
▁적혀	-10.7831
▁주택	-10.7831
▁연락해서	-10.7832
▁만들지	-10.784
거예요	-10.7844
▁괜찮은데	-10.7845
▁남아있는	-10.7853
▁왠	-10.7854
▁여성의	-10.7855
▁보실	-10.7855
▁대리	-10.7857
▁드렸습니다	-10.7857
▁샴푸	-10.7858
▁걷는	-10.786
▁카운터	-10.7861
▁부정	-10.7861
▁공통점	-10.7864
▁가사	-10.7864
▁카레	-10.7869
▁않았나	-10.787
▁노래방	-10.7871
▁상관없습니다	-10.7876
▁면허증	-10.7876
▁놀아	-10.7882
▁지불하	-10.7883
▁완료되었습니다	-10.7884
▁로마	-10.7884
▁잊고	-10.7886
▁내고	-10.7889
▁흰	-10.789
▁깔끔하	-10.7897
▁붙어	-10.7899
상품	-10.7902
▁완료된	-10.7902
▁분기	-10.7905
▁악기	-10.7905
▁받아요	-10.7906
▁돕는	-10.7907
잠	-10.791
▁그만두	-10.7911
▁월	-10.7911
▁멋지	-10.7912
▁온천	-10.7914
▁준비해서	-10.7915
졌어요	-10.7917
문제	-10.7917
▁갈색	-10.7923
▁진행해야	-10.7924
▁않으니	-10.7926
▁신부	-10.7927
▁사용하세요	-10.7928
▁보호자	-10.7934
t	-10.7936
려서	-10.794
▁힘들고	-10.794
▁생각이야	-10.7948
같은	-10.7948
▁확대	-10.795
▁진학	-10.7951
▁모드	-10.7952
▁골	-10.7956
▁매력적인	-10.7956
▁즐기	-10.7959
▁지나가	-10.796
▁검수	-10.7965
▁전국	-10.7966
▁보내줄게	-10.7967
▁의문	-10.7974
▁추가할	-10.7978
▁어서	-10.7981
시죠	-10.7991
▁드시는	-10.7991
▁차원	-10.7994
▁시카고	-10.7994
▁이야기해	-10.7995
▁장래	-10.7996
▁이동하	-10.7996
▁미세먼지	-10.8002
주년	-10.8002
▁기쁘게	-10.8003
▁가능한데	-10.8004
▁영향력	-10.8005
▁자야	-10.8006
▁더운	-10.8007
▁레벨	-10.8008
▁병실	-10.8009
▁이모	-10.8011
▁모를	-10.8015
▁다친	-10.8016
▁위대한	-10.8017
▁공동	-10.8017
▁대리점	-10.8018
▁시술	-10.802
▁도서	-10.8025
▁증가하고	-10.803
▁2,000	-10.8033
▁방문한	-10.8035
이룰	-10.8037
▁해주시	-10.8037
▁하시나요	-10.8039
▁받았	-10.8039
▁체계	-10.8039
▁걸쳐	-10.804
▁주어서	-10.8043
▁튀김	-10.8046
▁떠나는	-10.8046
▁울	-10.8051
▁애플	-10.8053
▁대가	-10.8055
▁받으러	-10.8059
▁했기	-10.8063
▁상기	-10.8064
▁녹	-10.8065
▁위주	-10.8065
▁특수	-10.8071
▁젖	-10.8083
▁바뀌었	-10.8084
했어	-10.8088
▁취득	-10.8089
▁않았기	-10.8091
가능하다고	-10.8092
▁여행할	-10.8093
▁다녔	-10.8096
▁없애	-10.8096
▁않을래	-10.8107
▁편안	-10.8111
▁흔히	-10.8112
▁구매했는데	-10.8117
▁되었는지	-10.8118
▁납기	-10.8119
▁노력해야	-10.8127
▁여태	-10.8128
킬	-10.8129
소한	-10.8136
▁캘리포니아	-10.8138
▁아쉽게	-10.8139
▁가난한	-10.814
▁특이한	-10.8149
▁수납	-10.8155
▁해결해야	-10.8156
▁표현할	-10.8157
▁됐	-10.8159
▁얼마인지	-10.8163
▁이루고	-10.8163
해주십시오	-10.8165
▁뚜껑	-10.8166
▁중요하지	-10.8171
▁노력해	-10.8181
하여야	-10.8185
▁리가	-10.8192
▁팀원	-10.8196
냐고	-10.8197
▁노동	-10.8201
▁소송	-10.8201
▁늘어나	-10.8202
▁감사하고	-10.8202
▁보석	-10.8206
▁안전하	-10.8209
▁일과	-10.821
▁가져야	-10.8214
▁해드릴	-10.8215
막	-10.8216
▁영웅	-10.8228
▁가실	-10.8228
▁음식물	-10.823
▁진행하기	-10.823
▁메	-10.8233
▁나오고	-10.8234
▁업계	-10.8239
▁하더라	-10.8239
▁일본인	-10.8241
▁낸	-10.8245
실래요	-10.8246
은행	-10.8248
인실	-10.8248
▁절반	-10.8253
▁무기	-10.8258
▁미스터	-10.826
쉽습니다	-10.8261
▁시간표	-10.8264
▁발목	-10.8266
▁내용입니다	-10.8267
▁중단	-10.8271
▁가져갈	-10.8273
▁출연	-10.8274
▁사과드립니다	-10.8277
▁잠금	-10.8287
▁눈치	-10.8287
▁IP	-10.8295
▁바이러스	-10.8295
▁토대	-10.8296
▁발견했	-10.8296
자의	-10.83
▁계	-10.8302
▁재산	-10.8304
▁그래픽	-10.8311
▁겪고	-10.8311
▁키우는	-10.8314
▁나누고	-10.8318
▁물론입니다	-10.8321
▁비판	-10.8322
▁조화	-10.8326
▁해낼	-10.8331
▁태어났	-10.8333
▁움직이는	-10.8334
▁원해	-10.8335
▁존경하는	-10.8338
▁29	-10.8349
▁한쪽	-10.8355
▁오로	-10.8362
▁진단	-10.8365
▁강하게	-10.8366
▁제안서	-10.837
▁자서	-10.8377
▁통일	-10.8378
학과	-10.8378
▁처	-10.8379
▁기차역	-10.8382
▁환급	-10.8385
노	-10.8388
▁하라고	-10.839
▁잘라	-10.8394
▁맞추어	-10.8394
▁갖다	-10.84
▁생각했어	-10.8405
▁여름방학	-10.8407
▁철저	-10.8409
▁컨디션	-10.8412
▁다행입니다	-10.8412
거든	-10.8414
▁한다	-10.8416
▁늦지	-10.8416
▁제주	-10.8418
▁짜	-10.8418
▁성향	-10.8422
▁함께할	-10.8423
바로	-10.8424
▁무상	-10.8424
▁소개하고	-10.8428
▁않았던	-10.8432
▁제공됩니다	-10.8434
▁틀린	-10.8436
▁역사적	-10.8441
봅니다	-10.8441
▁어른들	-10.8447
▁의뢰	-10.8451
▁힘듭니	-10.8453
▁사탕	-10.8455
하죠	-10.846
있나요	-10.8464
▁시도해	-10.8473
▁변경해	-10.8474
엄	-10.8476
▁세탁기	-10.8478
▁경로	-10.848
▁종합	-10.848
▁진행되는	-10.8487
▁만났을	-10.85
▁아시	-10.8504
▁직	-10.8504
▁밀	-10.8505
쁘게	-10.8505
▁연료	-10.8506
▁넣는	-10.8509
▁테이프	-10.8513
▁R	-10.8514
▁말했어	-10.8516
▁퇴원	-10.8522
▁가져올	-10.8522
▁출국	-10.8523
▁섞	-10.8525
였던	-10.8526
된다면	-10.8528
▁가보	-10.8529
션	-10.8531
주길	-10.8533
▁청	-10.8534
▁중독	-10.8537
▁제임스	-10.8546
▁리더십	-10.8546
▁그런가	-10.8547
▁감성	-10.855
▁엔진	-10.8551
▁재학	-10.8552
해줍니다	-10.8554
페이지	-10.8554
▁구매하	-10.8555
▁않다면	-10.8557
▁유용한	-10.8564
▁계산대	-10.8564
▁기업들	-10.8567
▁0	-10.8571
▁관광객들	-10.8574
▁계획하고	-10.858
▁에어	-10.8581
▁두통	-10.8582
▁인류	-10.8582
새	-10.8583
▁쉽고	-10.8585
▁대안	-10.8588
▁설레	-10.8598
저녁	-10.86
▁서류들	-10.8603
▁바빠	-10.8604
▁믿는	-10.8606
▁정장	-10.8606
▁굴	-10.8608
▁제어	-10.862
모	-10.8621
▁걸릴까	-10.8622
▁하우스	-10.863
▁전달할	-10.8631
레이터	-10.8632
▁아닌가	-10.8635
유로	-10.864
환경	-10.8641
주의	-10.8647
▁취급	-10.8653
▁거라는	-10.8656
▁놀라운	-10.8656
▁둘러보	-10.8658
▁통보	-10.8666
▁검토하고	-10.8668
▁꾸	-10.8671
▁결합	-10.8672
주어야	-10.8672
▁고급	-10.8675
▁힘들지	-10.8676
▁숨겨	-10.8678
렴	-10.8679
▁낯선	-10.8687
▁유니폼	-10.8689
▁몸무게	-10.8689
▁괜찮으세요	-10.8695
▁치아	-10.8696
▁있던데	-10.8698
▁프로세스	-10.8701
▁대체로	-10.8701
▁헤드	-10.8702
▁육수	-10.8704
하시겠습니까	-10.8704
▁있겠네요	-10.8706
K	-10.8706
▁괜찮다고	-10.8709
▁취해	-10.871
▁전통적	-10.8711
▁많았어요	-10.8714
▁진행하면	-10.8714
생활	-10.8714
▁때면	-10.8716
▁팔찌	-10.8718
▁이루	-10.872
▁비상	-10.8723
▁문학	-10.8723
▁내리면	-10.8723
▁필요성	-10.8727
▁신입사원	-10.8729
▁알겠어요	-10.873
▁제출하	-10.8731
▁나왔	-10.8733
▁역량	-10.8741
▁좋을지	-10.8742
▁복용	-10.8743
▁해소	-10.8744
▁전문점	-10.8755
▁아름답고	-10.876
올	-10.876
공	-10.8763
▁흑인	-10.8764
▁방과	-10.8771
▁놓은	-10.8775
▁빠르	-10.8776
▁건축물	-10.8791
▁보수	-10.8792
져서	-10.8797
▁바꿔야	-10.88
▁줄여	-10.8802
츠	-10.8803
▁메신저	-10.8809
능력	-10.8816
▁예정인데	-10.8818
▁가져다주	-10.8819
▁침해	-10.8824
▁진동	-10.8827
▁보였	-10.8829
▁두려워	-10.8831
▁압니다	-10.8831
▁없으니까	-10.8832
타	-10.8833
▁머릿속	-10.8833
▁사은품	-10.8833
▁머무를	-10.8833
▁부동산	-10.8834
▁회장님	-10.8834
▁카테고리	-10.8835
▁선생님들	-10.8836
▁먹었는데	-10.8837
▁식감	-10.8838
세트	-10.8838
▁도와드릴까요	-10.8838
▁보드	-10.8839
▁귀여워	-10.884
▁팩스	-10.884
▁원하시나요	-10.8841
▁건강하고	-10.8842
▁스페인어	-10.8844
용품	-10.8847
▁아메리카노	-10.885
▁인지	-10.885
▁낭비	-10.8852
▁갖추고	-10.8855
▁괜찮나요	-10.8856
▁생각하니	-10.8856
▁곰	-10.8859
▁데스크	-10.8859
▁독서	-10.886
▁수하물	-10.8862
▁찬성	-10.8863
었다	-10.8865
▁직무	-10.8868
▁말해야	-10.8868
▁깨끗하	-10.8869
럼	-10.8869
▁잤어요	-10.8871
▁주름	-10.8872
▁바가	-10.8874
마리	-10.8876
▁계획이에요	-10.8876
▁폰	-10.888
▁계십니	-10.8881
▁공공	-10.8887
▁결제할	-10.8887
▁자랑	-10.8888
대의	-10.8893
▁그릴	-10.8895
▁광주	-10.8899
내용	-10.8899
▁조심해	-10.8904
▁프레임	-10.8904
▁얻고	-10.8904
▁교환학생	-10.8904
▁예정이니	-10.8909
▁경계	-10.8912
▁설거지	-10.8914
▁이해해주	-10.8918
▁비롯	-10.8921
▁가셔야	-10.8921
▁독자	-10.8924
▁압박	-10.8926
▁갔었	-10.8929
▁운동하는	-10.893
▁틀림없	-10.8934
▁바라는	-10.8936
▁모래	-10.8938
▁잘해	-10.894
▁보내길	-10.8944
▁고개	-10.8944
▁했지	-10.8946
▁탔	-10.8948
락	-10.8949
▁뿌려	-10.8956
▁보냈는데	-10.8957
▁쌓	-10.8962
▁플레이	-10.8966
▁줄어들	-10.8966
▁돌아가는	-10.897
▁건너편	-10.897
▁냉동	-10.8974
▁여쭤보	-10.8979
▁대충	-10.8979
▁내린	-10.898
▁이어폰	-10.8981
▁코멘트	-10.8981
▁무거운	-10.8981
▁도와드릴	-10.8981
▁티브이	-10.8981
▁스카이프	-10.8982
▁인권	-10.8983
▁계산서	-10.8983
영	-10.8984
▁도착하기	-10.8986
▁샵	-10.8986
▁잃어버렸	-10.8987
▁프런트	-10.8987
▁덮	-10.8988
▁구축	-10.899
▁물어보세요	-10.8991
목이	-10.8992
▁사생활	-10.8993
▁모레	-10.8995
▁유저	-10.8999
▁복도	-10.9004
▁보기엔	-10.9005
▁경찰관	-10.9006
눈	-10.9008
설	-10.9009
보는	-10.9009
▁장학금	-10.9016
▁금일	-10.9019
▁결심	-10.9021
▁필요해서	-10.9022
짜리	-10.9023
▁감상	-10.9023
▁방문하고	-10.9024
▁여분	-10.9027
▁원격	-10.9028
▁원칙	-10.9037
하긴	-10.9041
▁합리적인	-10.9041
▁칩	-10.9045
▁됐는데	-10.9046
▁들으면	-10.9049
▁배워야	-10.905
▁작성해야	-10.9051
봐	-10.9058
▁보내드릴	-10.9068
▁보이게	-10.907
▁존재하는	-10.907
▁요청하는	-10.9073
▁약한	-10.9077
째	-10.908
▁가루	-10.9082
랍니다	-10.9087
▁선거	-10.9087
▁저런	-10.9087
▁미안	-10.9091
▁로션	-10.9092
었을	-10.9092
▁기뻤	-10.9095
▁영업팀	-10.9095
▁추천하고	-10.9096
▁부러워	-10.9096
▁이길	-10.9102
▁불안	-10.9104
▁끔찍	-10.9106
▁J	-10.9109
▁명은	-10.9111
▁버리고	-10.9112
됐습니다	-10.9114
▁보여주	-10.9115
▁목숨	-10.9115
▁지났는데	-10.9115
▁않니	-10.9121
▁안정	-10.9127
▁캠페인	-10.913
▁어딘지	-10.913
▁바이올린	-10.9131
가격	-10.9132
▁오프라인	-10.9132
▁아쉽네요	-10.9135
▁재물	-10.9137
▁쓰레기통	-10.9138
▁여보	-10.9139
▁유사한	-10.9143
▁잡는	-10.9143
▁입찰	-10.9148
▁신중	-10.9149
▁같기	-10.9154
▁들어오면	-10.916
시설	-10.916
▁어렵지	-10.9161
▁있거든요	-10.9162
▁알려줄게	-10.9172
▁부자	-10.9179
▁간절	-10.9179
했기	-10.9181
▁그전	-10.9181
▁착각	-10.9182
▁기억나	-10.9185
▁즐거워	-10.9186
▁지나서	-10.9189
치고	-10.9195
▁취소해	-10.9197
▁주문하려고	-10.9197
▁덜어	-10.9198
▁욕	-10.9198
▁생각하며	-10.92
▁덕	-10.9201
▁정기적	-10.9211
였으면	-10.9211
▁한류	-10.9212
▁빨래	-10.922
▁점차	-10.9221
▁먹이	-10.924
7	-10.9246
▁어렵	-10.9259
▁이따	-10.9259
▁맡아	-10.9262
뜩	-10.9263
대요	-10.9266
▁끝낼	-10.9267
▁나누	-10.9268
▁우리들	-10.927
▁추천하는	-10.9278
▁기구	-10.9278
▁얘기하는	-10.9282
▁설문조사	-10.9283
▁룸서비스	-10.9283
▁재생	-10.9287
▁양파	-10.9288
▁로그	-10.9288
▁밀가루	-10.9289
▁2018	-10.9291
▁마우스	-10.9291
▁텍스트	-10.9291
▁사항들	-10.93
▁작동하지	-10.93
▁청바지	-10.9303
▁후회하지	-10.9304
무	-10.9307
하곤	-10.9307
▁고맙고	-10.931
겠군요	-10.9314
▁끌	-10.932
▁W	-10.9324
▁지폐	-10.9326
▁묘사	-10.9328
령	-10.9328
▁나아가	-10.9328
▁그랬어	-10.9332
원이고	-10.9332
▁보이기	-10.9336
▁버리	-10.9338
일간	-10.934
▁못하지만	-10.9341
▁쉽	-10.9343
▁유감	-10.9346
▁입니다	-10.9347
▁흔들리	-10.9348
▁갖는	-10.9357
▁힘들어서	-10.9359
▁정품	-10.9362
▁벨트	-10.9363
▁소개하겠	-10.9375
▁꺼	-10.9378
▁회장	-10.938
▁괜	-10.9389
▁등장	-10.9392
▁재미있	-10.9394
▁조심해야	-10.9396
▁단어들	-10.9402
▁지키는	-10.9403
▁바비큐	-10.9404
▁권력	-10.9406
▁느끼지	-10.9409
▁기념일	-10.9412
▁의해서	-10.9414
▁참석할	-10.942
▁둔	-10.9422
▁차지	-10.9425
▁회전	-10.9428
▁걷기	-10.9428
L	-10.943
▁실시	-10.9434
▁관리하는	-10.9437
드리지	-10.9437
▁잔디	-10.9438
▁밤늦게	-10.9438
▁방수	-10.9438
▁대화할	-10.9439
▁금속	-10.9445
▁불꽃	-10.9445
▁철학	-10.9447
▁무선	-10.9452
▁들었다	-10.9453
▁게스트	-10.9456
▁연락하	-10.9461
▁때문이죠	-10.9465
▁유발	-10.9468
▁스트랩	-10.9471
▁빠르고	-10.9472
▁망고	-10.9472
냐	-10.9472
▁걸리	-10.9477
▁좋아하지만	-10.9478
▁나네	-10.948
▁샀어	-10.9481
▁대사관	-10.9483
▁포함하여	-10.9485
▁것이야	-10.9485
▁알려드리	-10.9486
▁있겠어요	-10.9487
▁포기하	-10.949
▁인종	-10.949
▁맞고	-10.9494
▁구매하려고	-10.9496
▁바른	-10.9497
이어야	-10.9502
▁뵙	-10.9502
▁묻고	-10.9502
▁운동장	-10.9502
▁태그	-10.9504
▁친절하고	-10.9505
▁일어나고	-10.9509
▁액체	-10.9509
▁닿	-10.951
▁홈	-10.9515
▁전문적	-10.9518
▁타기	-10.952
▁싱글	-10.9522
▁리그	-10.9525
▁힘들었어	-10.9526
▁제외	-10.9529
▁탄생	-10.9534
▁노출	-10.9535
▁행정	-10.9542
▁하길	-10.9542
▁요소들	-10.9544
시는	-10.9546
▁달리기	-10.9546
▁모르니	-10.9548
▁지불할	-10.956
▁실천	-10.9561
너	-10.9562
▁나오기	-10.9565
▁들어가기	-10.9567
▁저렴	-10.9569
▁오라고	-10.9569
▁사자	-10.9571
▁말해줄	-10.9576
▁파괴	-10.9579
분이면	-10.9579
▁내리고	-10.9581
▁맡기	-10.9582
▁물어볼	-10.9583
▁생겼어	-10.9583
▁예배	-10.9588
▁준비했습니다	-10.9588
▁먹으려고	-10.9589
▁렌터카	-10.9591
봐도	-10.9593
▁부엌	-10.9596
▁가치관	-10.9596
▁계신가요	-10.9599
▁같군요	-10.9601
▁젓가락	-10.9601
▁분쟁	-10.9603
▁광	-10.9603
▁귀찮게	-10.9606
기엔	-10.9606
▁강제	-10.9606
▁확인하시고	-10.9609
▁가능하세요	-10.961
▁보증	-10.9611
▁좋아하게	-10.9611
▁매점	-10.9611
▁필요하시면	-10.9612
▁들어갑니다	-10.9612
▁모여서	-10.9615
저기	-10.9616
▁핀	-10.9617
▁CD	-10.9617
▁받았고	-10.9621
▁부족해요	-10.9623
▁넘어	-10.9623
▁시작하면	-10.9624
▁않았다면	-10.9624
▁보존	-10.9624
6	-10.9629
▁초안	-10.9629
▁가르치는	-10.9631
▁했었는데	-10.9632
▁알려진	-10.9634
▁편리	-10.9634
▁왕자	-10.9637
▁시작하겠습니다	-10.9638
▁차질	-10.9639
▁외식	-10.9643
▁얘기할	-10.9643
▁직접적	-10.9645
겁니다	-10.9646
▁마시지	-10.9646
▁다른데	-10.9647
▁체	-10.9647
▁한편	-10.9653
▁닭고기	-10.9653
▁굽	-10.9653
▁받았다	-10.9654
▁예쁘고	-10.9655
▁술집	-10.9656
▁살아가	-10.9656
▁넘버	-10.9658
봉	-10.9659
하는지	-10.9662
▁허	-10.9664
▁결과물	-10.9665
▁줄이고	-10.9672
▁나타	-10.9674
▁되겠	-10.968
▁공부하기	-10.9682
▁지루	-10.9693
▁실례	-10.9696
▁만두	-10.9697
▁살았	-10.9698
▁모으	-10.9705
▁유지하는	-10.9708
▁맵	-10.9709
키	-10.9715
▁떠난	-10.9716
▁이동할	-10.9718
보았어요	-10.972
▁유도	-10.9727
▁수강	-10.9727
▁살지	-10.9728
▁겁	-10.9729
▁프라이	-10.9734
▁닮	-10.9737
를	-10.9742
▁물리치료	-10.9742
▁아름다워	-10.9742
▁녹음	-10.9743
▁여지	-10.9744
▁거주	-10.9745
▁피곤한	-10.975
▁최상	-10.975
▁제휴	-10.975
▁스타벅스	-10.9751
▁에이전시	-10.9751
▁커뮤니티	-10.9751
▁아쉽지만	-10.9752
▁강점	-10.9753
▁한마디	-10.9753
▁분실물	-10.9754
▁비교적	-10.9754
▁구운	-10.9754
▁하루하루	-10.9755
▁아이콘	-10.9756
▁개인정보	-10.9757
▁워크숍	-10.9757
▁남았는데	-10.9758
▁반갑습니다	-10.9759
▁가능하니	-10.9759
▁왕복	-10.9764
▁그렇긴	-10.9765
▁휴지	-10.9765
▁테러	-10.9766
▁마법	-10.977
▁몰랐습니다	-10.9775
▁I	-10.9775
▁신혼여행	-10.9776
▁관하여	-10.9778
▁존재하지	-10.9782
▁매장이	-10.9783
▁어렵게	-10.9784
▁스캔	-10.9787
▁방문하여	-10.9788
▁유아	-10.979
▁여행용	-10.9791
계획	-10.9796
▁배워	-10.9797
▁혹시나	-10.9802
▁기후	-10.9809
관리	-10.9813
▁성형	-10.9813
공부	-10.9816
▁환	-10.9817
▁가능하게	-10.9818
▁향한	-10.9825
목	-10.9826
▁미친	-10.9827
▁멀	-10.9829
▁것이니	-10.983
▁혼	-10.9831
▁확인해보고	-10.9831
▁떨어지는	-10.9836
▁마켓	-10.9836
▁최악	-10.9837
▁범인	-10.9838
▁출퇴근	-10.9843
▁정성	-10.9849
▁뼈	-10.9854
▁보내요	-10.9857
▁떨	-10.9863
▁첫날	-10.9869
인치	-10.988
요금	-10.9887
▁일이야	-10.9889
▁칵테일	-10.9892
▁생물	-10.9893
팬	-10.9894
▁트렌드	-10.9895
▁독점	-10.9899
▁펌웨어	-10.9911
▁녹차	-10.9911
▁첫인상	-10.9912
▁선호하는	-10.9919
▁손목	-10.992
▁지킬	-10.9921
▁매너	-10.9921
▁완료되면	-10.9922
▁추워서	-10.9924
▁붉은	-10.9924
▁자라	-10.9924
▁공부해서	-10.9925
▁불러주세요	-10.9927
▁임금	-10.9928
▁캔	-10.9929
▁볶음밥	-10.9929
▁친척들	-10.9929
▁시작하고	-10.9932
▁잭	-10.9933
▁전주	-10.9934
▁잠들	-10.9934
▁바라며	-10.9938
커	-10.9938
▁변형	-10.9939
▁다녀왔어요	-10.9939
▁하겠어요	-10.994
▁움직일	-10.9942
▁스튜디오	-10.9944
▁듯한	-10.9944
▁물류	-10.9945
▁피곤해요	-10.9948
▁근	-10.9951
▁서울역	-10.9953
▁변수	-10.9954
▁사용하실	-10.9955
▁원하고	-10.9956
▁좋아하세요	-10.9958
▁판매대	-10.9958
▁물어보	-10.9959
▁피곤해	-10.996
▁누르면	-10.9964
▁세안	-10.9964
▁좋기	-10.9964
▁체결	-10.9965
▁보았다	-10.9968
당신	-10.9971
▁하네	-10.9979
운동	-10.9982
▁샷	-10.9989
▁가공	-10.9994
▁매운맛	-10.9994
▁무서워	-10.9996
▁먹을까	-11.0002
▁있대	-11.0006
▁출판	-11.0011
▁찾아봐	-11.0011
▁임	-11.0013
▁시합	-11.0015
▁적절	-11.0018
▁합	-11.0033
▁마크	-11.0036
는데요	-11.004
따라	-11.0043
▁때문이	-11.0044
▁추세	-11.0044
▁검토해	-11.0045
▁지혜	-11.005
▁주간	-11.0052
▁말씀드리겠	-11.0055
▁레	-11.0059
겠어	-11.006
▁놀랐	-11.0063
▁없어도	-11.0066
▁공유해	-11.0066
▁참여하	-11.0069
▁평	-11.0069
▁진행한	-11.0069
▁왔는데요	-11.0072
▁옮길	-11.0073
▁공짜	-11.0076
▁룸메이트	-11.0076
▁말했듯이	-11.0079
▁생각해서	-11.008
▁유전자	-11.0081
▁축하드립니다	-11.0082
▁이루어집니다	-11.0083
▁비쌉니	-11.0083
▁귀걸이	-11.0083
▁없는데요	-11.0083
▁식단	-11.0085
▁동화	-11.009
앤	-11.0091
▁미만	-11.0093
▁되겠네요	-11.0094
▁마늘	-11.0094
▁글쎄요	-11.0095
▁걷고	-11.0096
▁마스터	-11.01
컵	-11.01
▁기온	-11.01
▁고속도로	-11.0101
▁35	-11.0103
출	-11.0103
▁깨달았	-11.0104
▁가르치	-11.0106
▁많지만	-11.0108
▁궁금해서	-11.011
방식	-11.0112
▁조금이라	-11.0114
▁소량	-11.0116
▁신이	-11.012
▁작품들	-11.012
시입니다	-11.012
▁맡길	-11.0125
▁열릴	-11.0126
▁멈춰	-11.0128
▁주님	-11.0128
▁떨어져서	-11.013
사이즈	-11.0132
▁있잖아요	-11.0133
▁공휴일	-11.0134
▁소망	-11.0134
P	-11.0135
▁전적	-11.0138
▁고맙다	-11.0141
시키고	-11.0142
▁유용	-11.0147
▁되었	-11.0154
▁났어	-11.0154
▁소속	-11.0154
정해서	-11.0155
달러입니다	-11.0157
▁회색	-11.0173
▁못하면	-11.0178
▁다루는	-11.0179
▁맞은	-11.0179
직	-11.0181
▁편리한	-11.0184
▁턱	-11.0186
▁지났	-11.0188
해주신	-11.0191
▁용서	-11.0193
▁추구	-11.0194
▁제공되는	-11.0196
▁삽니	-11.0197
▁깔	-11.0197
칩니다	-11.0199
▁마련되어	-11.02
른	-11.0205
▁장기	-11.0206
▁표지판	-11.0206
▁들어오지	-11.0207
▁이대로	-11.0209
▁피고	-11.0217
▁나가면	-11.0218
▁찾으시는	-11.0223
▁있었기	-11.0224
▁살아야	-11.0225
르	-11.0226
것들	-11.0227
▁무섭	-11.0227
▁편의	-11.023
▁올리는	-11.0231
▁카톡	-11.0239
▁마이클	-11.0242
▁몸매	-11.0244
▁성공한	-11.0246
▁가져다드릴게요	-11.0247
▁눈썹	-11.025
▁일회용	-11.0251
▁천장	-11.0251
카	-11.0251
▁폐	-11.0252
▁교재	-11.0254
▁재능이	-11.0255
▁중점	-11.0255
▁줄이기	-11.0256
▁위쪽	-11.0258
▁원치	-11.0258
▁뒷면	-11.0261
▁자정	-11.0263
▁사막	-11.0263
▁사내	-11.0263
▁바구니	-11.0267
업무	-11.0268
▁글씨	-11.0269
▁맞춤	-11.0273
▁비어	-11.0277
▁발이	-11.028
▁알려줄게요	-11.028
▁낫지	-11.0283
받고	-11.0284
▁선택하	-11.0284
▁확인해보	-11.0287
▁싫어해요	-11.0288
▁모르는데	-11.0296
일입니다	-11.0296
▁농장	-11.0299
▁올리고	-11.0299
▁결정하는	-11.0299
이군요	-11.0301
▁모형	-11.0302
▁충전기	-11.0303
▁심각	-11.0306
▁볼펜	-11.0306
▁공식적	-11.0312
▁구매하는	-11.0312
▁다녀와	-11.0314
▁독	-11.0317
▁적성	-11.032
▁직전	-11.0325
▁접촉	-11.0325
▁운동할	-11.0332
▁회사입니다	-11.0334
▁포도	-11.0336
▁불어	-11.0337
▁챙기	-11.034
듯	-11.0346
▁좋았다	-11.0348
▁바위	-11.0349
▁먹었다	-11.0349
▁가능하고	-11.0356
▁마라	-11.0358
▁겸	-11.0359
▁의향	-11.0361
다시	-11.0363
인가	-11.0368
▁갈아	-11.0368
▁없어서요	-11.0369
▁문의하	-11.037
▁가득한	-11.037
▁태워	-11.037
보자	-11.0372
▁월드	-11.0372
▁많으니	-11.0372
▁보신	-11.0373
하였고	-11.0373
문화	-11.0373
▁느껴지	-11.0373
▁가능합니	-11.0374
하다는	-11.0375
▁닦아	-11.038
▁묵	-11.038
▁입력해	-11.0381
er	-11.0382
▁자료들	-11.0382
▁다수	-11.039
▁발송할	-11.0391
▁좋겠는데	-11.0394
▁섬유	-11.0396
재	-11.0397
▁높여	-11.0401
▁다음날	-11.0405
▁예뻐	-11.0407
▁들어가야	-11.0407
▁친구야	-11.0408
▁좋아하	-11.041
▁경복궁	-11.0411
▁에세이	-11.0411
▁월드컵	-11.0411
▁주려고	-11.0412
▁진한	-11.0412
▁드론	-11.0414
▁자유로운	-11.0414
▁뿌듯	-11.0414
▁가능해	-11.0415
▁시간이에요	-11.0415
▁커튼	-11.0417
빨리	-11.0418
▁숟가락	-11.0419
▁욕실	-11.0422
▁기다리셔야	-11.0423
▁확인하기	-11.0423
▁궁금하신	-11.0423
보드	-11.0425
▁스위치	-11.0428
▁높아	-11.0431
▁당신네	-11.0431
▁친척	-11.0437
▁끝났습니다	-11.0438
▁사다	-11.0438
▁키우고	-11.0438
▁명소	-11.0438
탕	-11.044
▁수신	-11.0442
▁유명해요	-11.0442
톤	-11.0443
▁깊었	-11.0445
▁더이상	-11.0445
▁도둑	-11.0445
▁담은	-11.0446
강	-11.0446
▁정문	-11.0448
▁사람이라고	-11.0449
▁시차	-11.0466
▁연락하고	-11.0467
▁레몬	-11.0469
▁곡선	-11.047
▁나왔는데	-11.0472
▁졸업하고	-11.0479
▁통계	-11.0482
갈까요	-11.0485
▁지냈	-11.0486
입	-11.0486
▁불가	-11.0486
▁도와주고	-11.0489
받았던	-11.0492
▁멋져	-11.0493
▁이루어진	-11.0493
▁확인하	-11.0494
▁하셔서	-11.0496
▁알아볼	-11.0496
▁신속	-11.0498
▁피해자	-11.05
▁받으세요	-11.0502
▁준비된	-11.0506
찾은	-11.0509
▁커지	-11.0509
▁국	-11.0511
▁참여하는	-11.0512
▁진행하	-11.0513
▁조개	-11.0521
▁운전할	-11.0522
▁신상품	-11.0523
연	-11.0523
▁파도	-11.0525
해보고	-11.0526
▁차트	-11.0526
▁피우	-11.0528
대회	-11.0528
▁불쾌	-11.0529
▁아플	-11.0532
리는	-11.0537
셨으면	-11.0542
▁사물	-11.0542
▁위함	-11.0544
▁남아있	-11.0548
볼게요	-11.0549
▁누군	-11.0549
서비스	-11.055
▁걱정돼	-11.0553
향	-11.0558
▁보시는	-11.0561
▁잘못한	-11.0562
▁나누는	-11.0565
▁X	-11.0565
몹	-11.0566
▁삽	-11.0568
▁없잖아	-11.0576
▁하시고	-11.0578
▁상대적	-11.0581
▁어둠	-11.0581
▁자외선	-11.0582
▁위원회	-11.0583
▁자존심	-11.0583
▁하룻밤	-11.0583
▁뽀로로	-11.0583
▁선풍기	-11.0585
▁엉덩이	-11.0586
▁시작해	-11.0587
▁입지	-11.0587
▁환상	-11.0588
▁달라질	-11.0589
▁담고	-11.0592
▁커피숍	-11.0599
▁타지	-11.06
▁중요하지만	-11.06
▁날개	-11.0603
▁가려	-11.0604
▁버스정류장	-11.0605
▁썼어요	-11.0607
▁원하	-11.0607
▁행성	-11.0608
▁아니라는	-11.0609
▁벗어	-11.0611
T	-11.0614
▁이야기하는	-11.0615
▁지나가는	-11.0615
▁대책	-11.0619
▁교	-11.0621
▁발효	-11.0625
▁스트레칭	-11.0626
▁소독	-11.063
▁한동안	-11.0637
닙니다	-11.0638
▁위생	-11.0638
▁탄력	-11.0639
되어서	-11.064
▁책들	-11.0641
▁무엇입니	-11.0642
d	-11.0644
▁지배	-11.0644
▁이해합니다	-11.0646
▁늦잠	-11.0647
▁축	-11.0648
▁해준	-11.065
▁충족	-11.0651
▁가위	-11.0655
▁정산	-11.0658
▁창업	-11.0662
▁최종적	-11.0666
▁안됩니다	-11.0669
▁있는지요	-11.0671
▁요리하는	-11.0675
▁바를	-11.0679
▁있다니	-11.0682
▁썩	-11.0683
▁먹으면서	-11.0685
▁이리	-11.0688
▁줬어	-11.0689
▁보습	-11.0689
▁적도	-11.0691
▁강력	-11.0693
▁않았다고	-11.0694
▁자신만	-11.0696
▁담요	-11.0697
▁되지만	-11.0701
▁정기	-11.0704
▁맞이	-11.0707
했었어요	-11.0709
▁해결하는	-11.0713
▁마주	-11.0718
▁않다는	-11.0725
▁말자	-11.073
▁선배	-11.0732
▁힘들었	-11.0738
해줘	-11.0739
▁가자고	-11.0739
▁오겠습니다	-11.0741
▁도착합니다	-11.0742
▁알겠어	-11.0743
▁꾸준	-11.0743
셨습니다	-11.0744
스컬	-11.0757
▁유머	-11.0757
▁설마	-11.0758
▁골고루	-11.0759
▁트위터	-11.0759
▁꿈꾸	-11.0759
▁우울증	-11.0759
▁드라이브	-11.076
▁부작용	-11.076
▁어째서	-11.076
▁기쁜	-11.0763
▁환전소	-11.0764
▁물어보는	-11.0767
▁지인	-11.0769
▁물어본	-11.0771
▁지연되고	-11.0772
▁볼거리	-11.0772
▁신용장	-11.0772
▁집중력	-11.0773
밥	-11.0774
▁이베이	-11.0775
▁마카오	-11.0776
우리	-11.0776
▁청소기	-11.0777
▁그러시면	-11.0777
해봅시다	-11.0778
▁늦었습니다	-11.0779
▁놀랐어요	-11.0779
▁없어졌	-11.0781
▁그래프	-11.0782
▁취소할	-11.0783
▁만들었어	-11.0784
▁상단	-11.0785
▁복장	-11.0786
▁컸	-11.0789
▁폭발	-11.0789
▁살인	-11.0789
▁열린	-11.0793
호텔	-11.0796
▁심하	-11.0799
▁모터	-11.0799
렛	-11.0804
▁다니기	-11.0806
▁주셔	-11.081
▁먹었	-11.0816
▁150	-11.0818
▁전문가들	-11.0819
▁걸어가	-11.082
▁밝고	-11.0822
▁통로	-11.0823
▁돌아온	-11.0826
▁출발할	-11.0826
▁계산할	-11.0827
▁음주	-11.0831
▁나타냅니	-11.0833
▁똑같	-11.0834
▁교환해	-11.0846
▁쉬워	-11.0847
▁행복했어요	-11.0849
▁개발자	-11.085
▁갈지	-11.0853
▁필요한지	-11.086
▁포함해	-11.0861
▁시쯤	-11.0864
▁V	-11.0864
▁엄격	-11.0869
▁맞추기	-11.0869
▁물리적	-11.0873
▁아니라서	-11.0874
▁90	-11.0875
▁보내려고	-11.0876
▁닦	-11.0877
술	-11.088
교	-11.0883
이었는데	-11.0884
▁갈아타	-11.0888
▁떠났	-11.089
▁은퇴	-11.0899
▁첨부하여	-11.09
▁협회	-11.09
▁문제인지	-11.09
▁환영	-11.0905
놓은	-11.0908
▁주문하	-11.0909
▁일하면서	-11.0913
▁어딘가	-11.0915
▁모르겠네	-11.0919
▁지원한	-11.0921
▁설치되어	-11.0924
▁주신다면	-11.0924
▁지켜보	-11.0926
▁있겠어	-11.0931
▁수박	-11.0932
▁바깥	-11.0934
▁슈퍼	-11.0936
▁디테일	-11.0937
▁인내심	-11.0938
▁알람	-11.0938
▁놀이공원	-11.0939
▁해운대	-11.0939
▁아시다시피	-11.094
▁특성상	-11.0943
▁바뀔	-11.0943
▁맞출	-11.0944
▁당연하지	-11.0948
▁기르	-11.0949
▁빚	-11.0955
▁게시판	-11.0955
▁줄거리	-11.0957
▁경고	-11.0959
▁참치	-11.096
▁모험	-11.096
▁일해요	-11.096
▁어렵고	-11.0963
▁들어와서	-11.0963
▁들어야	-11.0963
▁돈가스	-11.0964
▁효율성	-11.0965
▁참석하	-11.0966
▁저렇게	-11.0967
▁생각하게	-11.0968
▁제인	-11.0968
▁언급한	-11.0969
같이	-11.097
▁끓여	-11.0981
▁골목	-11.0981
해주기	-11.0986
▁로드	-11.0986
▁연락하지	-11.0987
B	-11.0989
▁재미있고	-11.099
▁적용되는	-11.0991
▁장착	-11.0991
▁보내주면	-11.0992
▁논쟁	-11.0993
▁아니기	-11.0993
▁고객센터	-11.0994
▁하셨어요	-11.0994
열	-11.0994
▁없었습니	-11.0995
▁나타나는	-11.0997
▁크지	-11.0998
▁전공하고	-11.0999
널리	-11.1
▁공부해야	-11.1003
팔	-11.1006
▁원입니다	-11.1011
▁발휘	-11.1011
▁박사	-11.1014
▁유지할	-11.1023
기술	-11.1026
▁외롭	-11.1026
▁주문해	-11.1027
▁요청할	-11.103
▁중량	-11.1036
▁요청하고	-11.1037
▁작게	-11.1041
▁들어왔	-11.1042
▁연결되어	-11.1056
▁살펴보	-11.1056
▁어울리	-11.1061
▁주목	-11.1062
▁돌보	-11.1062
▁사랑하지	-11.1064
▁구입	-11.1066
맛	-11.1068
▁이끌어	-11.1071
▁극	-11.108
끔	-11.108
장치	-11.1085
고자	-11.1086
▁시안	-11.1087
▁이집트	-11.1091
▁생산하는	-11.1097
▁재료들	-11.1099
에도	-11.11
▁자랑스럽	-11.11
▁자부	-11.1102
▁충고	-11.1105
▁얻어	-11.1112
▁비전	-11.1112
▁보셨나요	-11.1114
▁본격적	-11.1115
▁소풍	-11.1118
▁모공	-11.1121
▁어떠신가요	-11.1122
▁싶었지만	-11.1125
▁필요하신가요	-11.1126
▁터치	-11.1129
▁확실하지	-11.1129
▁시작된	-11.1132
▁베개	-11.1133
▁공룡	-11.1134
▁당사자	-11.1137
▁돌아왔습니다	-11.1144
▁사귀고	-11.1144
▁귀가	-11.1146
▁맞는데	-11.115
▁음식이에요	-11.1151
▁찾았습니다	-11.1152
▁이번주	-11.1153
겠다는	-11.1153
▁있군요	-11.1155
▁여왕	-11.1158
▁개설	-11.1159
▁근본적	-11.1159
▁가격표	-11.1161
▁색은	-11.1161
▁아니었어요	-11.1162
▁함유	-11.1164
▁제시한	-11.1167
▁시작하	-11.1167
▁취한	-11.1173
해질	-11.1181
▁큰일	-11.1181
▁자막	-11.1183
▁닉	-11.1184
▁보네	-11.1186
▁운전하는	-11.1188
▁바쁠	-11.1192
▁고무	-11.1193
가루	-11.1194
서류	-11.1195
송	-11.1196
▁대처	-11.1197
▁댄스	-11.1198
▁참고해	-11.1202
▁착오	-11.1204
▁있거나	-11.1206
▁국수	-11.1208
놀이	-11.1212
▁복구	-11.1214
받는	-11.1214
▁반환	-11.1217
▁키스	-11.1218
▁마셨	-11.1221
▁입어야	-11.1226
▁드려야	-11.1229
▁나아지	-11.1231
▁유행하는	-11.1238
▁끼워	-11.1244
▁기둥	-11.1245
▁중이며	-11.1246
▁글쎄	-11.1246
상태	-11.1248
신가요	-11.1248
▁미션	-11.1251
▁시작해서	-11.1252
▁생각해보	-11.1254
▁탓	-11.126
▁받아들일	-11.126
▁해봐	-11.1263
▁앉	-11.1268
였는데	-11.1269
▁교환할	-11.1275
▁오리	-11.1279
산업	-11.1279
▁아트	-11.128
▁했잖아	-11.1282
▁어린아이	-11.1283
피	-11.1297
▁진지	-11.1297
▁시야	-11.1298
▁아픔	-11.1302
▁핼러윈	-11.1303
▁감옥	-11.1303
▁하더라고요	-11.1304
▁베이징	-11.1304
▁어쩌죠	-11.1304
큐	-11.1304
▁훌륭	-11.1305
섬	-11.1306
▁제출할	-11.1306
▁전자레인지	-11.1306
▁어찌	-11.1309
▁초등학생	-11.1309
▁선사	-11.131
▁옥수수	-11.1313
▁계시나요	-11.1313
▁세부사항	-11.1314
▁미치	-11.1315
▁기억하	-11.1315
▁시간대	-11.1317
▁예약하	-11.1318
▁시럽	-11.1321
▁해보는	-11.1323
▁더블	-11.1324
▁손잡이	-11.1324
쳤어요	-11.1325
▁아이스	-11.1325
▁이루어	-11.1327
▁걸린다	-11.1328
▁원숭이	-11.1331
▁퍼	-11.1333
▁막기	-11.1336
▁얻었	-11.1337
▁시공	-11.1337
▁때입니다	-11.1338
사진	-11.1338
▁계시면	-11.1342
▁폴더	-11.1342
▁미국인	-11.1344
▁염려	-11.1345
▁올라갈	-11.1345
▁피곤할	-11.1345
▁추측	-11.1353
▁설치할	-11.1354
▁물체	-11.1356
▁추워	-11.1357
▁명함	-11.1358
▁살게	-11.1364
▁그려	-11.1365
▁보완	-11.1368
▁최적	-11.137
0	-11.1371
항	-11.1374
▁떼	-11.1382
▁어린아이들	-11.1383
▁계산해	-11.1388
▁승진	-11.139
▁콘	-11.1392
▁나는데	-11.1392
▁목욕	-11.1392
:	-11.1395
▁확인하지	-11.1396
▁도착하	-11.1398
▁프리	-11.1399
▁소시지	-11.1405
▁사용될	-11.141
▁열고	-11.1412
▁연결된	-11.1423
▁멋	-11.1423
▁레슨	-11.1424
▁추진	-11.1434
▁요약	-11.1435
이라니	-11.1438
▁고수	-11.1439
옵니다	-11.144
▁얼	-11.144
▁레이	-11.1443
▁정비	-11.1444
되었는지	-11.1448
▁확인해주시	-11.1448
▁특이	-11.1452
▁버거	-11.1457
▁비난	-11.1459
▁해봐야	-11.146
▁결혼하고	-11.146
▁품절	-11.1463
▁페	-11.1464
▁실질적	-11.1467
▁호기	-11.147
쳐서	-11.147
없는	-11.1475
▁목표입니다	-11.1476
알	-11.1477
▁깜빡	-11.1477
칼로리	-11.1477
양	-11.1478
▁이슬람	-11.1479
▁상영	-11.148
▁불렀	-11.148
하므로	-11.1481
▁퇴직	-11.1481
했거든요	-11.1484
▁다하고	-11.1485
▁얼룩	-11.149
▁언덕	-11.149
▁익숙하지	-11.1492
▁종업원	-11.1493
▁트래킹	-11.1493
▁매표소	-11.1493
▁EMS	-11.1493
▁온몸	-11.1493
▁장단점	-11.1493
▁일러스트	-11.1496
▁똑똑한	-11.1497
▁게시물	-11.1497
▁두께	-11.1497
▁무한	-11.1499
▁격려	-11.15
▁실현	-11.1501
▁광장	-11.1502
▁솔직하게	-11.1503
▁아티스트	-11.1503
▁속옷	-11.1504
보단	-11.1505
▁마약	-11.1507
▁졸	-11.1509
▁데려다주	-11.1512
▁깊	-11.1518
▁추가해	-11.1519
▁모집	-11.1519
▁에센스	-11.1521
▁살아갈	-11.1521
▁통역사	-11.1524
▁고추	-11.1524
▁어려웠	-11.1525
▁누구인지	-11.1526
▁못했는데	-11.1527
야드	-11.1531
▁올랐	-11.1532
▁통화할	-11.1532
▁어떡해	-11.1532
▁흔한	-11.1536
▁않겠어요	-11.154
▁빠졌	-11.154
▁사용하시면	-11.1543
▁껍질	-11.1545
▁뵙겠습니다	-11.1549
▁인제	-11.155
▁보충	-11.1552
▁소매	-11.1561
▁간장	-11.1561
▁봐주세요	-11.1561
르는	-11.1565
▁아니니	-11.1567
▁들어가고	-11.1568
▁재미있었어	-11.1568
▁공학	-11.157
▁화나	-11.158
화된	-11.1585
▁읽지	-11.1589
암	-11.1589
▁명확	-11.159
▁멋있어	-11.159
▁권장	-11.1593
요청	-11.1595
명입니다	-11.1597
▁해드려	-11.1604
▁대사	-11.1606
▁불평	-11.1606
▁돌아가고	-11.161
▁구하고	-11.161
▁연수	-11.1618
▁한때	-11.1621
▁심판	-11.1621
▁예정이라	-11.1623
▁공이	-11.1624
▁궁금	-11.163
▁비슷하	-11.1631
▁클릭	-11.1642
▁타자	-11.1643
▁화주	-11.1651
▁생존	-11.1654
▁지나치	-11.1655
▁Y	-11.1655
▁알맞	-11.1662
▁굉장한	-11.1669
▁말해서	-11.1673
▁앉을	-11.1676
▁떨어졌	-11.1677
▁청년	-11.1678
▁제안한	-11.168
▁푸	-11.1683
▁한가지	-11.1684
매	-11.1684
주신	-11.1685
▁스태프	-11.1685
▁외로움	-11.1685
▁장례식	-11.1686
▁아픕니	-11.1686
▁보라색	-11.1686
▁교과서	-11.1686
▁비트코인	-11.1686
▁놀이기구	-11.1686
▁놀이터	-11.1687
▁상상력	-11.1689
▁간다	-11.1689
▁마칩니다	-11.1689
측	-11.1689
▁부채	-11.1691
▁15,000	-11.1691
▁오븐	-11.1692
▁있으십니까	-11.1693
▁스피커	-11.1694
▁내서	-11.1698
▁기다리면	-11.1698
▁빠지는	-11.1698
주셔야	-11.1699
▁하나인	-11.17
▁발명	-11.17
외	-11.1701
▁몰래	-11.1702
▁편리하게	-11.1703
▁천국	-11.1704
▁참고하여	-11.1708
▁찾으세요	-11.1709
▁뭐죠	-11.1714
▁깔끔한	-11.1718
▁멀지	-11.1721
▁좋아하나요	-11.1722
▁기상	-11.1723
▁영업부	-11.1723
▁지닌	-11.1725
▁깨지	-11.1726
▁시끄럽	-11.1727
▁나오는데	-11.1728
▁결과적	-11.1733
▁물감	-11.1733
▁사랑한다고	-11.1736
▁준다면	-11.1737
▁정상적인	-11.1741
▁아프게	-11.1743
▁찾아볼	-11.1744
▁가봐야	-11.1747
▁정중	-11.1748
▁원료	-11.1749
왔어요	-11.175
▁싶나요	-11.1751
만원	-11.1751
▁바뀌	-11.1753
▁방법이에요	-11.1755
느냐	-11.1761
▁배출	-11.1767
▁빅	-11.1768
▁법원	-11.1768
▁나오게	-11.1769
▁실습	-11.1776
▁번쯤	-11.1777
▁불과	-11.1779
▁오르	-11.1781
▁극복	-11.1783
▁돕	-11.1785
▁묶어	-11.1787
방법	-11.1796
▁포크	-11.1798
▁힘내	-11.1799
▁기자	-11.18
▁수선	-11.1806
▁빠질	-11.1807
▁폴	-11.1808
▁해드릴까요	-11.181
▁해물	-11.1812
공원	-11.1817
E	-11.182
▁정답	-11.1825
보면	-11.1825
▁보내서	-11.1827
▁완성된	-11.1827
▁자국	-11.183
▁세제	-11.1831
▁헌신	-11.1836
▁재정	-11.1837
▁있으실	-11.1839
됐나요	-11.1839
▁안주	-11.1841
▁되었을	-11.1841
▁동반	-11.1843
짐	-11.1843
▁빗	-11.1844
광	-11.1845
▁이쁜	-11.185
▁버렸	-11.1852
▁제약	-11.1853
▁죽기	-11.1853
▁연락하는	-11.1854
▁누르	-11.1856
▁테	-11.1856
▁보냈던	-11.1858
▁갈비	-11.1862
▁아니었어	-11.1866
▁쳐	-11.1869
힙	-11.187
▁훔쳐	-11.1874
▁구매하면	-11.1876
▁케빈	-11.1879
▁증빙	-11.1879
▁00	-11.1879
▁정정	-11.188
▁여드름	-11.1881
▁유기농	-11.1881
▁있겠지	-11.1882
▁보너스	-11.1882
▁올라	-11.1882
▁콘크리트	-11.1882
▁대표님	-11.1884
▁싶으세요	-11.1885
▁있겠니	-11.1886
▁냄비	-11.1888
민	-11.1889
▁잔금	-11.189
▁알코올	-11.189
▁기다려주시면	-11.1891
▁맑은	-11.1892
▁석	-11.1897
▁적어주세요	-11.1897
▁죄송하게	-11.1897
▁체크해	-11.1897
▁장갑	-11.19
▁도메인	-11.19
▁전화할	-11.1901
▁셀	-11.1902
▁돌아와서	-11.1903
▁경영진	-11.1904
▁모니터링	-11.1904
▁구매하시면	-11.1905
▁면허	-11.1906
▁납부	-11.1908
▁떠	-11.1909
▁있으나	-11.191
년째	-11.1913
▁지급해야	-11.1915
▁선택하세요	-11.1915
▁입안	-11.1916
북	-11.1917
▁만났어	-11.1919
▁결정할	-11.1926
▁사려	-11.1926
▁약물	-11.1927
▁혁명	-11.1931
▁부탁드려	-11.1932
▁정보들	-11.1933
▁액션	-11.1935
▁패치	-11.1937
▁편할	-11.1938
스터	-11.1938
▁자네	-11.1947
해준	-11.1947
▁웬만	-11.195
고등학교	-11.1951
▁다치	-11.1956
일곱	-11.1958
▁그렇고	-11.1959
▁선택해	-11.1959
▁탕	-11.1959
▁본다면	-11.196
받았습니다	-11.1961
▁주가	-11.1961
▁아프고	-11.1961
▁하거든요	-11.1965
▁멋있	-11.197
▁나라들	-11.1973
▁꼬리	-11.1976
모델	-11.1977
▁전철	-11.1978
▁켜	-11.1979
▁넣으	-11.198
곡	-11.198
▁다가오는	-11.198
▁결제해	-11.1982
▁의학	-11.1984
쇼	-11.1987
▁가다가	-11.1988
▁발생하고	-11.1993
▁보냈다	-11.1996
하겠다고	-11.1998
▁하고자	-11.2002
▁있을게	-11.2002
▁약속한	-11.2009
▁시킨	-11.2009
▁재미있었	-11.2015
▁지친	-11.2016
▁국제적	-11.2019
▁받아보	-11.2021
▁언	-11.2023
것입니다	-11.2023
▁네게	-11.2027
▁우측	-11.2028
▁좋아했어요	-11.2029
▁팀장	-11.2031
▁않으셔	-11.2039
▁수상	-11.204
▁녹색	-11.204
▁함부	-11.204
▁지원하는	-11.2044
분기	-11.2046
▁죽어	-11.2046
▁금지되어	-11.2053
으려고	-11.2057
▁탈출	-11.2062
봐요	-11.2063
▁있지요	-11.2065
▁한두	-11.2071
▁발권	-11.2073
▁선적할	-11.2075
▁마케팅팀	-11.2075
▁프리미	-11.2077
▁방콕	-11.2079
▁소수	-11.208
▁플리토	-11.2081
▁시리얼	-11.2081
▁퀄리티	-11.2082
▁김치찌개	-11.2082
▁교통수단	-11.2083
▁안전벨트	-11.2083
▁괜찮으시다면	-11.2084
리라	-11.2085
▁키울	-11.2085
▁부피	-11.2086
▁그러다	-11.2087
▁통지	-11.2088
▁모시	-11.2091
▁지니고	-11.2091
▁여행객	-11.2091
▁연도	-11.2093
▁이용하기	-11.2099
▁건데요	-11.2099
▁예뻐서	-11.2101
▁뛰어나	-11.2101
▁사안	-11.2102
▁특유	-11.2103
▁가능하며	-11.2104
▁불편하	-11.2105
▁쓰던	-11.2106
▁강의실	-11.2108
▁미칠	-11.2111
▁보유	-11.2112
▁고려하여	-11.2112
▁계곡	-11.2113
▁거고	-11.2115
▁클렌징	-11.2116
끼	-11.2117
▁타워	-11.2119
▁전화할게요	-11.2119
▁버섯	-11.2119
▁캠퍼스	-11.212
▁배웠어요	-11.2122
시켰	-11.2123
▁적을	-11.2125
▁그랬어요	-11.213
▁울산	-11.2131
▁일해야	-11.2133
▁먹게	-11.2136
▁더러운	-11.2138
8	-11.2147
▁사용된	-11.2147
▁연예인들	-11.2148
▁설날	-11.2148
▁깨끗하고	-11.2149
▁있었다면	-11.2153
▁구하기	-11.2154
▁더위	-11.2158
▁들어있습니다	-11.2159
▁공유할	-11.2161
▁일어나면	-11.2164
▁걸렸	-11.2164
▁시력	-11.2166
▁있으신	-11.2166
▁빠를	-11.217
▁안건	-11.217
▁생깁니	-11.2175
대가	-11.2177
▁미세	-11.2179
▁들었	-11.2181
했다면	-11.2182
되었네요	-11.2183
▁작성한	-11.2188
▁화제	-11.2191
▁거짓	-11.2195
▁들어와	-11.2197
▁홍대	-11.2202
▁조작	-11.2204
▁용	-11.2212
▁망	-11.2214
▁다니면	-11.2215
▁문제의	-11.2224
밭	-11.2225
▁가짜	-11.2226
▁해라	-11.2226
▁선택하는	-11.2235
▁전역	-11.2241
▁걱정이에요	-11.2246
▁인공	-11.2247
▁공통	-11.225
▁감지	-11.2251
▁시티	-11.2251
▁옳은	-11.2254
V	-11.2255
▁창조	-11.2256
▁만드	-11.2257
▁작고	-11.2259
▁드리	-11.2262
▁같던데	-11.2264
▁때문이라고	-11.2265
▁밤새	-11.2265
사람	-11.2266
▁줄이는	-11.2267
▁내지	-11.2267
▁수정해	-11.227
▁성장할	-11.2274
▁깨닫	-11.2276
돌	-11.2276
겐	-11.2278
귀	-11.228
▁패스트푸드	-11.2281
▁오이	-11.2282
▁갖춘	-11.2283
해보도록	-11.2283
▁고양이들	-11.2284
▁보스턴	-11.2286
▁시드니	-11.2286
▁오리지널	-11.2286
▁파란	-11.2287
▁교통카드	-11.2288
▁찾아뵙	-11.2288
▁독감	-11.229
▁네일	-11.2292
회의	-11.2294
▁유익한	-11.2295
▁고구마	-11.2295
▁좁은	-11.2295
▁운전면허	-11.2296
▁램프	-11.2297
▁누구든	-11.2298
▁좋으면	-11.2299
적이고	-11.2301
▁순위	-11.2302
▁공문	-11.2303
▁슬프게	-11.2303
▁들려	-11.2303
▁기다리세요	-11.2305
드릴	-11.2306
▁필	-11.2308
짝	-11.2308
▁잃은	-11.2309
▁성당	-11.2311
▁지어	-11.2311
▁아침밥	-11.2312
▁횟수	-11.2312
▁티비	-11.2313
▁LED	-11.2314
하시려면	-11.2314
▁베이스	-11.2315
▁천사	-11.232
▁이용자	-11.232
▁주어	-11.2324
▁거잖아	-11.2325
▁같지만	-11.2326
▁공연장	-11.2327
▁오피스	-11.2328
▁맺	-11.2332
▁충돌	-11.2335
▁자본	-11.2337
리기	-11.2339
▁동의합니다	-11.2344
▁전화했어요	-11.2348
▁수당	-11.2349
▁재발급	-11.2354
▁어려워서	-11.2354
▁장만	-11.2355
▁비싸지	-11.2356
▁듣게	-11.2357
▁버터	-11.2361
▁회신해	-11.2363
▁추가해서	-11.2364
▁일어나야	-11.2365
▁초대해	-11.2366
하니까	-11.237
▁흘러	-11.2373
▁규칙적	-11.2373
▁폐기	-11.2375
▁어땠	-11.2383
▁채우	-11.2385
채	-11.2388
▁공고	-11.2389
▁윤	-11.239
▁삽입	-11.239
▁연동	-11.2391
▁매트	-11.2393
▁연락드렸	-11.2394
걸요	-11.2396
▁와주세요	-11.2396
▁변환	-11.2397
▁업적	-11.2398
▁짓고	-11.2398
▁데뷔	-11.2409
▁지위	-11.2409
▁언론	-11.2412
▁적합	-11.2412
▁닮았	-11.2414
▁입어보	-11.2415
▁패스	-11.2418
▁휴무	-11.242
팅	-11.242
▁시작해야	-11.2421
▁초반	-11.2423
▁유사	-11.2427
▁고려해야	-11.2428
▁다르	-11.243
▁원리	-11.2431
▁각도	-11.2433
▁바꿨	-11.2436
▁중요합니	-11.2437
▁알려주는	-11.2448
▁정도입니다	-11.245
장의	-11.2452
▁넘어서	-11.2453
▁하셨는데	-11.2456
▁꿀	-11.2456
▁아웃	-11.2457
봤습니다	-11.2459
▁이점	-11.246
▁모이	-11.2467
▁수면	-11.2467
▁데려가	-11.2469
▁명예	-11.2477
▁클라이언트	-11.2477
▁바뀌는	-11.248
이예요	-11.2481
풀	-11.2483
▁환자분	-11.2484
▁해주셔야	-11.2485
▁지문	-11.2488
▁하려	-11.2489
▁어묵	-11.2491
▁임무	-11.2492
▁페인트	-11.2493
▁복숭아	-11.2493
▁마카롱	-11.2493
▁클레임	-11.2493
▁제공하지	-11.2494
▁하얀색	-11.2494
▁블라우스	-11.2495
▁원하신다면	-11.2497
▁어쩐지	-11.2498
▁고추장	-11.2498
▁빵집	-11.2499
▁제품이라	-11.25
▁명동	-11.25
▁없었는데	-11.2501
▁각질	-11.2501
▁흐르는	-11.2502
▁트레이닝	-11.2503
▁대한항공	-11.2506
▁취할	-11.2506
▁명확하게	-11.2506
▁어떡하지	-11.2506
▁뷔페	-11.2509
▁나타내는	-11.251
▁영양소	-11.2512
▁탑	-11.2513
▁해주셔	-11.2514
▁화폐	-11.2515
▁잠자리	-11.2515
▁십	-11.2515
▁무례한	-11.2516
▁상관없어요	-11.2517
▁싫은	-11.2517
▁임대	-11.2518
▁들으면서	-11.2519
▁영양제	-11.2519
▁싸우는	-11.2523
▁아름다워요	-11.2524
▁달력	-11.2528
▁자질	-11.2529
▁전투	-11.2529
▁다이아몬드	-11.2532
▁폭포	-11.2534
▁예약해야	-11.2534
▁강사	-11.2535
▁원두	-11.2535
▁잤어	-11.2536
▁진지하	-11.254
▁다치지	-11.2541
퍼	-11.2543
▁국적	-11.2544
▁비싸서	-11.2545
▁주문하시면	-11.2547
▁소모	-11.2551
▁못한다면	-11.2557
▁브라운	-11.2559
▁수정하여	-11.2564
▁가로	-11.2564
했으니	-11.2565
▁발생했어요	-11.2568
▁쌍	-11.2568
▁정직	-11.2572
▁확	-11.2574
▁찾아보고	-11.2575
▁렌트	-11.2576
▁저항	-11.2579
▁담겨	-11.2581
▁서울시	-11.2584
▁인증서	-11.2587
▁할인된	-11.2591
용하실	-11.2593
▁기대하	-11.2598
태	-11.2599
김	-11.2603
▁호흡	-11.2603
▁높이는	-11.2618
R	-11.262
▁적용할	-11.262
될까요	-11.2621
▁기억해	-11.2628
성과	-11.2631
▁분할	-11.2632
▁빨	-11.2632
▁비닐	-11.2633
▁절감	-11.2634
▁그리기	-11.2635
▁들으니	-11.2641
▁너네	-11.2643
▁감시	-11.2652
▁돌아다니	-11.2655
▁연고	-11.2655
▁그러기	-11.2656
롤	-11.2658
▁대단하다	-11.2664
▁송	-11.2666
순	-11.2667
▁심해서	-11.2668
▁감염	-11.2674
케	-11.2675
▁안부	-11.2675
▁분노	-11.2676
▁다르기	-11.2678
▁중학생	-11.269
▁나지	-11.2691
▁양산	-11.2695
습	-11.2701
▁부분들	-11.2701
▁보내도	-11.2701
▁옥상	-11.2705
▁탁구	-11.2706
▁스케이트	-11.2706
▁실리콘	-11.2706
▁호랑이	-11.2706
▁테마	-11.2706
▁탁자	-11.2706
▁항구	-11.2707
▁짜장면	-11.2708
▁와이프	-11.2708
▁리얼사운드	-11.2708
▁레이저	-11.2709
▁감사드려요	-11.271
▁시끄러워	-11.271
▁매력적	-11.2711
▁씹	-11.2711
▁체류	-11.2714
▁레시피	-11.2716
원이에요	-11.2716
▁산소	-11.2717
▁말했던	-11.2717
▁사우나	-11.2718
▁떨어졌어요	-11.2721
▁30,000	-11.2722
▁나타났습니다	-11.2723
▁있겠지만	-11.2723
▁패킹	-11.2724
▁배송할	-11.2724
▁마중	-11.2725
▁요구사항	-11.2726
▁사람인	-11.2728
읍	-11.2728
▁단단	-11.2731
▁주기적	-11.2734
오나요	-11.2735
▁바라고	-11.2736
▁있듯이	-11.2736
▁진통제	-11.2738
▁보았을	-11.274
▁많네요	-11.2741
▁예수	-11.2741
▁U	-11.2744
주고	-11.2745
▁못했지만	-11.2746
분과	-11.2748
▁끈기	-11.275
▁지원하	-11.2751
▁달린	-11.2753
▁효율적인	-11.2754
▁의논	-11.2756
▁사업자	-11.2756
▁지사	-11.2757
▁해드리겠습니다	-11.2761
▁반대하는	-11.2762
▁기독교	-11.2762
▁한눈	-11.2765
▁착륙	-11.2766
▁아닐까요	-11.2768
▁추첨	-11.2769
▁놓았	-11.2771
▁강연	-11.2774
▁산타	-11.2776
나와	-11.2781
▁경유	-11.2784
▁충실	-11.279
▁사소	-11.2791
▁마감일	-11.2792
▁쌓아	-11.2794
▁미니	-11.2796
▁파이	-11.2796
▁구독	-11.2797
저것	-11.2797
▁장시간	-11.2798
▁의존	-11.2799
▁도달	-11.2799
▁선택했어요	-11.28
▁넘치는	-11.2801
▁패	-11.2804
▁하는가	-11.2804
▁느리	-11.2805
이십니다	-11.2806
▁국립	-11.2806
▁다가오	-11.2806
▁민주주의	-11.2812
▁임원	-11.2813
듬	-11.2813
▁참여하고	-11.2828
▁했으니	-11.2828
▁행복했습니다	-11.2828
▁활	-11.283
▁표현한	-11.2831
▁다운	-11.2833
▁생각하	-11.2834
▁끝내야	-11.2837
▁부문	-11.284
▁하이	-11.2846
▁피곤하	-11.2858
20	-11.2858
▁셋	-11.2858
▁주었다	-11.2859
명세	-11.2873
▁이루어지	-11.2877
▁맥	-11.2884
▁환불하고	-11.2886
▁하겠다	-11.2889
▁유출	-11.289
▁해주시고	-11.289
▁표지	-11.2894
▁조깅	-11.2894
렌	-11.2895
▁안되는	-11.2895
▁유료	-11.2897
결	-11.2898
▁조율	-11.2903
리스트	-11.2905
▁마술	-11.2905
▁준비했어요	-11.2906
정도	-11.2911
릭	-11.2913
렌즈	-11.2916
▁피할	-11.2918
▁가능하	-11.2918
▁지붕	-11.2921
▁땅콩	-11.2921
▁타깃	-11.2921
▁신념	-11.2921
▁가르칠	-11.2923
▁캄보디아	-11.2925
▁퇴사	-11.2925
▁안드로이드	-11.2925
▁단독	-11.2926
▁콜	-11.2926
센트	-11.2927
탈	-11.2929
▁음성	-11.2929
▁갑작스럽	-11.293
▁궁금하네요	-11.2931
▁UPS	-11.2934
▁마라톤	-11.2934
▁놓아	-11.2936
a	-11.2937
▁머무는	-11.294
▁않으며	-11.294
▁필수적	-11.2943
▁물속	-11.2943
▁원이	-11.2944
▁넥타이	-11.2944
▁빛나는	-11.2944
▁스터디	-11.2945
▁남한	-11.2946
▁롤	-11.2947
▁획득	-11.2949
골	-11.2953
▁저것	-11.2953
▁코미디	-11.2954
▁갤러리	-11.2955
▁클래스	-11.2955
사람들	-11.2957
▁두피	-11.2957
▁참고하	-11.2958
▁괜찮으면	-11.2962
▁발생했	-11.2962
▁민감한	-11.2963
▁걸렸어요	-11.2964
▁활용할	-11.2965
▁진단서	-11.2966
▁바빠요	-11.2968
▁별명	-11.2969
▁결혼한	-11.2974
▁불편해요	-11.2975
버	-11.2976
▁이득	-11.2976
▁조항	-11.2977
나무	-11.2977
▁문제없이	-11.2978
▁나왔어	-11.2978
▁이용이	-11.2981
주가	-11.2982
갔으면	-11.2983
▁비교해	-11.2989
▁짬뽕	-11.2992
▁정리하고	-11.2994
이기에	-11.2994
▁돌아오면	-11.2996
▁많으니까	-11.2996
▁방어	-11.2997
▁맡고	-11.2998
▁아니었습니다	-11.2999
▁있네	-11.3001
k	-11.3007
▁c	-11.3009
▁사지	-11.3011
▁처방	-11.3013
▁늦어지	-11.3021
▁발주서	-11.3021
▁201	-11.3026
▁요일	-11.3031
▁하던데요	-11.3034
▁모델명	-11.3034
▁모기	-11.3037
▁거미	-11.3041
▁마시기	-11.3042
때문	-11.3043
▁상표	-11.3048
현	-11.3048
▁잃어버리	-11.306
▁일치	-11.3063
▁지도자	-11.307
니까요	-11.3076
▁톤	-11.3082
홀	-11.3086
▁해줘요	-11.3088
▁혼합	-11.309
▁잠재	-11.3091
▁난방	-11.3093
▁풀고	-11.3094
▁택배사	-11.3098
플	-11.3108
▁것이죠	-11.3122
▁용접	-11.3124
▁외근	-11.3124
쁩니다	-11.313
주면	-11.3133
▁싶으신	-11.3135
▁옮기는	-11.314
▁같네	-11.3143
▁리모컨	-11.3145
▁금메달	-11.3145
▁어머님	-11.3146
▁학비	-11.3148
▁포스팅	-11.3149
▁인체	-11.315
▁재미있을	-11.3151
10	-11.3152
▁흙	-11.3153
▁다르지만	-11.3153
▁대기업	-11.3154
▁연간	-11.3154
▁갈아타야	-11.3155
▁생긴다면	-11.3156
▁주류	-11.3157
▁소요됩니	-11.3157
▁부드럽고	-11.316
▁송도	-11.316
▁알리는	-11.3162
▁믿기지	-11.3162
▁걸고	-11.3167
▁당근	-11.3168
▁활용하여	-11.3171
▁드는데	-11.3171
▁잊	-11.3172
▁독일어	-11.3173
▁돕기	-11.3173
▁바꿔주세요	-11.3174
▁러닝	-11.3175
▁국가들	-11.3175
▁주문번호	-11.3177
▁탔어요	-11.3178
▁배송해	-11.3178
▁농업	-11.3182
총	-11.3182
▁메뉴입니다	-11.3182
▁보관하	-11.3182
▁자지	-11.3183
▁마셔요	-11.3183
▁롤러	-11.3184
▁모아서	-11.3187
디자인	-11.3188
▁만든다	-11.319
브	-11.3191
▁비치	-11.3192
해지는	-11.3193
▁먹어본	-11.3194
▁길어서	-11.3197
▁하든	-11.3198
▁웃게	-11.3198
▁주민	-11.3201
▁가져와	-11.3207
▁오셨나요	-11.3211
▁다니지	-11.3211
하시길	-11.3214
할지	-11.3215
▁필기	-11.3215
▁가는지	-11.3216
▁오타	-11.3216
▁뜻이에요	-11.3216
▁관습	-11.3216
▁드시	-11.3218
▁먹는데	-11.3222
웁니	-11.3223
▁구하는	-11.3223
▁공책	-11.3225
▁제조사	-11.3226
스트	-11.323
정책	-11.3231
▁50,000	-11.3232
▁하느라	-11.3236
▁사이드	-11.3237
▁졸업한	-11.3238
▁LA	-11.3239
▁까먹	-11.324
▁일해	-11.3243
▁API	-11.3243
▁섞여	-11.3244
▁설문	-11.3246
메뉴	-11.3248
▁터	-11.3255
▁오니	-11.3257
▁일하게	-11.3258
▁갱신	-11.3264
▁과외	-11.3264
제도	-11.3265
▁푸드	-11.327
▁인수	-11.3272
▁필수적인	-11.3272
▁변명	-11.3274
▁탈색	-11.3275
▁지은	-11.3275
▁오길	-11.3278
▁신청한	-11.3279
▁트리	-11.3281
▁의하면	-11.3292
▁항공기	-11.3296
▁걸어가면	-11.3296
콜	-11.3297
옷	-11.3301
하자	-11.3304
▁데이	-11.3309
하기엔	-11.3312
다리	-11.3313
▁느껴지는	-11.3314
꽃들	-11.3317
▁쉬어	-11.3317
▁노력해서	-11.3318
▁찾으면	-11.332
▁끓	-11.3323
▁옳	-11.3324
▁용품	-11.3325
▁워크	-11.3326
▁금전적	-11.3328
▁홍	-11.3334
▁에이	-11.3335
생	-11.3337
▁규격	-11.3341
▁놔두	-11.3341
▁주도	-11.3344
기능	-11.3346
▁마친	-11.3348
▁관객	-11.3351
▁가상	-11.3355
▁나사	-11.3358
▁다녀왔어	-11.3359
팩	-11.3361
▁자면	-11.3364
▁키워	-11.3366
▁펜션	-11.3372
▁강림	-11.3372
▁불빛	-11.3372
▁팀워크	-11.3373
▁콘퍼런스	-11.3374
▁손바닥	-11.3374
▁선반	-11.3375
▁할리우드	-11.3376
▁250	-11.3376
▁인간관계	-11.3376
▁다행이야	-11.3378
▁중복	-11.3378
▁칫솔	-11.3378
▁겨울방학	-11.3379
▁쓰이는	-11.3381
▁캡처	-11.3382
▁회원가입	-11.3383
▁흉	-11.3384
▁우선순위	-11.3386
▁도착했을	-11.3388
▁살아있는	-11.3389
▁기종	-11.3391
▁않으려고	-11.3393
▁말아주세요	-11.3394
▁외관	-11.3395
▁있답니다	-11.3396
▁놀았어요	-11.3397
▁어땠어요	-11.3397
▁가보자	-11.3397
▁드리기	-11.3397
▁맡았	-11.3399
▁일이라고	-11.34
▁좌우명	-11.34
▁씻고	-11.3402
▁원형	-11.3404
▁베스트	-11.3405
▁오디션	-11.3406
▁중이	-11.3409
▁공용	-11.341
▁이별	-11.341
▁않을래요	-11.3412
얼	-11.3412
▁마쳤	-11.3412
▁지침	-11.3416
▁연락할게	-11.3416
▁남쪽	-11.3417
▁젤리	-11.3417
침	-11.3418
▁그러자	-11.3425
▁떨어질	-11.3431
▁여겨	-11.3431
▁핵	-11.3433
▁한도	-11.3434
▁수원	-11.3435
었나요	-11.3435
▁보이지만	-11.3437
▁출시된	-11.3439
▁뉴	-11.3439
▁죽는	-11.344
▁살아남	-11.3441
▁몰랐	-11.3449
▁생각해야	-11.3449
▁완	-11.345
▁출근하	-11.3456
▁단속	-11.3456
▁취소해야	-11.3456
▁사실상	-11.3457
조건	-11.3459
되었나요	-11.346
▁외로워	-11.3461
▁세척	-11.3462
해본	-11.3464
올까요	-11.3466
▁부른	-11.3467
▁부모들	-11.3467
▁환상적	-11.3468
▁고른	-11.3468
▁보트	-11.3471
▁위층	-11.3471
▁지불하고	-11.3471
▁햄	-11.3474
▁묻는	-11.3474
▁주문했던	-11.348
▁많으면	-11.3485
▁완료될	-11.349
▁가져다드리	-11.3491
▁켜지	-11.3492
▁원가	-11.3492
▁일이라	-11.3497
▁다녀요	-11.3497
▁파운데이션	-11.3499
▁주민들	-11.3505
G	-11.3508
▁끝났	-11.351
▁열정적	-11.351
▁클	-11.3511
▁달라는	-11.3515
▁어떻	-11.3515
▁최적화	-11.3518
버리지	-11.3519
가서	-11.3519
▁여행하고	-11.3522
▁떨어지	-11.3532
으신	-11.3532
▁알려줄래	-11.3541
었습니까	-11.3543
▁배상	-11.3544
나라	-11.3544
▁사료	-11.3545
▁일부분	-11.3546
▁작성하여	-11.3549
해주시겠어요	-11.355
▁출	-11.3554
▁명세서	-11.3555
▁끊	-11.3557
까진	-11.3558
▁재밌어	-11.3569
▁전문성	-11.3573
▁떠오르는	-11.3574
검사	-11.3578
▁단추	-11.3579
▁첨부해	-11.3579
▁여자애	-11.3582
▁잘해요	-11.3585
▁나쁘	-11.3586
▁많았어	-11.359
▁대접	-11.359
▁문의해	-11.359
▁발명품	-11.3591
▁살려	-11.3592
▁제공하기	-11.3592
▁그림들	-11.3593
▁바랄게	-11.3594
▁느꼈어	-11.3594
칸	-11.3595
▁중이고	-11.36
▁저작권	-11.3603
▁스티브	-11.3605
▁모국어	-11.3606
▁윈도우	-11.3606
▁놀았	-11.3606
▁드라이버	-11.3606
▁어떡하죠	-11.3607
▁아무튼	-11.3609
▁중동	-11.3609
▁도자기	-11.361
▁농부	-11.3611
▁상하이	-11.3612
▁배움	-11.3613
▁달라집니다	-11.3613
▁어울린다	-11.3614
▁벤치	-11.3615
▁디즈니	-11.3616
▁정오	-11.3619
▁느낀다	-11.3619
▁온난화	-11.362
▁있으	-11.3621
▁계좌번호	-11.3623
▁필요하다는	-11.3623
▁이민	-11.3624
▁지원해	-11.3624
▁동양	-11.3625
▁얼마든지	-11.3627
족	-11.3629
▁멋있는	-11.3632
▁고맙겠	-11.3633
▁드신	-11.3635
▁어울리지	-11.3635
▁찍었어요	-11.3635
▁것일까	-11.3637
▁원화	-11.3637
▁마당	-11.3639
▁알았다	-11.3639
▁추천할	-11.3643
▁전략적	-11.3643
▁탭	-11.3643
▁느꼈어요	-11.365
▁완화	-11.3651
▁비행기표	-11.3657
▁들었을	-11.3657
▁확인하면	-11.3659
▁경영학	-11.3663
▁반대쪽	-11.3663
▁생기지	-11.3664
▁춥	-11.3665
▁부유	-11.3666
▁우울	-11.3669
▁두번째	-11.3669
▁O	-11.367
▁입으면	-11.3674
받아야	-11.3674
x	-11.3676
▁솜	-11.3676
▁샘	-11.368
▁원하면	-11.3682
▁몰라도	-11.3682
▁간호	-11.3683
▁반대합니다	-11.3684
▁있기에	-11.3688
▁가지만	-11.3689
▁폐기물	-11.369
타임	-11.3691
▁좋다는	-11.3692
튼	-11.3693
▁않을게	-11.3694
맨	-11.3697
려는	-11.3698
▁주문했어요	-11.3707
▁배송지	-11.3708
▁구석	-11.3711
▁사라져	-11.3714
겠지	-11.3716
▁잠재적	-11.3716
▁받아들이	-11.3716
▁신분	-11.3718
▁예쁘다	-11.3721
▁씻어	-11.3721
웠어요	-11.3722
▁귀찮아	-11.3723
▁신청하고	-11.3724
▁가시나요	-11.3725
두고	-11.3726
▁함께하고	-11.3728
▁곳이야	-11.373
둘	-11.3735
▁시킬	-11.3735
9	-11.3742
▁따라야	-11.3744
▁맞이하	-11.3744
▁남아서	-11.3745
결제	-11.3746
워드	-11.3748
▁거쳐	-11.375
답	-11.3753
정된	-11.3753
▁다르다는	-11.3754
▁변기	-11.3754
▁써요	-11.3756
십	-11.3757
▁싶은지	-11.3759
▁재미있어	-11.3763
▁감명	-11.3763
▁대화하는	-11.3764
▁즐겼	-11.3766
▁재무	-11.3767
▁유치	-11.3767
▁성취	-11.377
▁랩	-11.3771
▁센	-11.3771
▁받았을	-11.3775
▁취소된	-11.3775
▁말씀드릴	-11.3776
▁어떠	-11.3778
해드릴까요	-11.378
▁이중	-11.3781
날짜	-11.3782
▁제공합니	-11.3784
▁행동하는	-11.3788
릿	-11.3789
▁서면	-11.379
▁홀로	-11.3791
오시면	-11.3791
▁문의한	-11.3797
▁보는데	-11.3797
▁짝	-11.3798
▁올라가는	-11.38
▁사업가	-11.3802
▁돌아와	-11.3805
이시죠	-11.381
▁번역가	-11.3815
▁주었어	-11.3816
▁사진이에요	-11.3816
▁잘해야	-11.3818
▁좌우	-11.382
아웃	-11.3822
▁헤	-11.3827
▁워킹	-11.3828
어집니다	-11.3831
▁갖추	-11.3831
▁생각나는	-11.3831
▁응용	-11.3837
▁해킹	-11.384
▁어울려	-11.3841
시켜	-11.3843
▁에펠탑	-11.3843
▁판타지	-11.3843
▁모서리	-11.3843
▁스와치	-11.3843
▁전산	-11.3843
▁황금	-11.3843
▁선크림	-11.3844
▁복사본	-11.3845
▁아닙니까	-11.3845
▁귀중품	-11.3846
▁감사드리며	-11.3846
▁소중함	-11.3848
▁피터	-11.3848
▁정하는	-11.3849
▁보여준	-11.3849
▁들러	-11.385
▁잘생긴	-11.3853
환	-11.3854
▁퀴즈	-11.3855
▁석사	-11.3855
된다고	-11.3855
피트	-11.3855
▁성질	-11.3856
▁인공지능	-11.3856
▁슈퍼마켓	-11.3856
▁보여드릴게요	-11.3859
▁법정	-11.3859
▁여정	-11.3861
▁어려서	-11.3862
▁지불한	-11.3863
▁회계팀	-11.3865
▁트러블	-11.3866
F	-11.3868
▁만들었다	-11.3871
▁있겠죠	-11.3873
치기	-11.3874
▁보온	-11.3875
▁해리	-11.3876
▁가능하지만	-11.3876
되길	-11.3876
▁공동체	-11.3877
▁좋아한다고	-11.3878
▁마른	-11.3879
▁분량	-11.3879
▁효율	-11.3883
▁같았어요	-11.3884
▁튜브	-11.3889
▁공인	-11.389
▁가발	-11.3892
▁배웠어	-11.3892
▁낳	-11.3892
▁남았습니다	-11.3894
▁최소화	-11.3897
▁딴	-11.39
▁주사항	-11.39
상황	-11.3903
▁환불해주세요	-11.3904
▁빠지지	-11.3906
▁즐기기	-11.3908
▁했다	-11.3909
평가	-11.3912
▁다양성	-11.3912
▁나간	-11.3914
사는	-11.3923
▁새것	-11.3923
해야겠네요	-11.3926
▁ID	-11.3927
모티	-11.3929
▁합성	-11.3933
▁구별	-11.3934
▁가능할지	-11.3936
▁참여해	-11.3939
▁되면서	-11.3941
▁복잡	-11.3942
▁즉석	-11.3944
▁증정	-11.3944
▁봉	-11.3945
▁편인데	-11.3949
▁후보	-11.3949
▁여유롭	-11.395
▁구현	-11.395
▁채식주의자	-11.3952
▁잃고	-11.3954
▁민족	-11.3954
▁일종	-11.3954
▁남길	-11.3955
▁늦어진	-11.396
돈	-11.3961
보시겠어요	-11.3962
▁케어	-11.3963
▁악화	-11.3965
▁습득	-11.397
줘야	-11.3971
X	-11.3972
▁알려주고	-11.3975
▁꼼꼼하	-11.3977
▁개정	-11.3977
▁보물	-11.3981
▁입력하	-11.3982
▁기다렸	-11.3983
살이고	-11.3984
▁미칩니	-11.3985
▁팔지	-11.3985
▁미처	-11.3987
▁보시겠어요	-11.3992
와서	-11.3998
▁400	-11.4001
활동	-11.4004
▁지나간	-11.4006
했으며	-11.4006
▁접할	-11.4006
▁가져온	-11.4007
▁보도	-11.4012
▁유물	-11.4012
▁번거롭	-11.4016
▁겸손	-11.4016
소스	-11.4018
▁항의	-11.402
▁필요하	-11.4025
▁만나야	-11.4028
▁서양	-11.4036
샵	-11.404
▁맛있다	-11.4042
해야겠어요	-11.4042
▁요	-11.4046
쉬	-11.4047
숨	-11.4049
웠습니다	-11.4049
▁요청했	-11.405
▁극복하	-11.4051
돼	-11.4054
었는지	-11.4062
▁수명	-11.4066
mL	-11.4071
▁있었다고	-11.4072
▁불가능해	-11.4074
▁강아지들	-11.4075
▁넣어야	-11.4078
▁참고하시	-11.4081
▁노력한	-11.4081
▁늘어	-11.4082
▁욕망	-11.4085
▁송금할	-11.4085
파운드	-11.4086
▁스웨터	-11.4087
▁FTA	-11.4087
▁선글라스	-11.4088
▁인터페이스	-11.4089
▁내일모레	-11.4089
▁평상시	-11.409
▁밸런타인데이	-11.409
▁감싸	-11.409
▁소요될	-11.4091
▁도착하자마자	-11.4091
▁후원	-11.4091
▁볼링	-11.4092
▁유감스럽게	-11.4093
▁지퍼	-11.4094
▁신사	-11.4094
▁구비되어	-11.4094
▁자랑스러워	-11.4095
▁치약	-11.4096
▁앉은	-11.4096
▁패널	-11.4096
▁시애틀	-11.4098
▁침실	-11.4099
▁색감	-11.4099
▁말씀드릴게요	-11.4102
▁촉촉한	-11.4104
▁성별	-11.4105
▁없으며	-11.4105
효과	-11.4105
▁좋아하니	-11.4106
▁예약했어요	-11.4107
▁배우자	-11.4109
▁알려주지	-11.4109
▁말인가요	-11.4109
▁키즈	-11.411
▁동의하지	-11.4111
▁지정된	-11.4111
▁독도	-11.4114
▁마셨어요	-11.4115
▁보관할	-11.4115
▁남자아이	-11.4116
▁아래쪽	-11.4117
준다고	-11.4118
▁지루한	-11.4118
▁여가	-11.412
▁크루즈	-11.4121
▁오징어	-11.4122
▁유래	-11.4125
▁이끄는	-11.4126
▁사냥	-11.4128
▁전달하겠습니다	-11.4129
▁자녀들	-11.413
▁먹어봐	-11.4131
▁사용되고	-11.4131
킬로	-11.4133
▁개미	-11.4135
▁좀비	-11.4135
▁없나	-11.4136
▁창출	-11.4138
▁늘리	-11.4138
▁이루어졌	-11.4138
▁혈관	-11.4141
▁일한	-11.4141
▁축하합니다	-11.4145
▁흔들	-11.4148
▁이어질	-11.4149
▁알려드릴	-11.415
▁남아있습니다	-11.4151
▁맡기고	-11.4155
▁인종차별	-11.4155
▁미국인들	-11.4155
▁서포트	-11.4162
바람	-11.4166
▁생각하는데	-11.4169
양의	-11.4169
▁언제인지	-11.4176
▁파견	-11.4177
▁억지	-11.4178
▁마셔서	-11.4181
▁찌개	-11.4186
▁입양	-11.4189
▁밀어	-11.4192
관계	-11.4194
봤어요	-11.4194
▁버려	-11.4197
▁담당하는	-11.4198
▁변할	-11.4199
▁윤리	-11.4201
▁말고도	-11.4203
▁떠나지	-11.4203
▁다할	-11.4204
▁제작한	-11.4208
▁디스크	-11.4214
▁근무하는	-11.4215
▁다양하	-11.4218
오세요	-11.422
▁좋아졌	-11.4221
▁주셨습니다	-11.4222
▁적용된	-11.4223
▁건의	-11.4225
▁핫	-11.423
▁과학적	-11.4231
▁직장인	-11.4232
▁주문해야	-11.4233
▁떠나고	-11.4234
▁느낌이에요	-11.4236
보았습니다	-11.4236
▁생신	-11.4241
▁끝냈	-11.4246
▁행복하지	-11.425
▁AS	-11.4256
▁대하는	-11.4257
습기	-11.4258
▁이날	-11.4258
▁안전하고	-11.426
봐야	-11.4262
빈	-11.4264
▁있고요	-11.4267
▁여인	-11.427
▁늘려	-11.427
공간	-11.4271
▁잎	-11.4272
천만	-11.4274
▁대개	-11.4276
▁복수	-11.4277
▁차별화	-11.4279
▁않았다는	-11.428
▁평등	-11.4281
▁장미	-11.4282
▁집중하고	-11.4284
▁학문	-11.4289
▁IS	-11.4293
▁춤추	-11.4295
▁아기들	-11.4297
데요	-11.4298
▁인정받	-11.4298
▁방문하면	-11.4303
▁말들	-11.4303
▁찍으면	-11.4306
업	-11.4306
▁수용	-11.4306
▁견딜	-11.431
톱	-11.431
▁뭐니	-11.4311
▁이루는	-11.4312
▁잃을	-11.4312
▁공부했어요	-11.4313
▁투입	-11.4314
▁같았어	-11.4319
▁관심사	-11.4322
▁맞았	-11.4325
▁네덜란드	-11.4325
▁판결	-11.4328
▁모르니까	-11.4329
▁서랍	-11.4333
▁다이	-11.4333
▁여자아이	-11.4334
▁Mr	-11.4334
▁힐튼	-11.4334
▁모둠	-11.4334
▁토핑	-11.4335
▁미룰	-11.4335
▁말해주	-11.4336
▁간판	-11.4336
▁스페셜	-11.4336
▁카카오	-11.4336
▁갤럭시	-11.4337
▁텀블러	-11.4337
▁오디오	-11.4337
▁인턴십	-11.4337
▁휴게실	-11.4338
▁데이비드	-11.4338
▁이직	-11.4339
▁갑작스러운	-11.4339
▁되어있는	-11.4339
▁결론적	-11.4341
▁명시	-11.4342
▁2012	-11.4343
▁여배우	-11.4344
▁견해	-11.4344
▁진행했습니다	-11.4345
▁근사한	-11.4346
▁알았으면	-11.4346
▁없으세요	-11.4348
▁제출한	-11.4349
였지만	-11.4349
▁요청사항	-11.4349
▁과도한	-11.4349
▁책임질	-11.4352
아야	-11.4353
o	-11.4353
▁아나	-11.4354
▁띠	-11.4356
▁성숙	-11.4357
▁홈스테이	-11.4357
▁캠핑장	-11.4357
▁첫번째	-11.4358
▁동굴	-11.4358
▁은혜	-11.4358
▁참가자	-11.4359
▁결승전	-11.436
▁귀엽고	-11.436
▁책임지	-11.4361
▁논	-11.4361
▁있구나	-11.4361
▁철도	-11.4363
▁생산량	-11.4365
▁옳지	-11.4366
▁구매해야	-11.4368
▁레이스	-11.4368
▁없었으면	-11.4369
▁고맙게	-11.4372
▁검	-11.4372
▁발생하면	-11.4373
▁사운드	-11.4374
▁사상	-11.4374
▁급격	-11.4375
▁중이니	-11.4376
▁당황	-11.4377
▁적응하	-11.4378
▁면적	-11.438
▁명확한	-11.4384
▁노동자	-11.4385
▁뚜렷	-11.4387
▁알리고	-11.4393
▁명성	-11.4393
▁드나요	-11.4395
▁발견할	-11.4395
▁돌아가서	-11.4398
▁연락할게요	-11.4402
▁귀국	-11.4406
▁툴	-11.4408
되	-11.4408
▁119	-11.4408
▁틈	-11.441
▁내셔야	-11.4412
▁시위	-11.4412
▁회원들	-11.4414
▁해달라고	-11.4414
▁기술자	-11.4416
▁걸리는지	-11.4417
스타	-11.4417
▁특별하게	-11.4419
되며	-11.4424
▁갈래요	-11.4425
▁실용적	-11.4426
▁작업자	-11.4427
▁고객님들	-11.4428
▁기어	-11.4429
▁옷장	-11.4431
▁기재되어	-11.4431
▁골드	-11.4432
스코	-11.4432
▁팔아	-11.4433
▁지내요	-11.4433
▁바르고	-11.4433
▁알려지	-11.4435
▁배구	-11.4436
▁돌아오지	-11.4437
▁솔직	-11.444
▁사용법	-11.4443
▁떠나기	-11.4444
▁과장	-11.4451
▁걷	-11.4453
▁늦어졌	-11.4454
▁인하	-11.4454
▁쌓고	-11.4458
▁대행	-11.4464
▁상쾌	-11.4464
이었지만	-11.4464
▁케	-11.4466
▁금연	-11.4468
▁예정되어	-11.4468
▁알면	-11.447
▁핫도그	-11.447
▁도착했	-11.4474
▁찼	-11.4486
▁넣지	-11.4487
▁했다는	-11.4492
▁정체	-11.4496
리그	-11.4498
▁카트	-11.4503
▁정해지	-11.4507
러한	-11.4509
▁무시하	-11.4512
▁국어	-11.4513
▁압축	-11.4514
▁제작하는	-11.4515
▁기억해요	-11.4523
나마	-11.4526
을수록	-11.4528
▁건축가	-11.4535
던데요	-11.4537
▁함께한	-11.4543
▁없었고	-11.4552
▁예정인	-11.4558
▁쓰시	-11.4559
▁바꾼	-11.456
▁냉장	-11.4566
▁어둡	-11.457
▁발송해	-11.4576
▁크다	-11.4577
주셔도	-11.4578
웨이	-11.4581
잡기	-11.4584
▁방문하기	-11.4586
▁짠	-11.4586
▁근무하	-11.4589
▁진입	-11.4591
▁웹툰	-11.4591
▁LG	-11.4591
▁콧물	-11.4591
▁텐트	-11.4592
▁골든	-11.4593
▁로맨스	-11.4593
▁페덱스	-11.4593
▁가르침	-11.4593
▁노란	-11.4594
▁잔돈	-11.4594
▁리본	-11.4594
▁동기부여	-11.4594
▁캐리어	-11.4594
▁처방전	-11.4595
▁두바이	-11.4595
▁키워드	-11.4595
▁안타깝지만	-11.4596
▁잃어버려서	-11.4596
상적인	-11.4597
▁수능	-11.4597
▁말씀드린	-11.4597
▁편안함	-11.4598
▁에어비	-11.4598
▁식후	-11.4598
▁해주시겠어요	-11.4598
▁정수기	-11.4599
▁등등	-11.46
▁늦어져서	-11.4603
▁부족하지만	-11.4604
▁먹거리	-11.4604
▁한옥	-11.4605
▁타서	-11.4605
▁보스	-11.4606
▁클라우드	-11.4607
▁고칠	-11.4607
▁쿠션	-11.4608
▁마케터	-11.461
▁올바르	-11.4612
▁좋죠	-11.4612
▁다쳐서	-11.4612
▁20,000	-11.4613
▁상위	-11.4614
▁아니죠	-11.4614
▁확인해보겠습니다	-11.4615
▁활발한	-11.4615
▁논란	-11.4615
▁지불하는	-11.4617
▁지냈어요	-11.4617
▁브레이크	-11.4619
▁계실	-11.4621
▁신청하면	-11.4622
글	-11.4623
▁돌아가야	-11.4624
▁동그	-11.4625
▁펌프	-11.4626
▁출발하	-11.4627
▁도와드리	-11.4628
11	-11.4632
뼈	-11.4633
나게	-11.4635
▁주소지	-11.4635
▁봉지	-11.4635
▁상업적	-11.4637
▁매니	-11.4637
▁주의해야	-11.4641
▁들어갔습니다	-11.4642
▁그러세요	-11.4644
▁틀어	-11.4644
▁미안하	-11.4649
▁작동하는	-11.4651
▁죽이	-11.4651
▁했더니	-11.4652
▁기쁘다	-11.4653
▁하셨나요	-11.4654
▁구입하고	-11.4654
▁질문들	-11.4656
▁반도체	-11.4656
▁작성할	-11.4657
시킨	-11.4658
▁파이프	-11.4662
었다고	-11.4663
▁할인해	-11.4666
▁신속하	-11.4668
▁공중	-11.4672
▁라운지	-11.4672
요리	-11.4672
▁형상	-11.4672
▁상반	-11.4676
▁추가된	-11.4677
▁거네	-11.4679
할수록	-11.4679
▁요즘엔	-11.468
▁하시겠습니까	-11.4683
▁비싸요	-11.4685
▁정확하지	-11.4686
n	-11.4686
▁관절	-11.4686
▁생겼는데	-11.4689
▁움직여	-11.4694
▁맞으면	-11.4695
▁따뜻	-11.4695
끼고	-11.4696
▁오셔야	-11.4698
▁넘기	-11.47
▁싫어서	-11.4708
▁가수들	-11.4709
▁주셨어요	-11.471
원합니다	-11.4711
끝	-11.4714
맞은	-11.4714
▁고민하고	-11.4715
▁유니	-11.4717
▁왔는지	-11.4718
▁겹쳐	-11.4718
▁확인되었습니다	-11.4719
▁태우	-11.4724
▁자르	-11.4727
▁출항	-11.4729
▁지나고	-11.4731
▁카페인	-11.4732
▁라	-11.4735
▁상태라	-11.4736
▁매진	-11.4738
▁넘어가	-11.474
▁붓	-11.4741
▁이끌	-11.4741
시스템	-11.4743
▁두는	-11.4743
▁제재	-11.4745
▁제시해	-11.4745
▁풀리	-11.4747
정하지	-11.4748
▁근로자	-11.4749
▁신청할	-11.475
▁질서	-11.4752
월이	-11.4755
▁소득	-11.4755
▁불행	-11.4756
▁엉망	-11.4759
▁알려주신	-11.476
드렸습니다	-11.4764
풍	-11.4766
개국	-11.4767
▁올라오	-11.4771
야겠어요	-11.4772
▁재단	-11.4775
▁노력하면	-11.4775
▁오자	-11.4779
하니	-11.478
해지고	-11.4782
▁담당하	-11.4801
중입니다	-11.4802
▁약점	-11.4802
미터	-11.4804
▁파악하고	-11.4805
▁해결되	-11.4807
위해	-11.4815
▁지금이라	-11.4817
▁사귀	-11.4823
▁길드	-11.4825
▁표현하기	-11.4826
▁합쳐	-11.4826
개발	-11.483
▁치러	-11.4834
▁재판	-11.4834
▁치워	-11.4838
뿍	-11.484
▁편이라	-11.484
▁간략	-11.4842
▁할부	-11.4845
▁지원할	-11.4846
남	-11.4846
언	-11.4853
▁멈출	-11.4854
▁교토	-11.4855
▁광화문	-11.4856
▁슬리퍼	-11.4856
▁김연아	-11.4856
▁좋아하는지	-11.4856
▁줄넘기	-11.4857
▁웨이터	-11.4857
▁필라테스	-11.4857
▁주민등록증	-11.486
▁미안하다	-11.4862
▁이루어질	-11.4862
▁어쩌지	-11.4863
▁조절할	-11.4863
▁우편물	-11.4864
▁입장료	-11.4864
▁떠올리	-11.4865
▁친절함	-11.4865
▁스키장	-11.4865
▁서핑	-11.4865
▁힘들었지만	-11.4865
▁차액	-11.4865
▁현명한	-11.4866
▁진열되어	-11.4866
▁동쪽	-11.4867
▁파우치	-11.4869
▁높고	-11.487
▁잃었	-11.487
▁옆자리	-11.487
▁기다릴게요	-11.4871
▁뒤편	-11.4872
N	-11.4873
잘	-11.4873
▁않으세요	-11.4873
▁포즈	-11.4873
▁들으며	-11.4875
▁지능	-11.4875
▁노예	-11.4876
▁지루하지	-11.4877
▁조상	-11.4877
▁보여주시면	-11.4877
▁보길	-11.4878
▁찾아와	-11.4881
▁유심	-11.4881
▁포지션	-11.4881
▁실험실	-11.4882
▁알아보는	-11.4882
▁정해	-11.4883
▁공부해	-11.4883
▁녹화	-11.4883
▁코끼리	-11.4884
▁잡혀	-11.4885
▁투	-11.4886
▁120	-11.4887
▁물놀이	-11.4888
잎	-11.4888
▁돌아왔어요	-11.4888
▁들어본	-11.4889
▁예상되는	-11.4891
부러	-11.4892
▁범죄자	-11.4892
▁힘들다	-11.4893
▁마인드	-11.4896
싱	-11.4896
▁대체할	-11.4896
▁기내식	-11.4899
▁인원수	-11.4899
▁야구장	-11.49
▁주중	-11.49
▁읽었습니다	-11.4903
해보는	-11.4906
▁헤어지	-11.4907
▁다녔어요	-11.4908
▁아쉽다	-11.4909
▁생산성	-11.491
▁차후	-11.4911
▁착용해	-11.4912
밤	-11.4913
▁개입	-11.4913
▁아프다	-11.4914
▁기술적	-11.4916
애	-11.4916
▁여우	-11.4917
▁작곡	-11.4917
▁끼치	-11.4918
▁짓는	-11.4918
▁지속해	-11.4919
▁투명	-11.4922
▁들어주	-11.4923
▁다양하고	-11.4925
▁모션	-11.4925
▁타려고	-11.4926
▁복제	-11.4926
▁감사했습니다	-11.4926
▁열정적인	-11.4928
했었는데	-11.4929
▁괜찮으실	-11.493
사업	-11.4932
▁시작되	-11.4934
을게요	-11.4935
▁고파서	-11.4936
▁의미하는	-11.4937
▁간편	-11.4938
▁깨달았어	-11.4939
▁물리	-11.4939
▁지성	-11.494
▁났는데	-11.4944
▁둘러	-11.4945
▁같나요	-11.4946
▁전망대	-11.4949
▁씻	-11.4952
▁어쩌다	-11.4953
▁상호작용	-11.4959
▁자려고	-11.4961
▁커트	-11.4961
▁높다	-11.4964
▁시간이었습니다	-11.4968
▁차분	-11.497
▁빠	-11.497
▁좋았고	-11.4971
▁두세요	-11.4973
▁그립	-11.4974
▁탐방	-11.4974
▁간주	-11.499
작	-11.499
▁선물해	-11.4991
업체들	-11.4994
사이	-11.4995
▁부탁할	-11.4999
▁만료	-11.5
▁123	-11.5003
▁야	-11.5007
▁바늘	-11.5007
▁활발	-11.5008
▁필드	-11.5012
▁전력	-11.502
▁중요하	-11.5021
밍	-11.5026
▁확인했는데	-11.5028
▁600	-11.5028
▁제작할	-11.5031
▁미용	-11.5031
▁일시적	-11.5033
▁생겼다	-11.5034
▁양도	-11.5041
▁작성하	-11.5041
▁소진	-11.5042
▁비서	-11.505
▁사귄	-11.5051
▁추정	-11.5053
▁감사할	-11.5053
▁해안	-11.5056
▁시키	-11.5057
▁싸우	-11.5058
▁다녀올	-11.5058
▁각국	-11.5061
▁활동적인	-11.5062
▁버릴	-11.5063
▁헤어진	-11.5063
▁허브	-11.5064
▁회수	-11.507
▁해야겠어요	-11.5093
▁싸고	-11.5101
▁원어민	-11.5101
▁설치된	-11.5101
▁반려동물	-11.5102
▁집행	-11.5103
▁검정	-11.5112
▁공급자	-11.5116
▁이어	-11.5117
▁중고	-11.5121
▁했었어	-11.5121
쉽게	-11.5122
▁성장하는	-11.5122
▁배낭	-11.5123
▁밸브	-11.5124
▁씨앗	-11.5124
▁이루어지지	-11.5124
▁색채	-11.5126
▁오페라	-11.5126
▁두꺼운	-11.5126
▁휴게소	-11.5126
▁면역력	-11.5126
▁세일즈	-11.5127
▁가격대	-11.5127
▁디즈니랜드	-11.5128
▁당연하죠	-11.5129
▁샌프란시스코	-11.5129
▁부득이하게	-11.513
▁신랑	-11.5131
▁투자자	-11.5131
▁2000	-11.5131
▁먹으며	-11.5134
▁늦어질	-11.5134
▁확인서	-11.5137
▁욕조	-11.5138
주시고	-11.5138
▁공모전	-11.514
▁식기	-11.514
▁드려서	-11.5141
▁벽화	-11.5141
▁불이익	-11.5143
▁도보	-11.5145
▁없었기	-11.5149
▁디	-11.5149
▁둘러싸	-11.5149
▁토너	-11.5152
▁동호회	-11.5153
▁현지인	-11.5154
▁추위	-11.5154
▁입장권	-11.5154
▁편인가요	-11.5156
▁읽었어요	-11.5158
▁책임자	-11.516
▁납기일	-11.5162
▁구조물	-11.5163
▁활기	-11.5163
▁알릴	-11.5163
▁장벽	-11.5164
▁예약하려고	-11.5164
▁계약금	-11.5166
▁페스티벌	-11.5167
▁생각나	-11.5169
▁같으면	-11.5173
▁다크	-11.5174
▁개방	-11.5175
테니	-11.5177
▁세우고	-11.5178
▁사형	-11.5178
▁화분	-11.5178
▁급해서	-11.5179
▁불교	-11.518
▁연결하는	-11.5181
줘요	-11.5181
▁해양	-11.5182
▁뜨	-11.5184
줘	-11.5184
▁되시길	-11.5185
▁슬프	-11.5188
▁돕고	-11.5188
▁왜곡	-11.5189
▁무언가가	-11.5189
투	-11.5191
▁변경되었	-11.5193
▁풍성	-11.5193
▁생각하는지	-11.5194
▁정할	-11.5196
▁나타내	-11.5197
▁능숙하	-11.5197
▁차고	-11.5198
▁복싱	-11.5202
▁활용한	-11.5204
▁대학생들	-11.5207
▁줄여야	-11.5208
이었고	-11.521
진작	-11.5212
▁처리하는	-11.5215
▁돼야	-11.5216
▁도착지	-11.5217
▁풍선	-11.5217
▁뵙고	-11.5218
▁뜨는	-11.5218
▁탔어	-11.5219
▁공유하고	-11.5219
▁탐	-11.522
▁이루어지는	-11.5225
▁졸려	-11.5225
▁올지	-11.5225
▁돌려주	-11.5226
▁입사한	-11.5229
▁표현하고	-11.5233
▁해보세요	-11.5233
▁완료되	-11.5235
▁일반인	-11.5235
보겠습니다	-11.5238
▁쉬지	-11.524
▁추출	-11.5242
▁순환	-11.5243
▁이성	-11.5244
▁예금	-11.5249
▁줬으	-11.5252
▁셀러	-11.5252
▁쿠	-11.5253
▁괴물	-11.5253
▁방문했	-11.5254
▁되어요	-11.5254
▁치유	-11.5257
▁나가지	-11.5258
▁배열	-11.5258
▁부지런	-11.5262
▁수정해야	-11.5264
▁나아요	-11.5266
▁드라이	-11.5271
ing	-11.5272
딩	-11.5275
▁유로	-11.5276
▁투숙	-11.5282
▁지켜주	-11.5283
▁무늬	-11.5283
▁사라졌	-11.5283
▁바꾸어	-11.5286
▁끼치는	-11.5288
▁올리면	-11.5288
▁보아	-11.5294
이었을	-11.53
▁찍어주실	-11.5301
▁방문자	-11.5302
▁대우	-11.5302
▁맞아서	-11.5304
빛	-11.5305
▁마신	-11.5306
▁중요시	-11.5307
▁네팔	-11.5307
▁않아야	-11.5308
있어서	-11.5309
▁찾아갈	-11.531
▁우아	-11.5313
▁웃기	-11.5316
▁묶	-11.5316
방송	-11.5321
▁계열	-11.5322
원들	-11.5323
구조	-11.5323
겠네	-11.5328
끌고	-11.5332
▁밀려	-11.5333
▁알려줘야	-11.5334
▁뱀	-11.5336
하셨습니까	-11.5337
▁입기	-11.5341
▁시작되었	-11.5342
께	-11.5347
▁즐깁	-11.5347
▁나갔어요	-11.5347
▁부대	-11.5349
▁모두들	-11.5351
▁한잔하	-11.5354
▁년간	-11.5361
▁xx	-11.5367
▁장의	-11.5371
▁걱정하고	-11.5371
▁달아	-11.5372
▁참여한	-11.5373
셨군요	-11.5374
영향	-11.5375
▁도매	-11.5376
▁업데이트해	-11.5376
으셔도	-11.5378
▁수직	-11.5378
▁인적	-11.5379
▁했었	-11.538
다닐	-11.5385
▁개개인	-11.5388
덟	-11.5388
▁푸는	-11.539
드려요	-11.539
30	-11.539
▁말씀드리	-11.5392
로서	-11.5392
변	-11.5393
▁좋아하시는	-11.5394
▁휴학	-11.5396
꾸	-11.5397
▁괜찮으니	-11.5398
▁효능	-11.5401
▁바닐라	-11.5404
▁컬렉션	-11.5404
▁포토샵	-11.5404
▁CEO	-11.5404
▁잔액	-11.5404
▁주유소	-11.5404
▁퍼포먼스	-11.5405
▁거스름돈	-11.5405
▁CCTV	-11.5405
▁스타트업	-11.5405
▁라이선스	-11.5405
▁프리랜서	-11.5405
▁다큐멘터리	-11.5406
▁열매	-11.5407
견	-11.5407
▁있으시다면	-11.5407
▁습도	-11.5408
▁중독성	-11.5408
▁드셔보세요	-11.5408
학원	-11.5408
▁애정	-11.541
▁역이	-11.5411
▁할인율	-11.5412
▁공유하는	-11.5412
▁나이키	-11.5413
▁빌린	-11.5416
▁했다면	-11.5417
▁근력	-11.5417
▁궁전	-11.5417
▁팔레트	-11.5417
▁보라카이	-11.5419
▁보여주시겠어요	-11.5419
시키기	-11.5419
▁어렵지만	-11.5419
▁예민한	-11.542
찜	-11.5421
▁중순	-11.5423
▁정체성	-11.5424
▁뜻인가요	-11.5427
벨	-11.5427
▁신중하	-11.5428
▁잘해서	-11.5429
▁현실적	-11.5429
▁풍	-11.5434
▁왔고	-11.5435
▁싸우고	-11.5439
▁지우	-11.5439
▁제출해	-11.5439
▁남았어요	-11.544
▁초기화	-11.5441
▁바꾸려고	-11.5442
▁네이버	-11.5442
▁점원	-11.5443
▁다르다고	-11.5443
▁높아요	-11.5445
▁누워서	-11.5448
▁드셔야	-11.5448
▁것이었어	-11.5448
▁편이야	-11.545
▁쓰세요	-11.545
▁느껴졌	-11.5451
▁계산하	-11.5451
▁입어보고	-11.5451
▁막아	-11.5453
▁백인	-11.5453
▁결말	-11.5453
▁후반	-11.5454
▁기능성	-11.5455
▁거라서요	-11.5458
▁잡히	-11.5458
▁오셨어요	-11.546
▁없을까	-11.5462
▁제공한	-11.5463
▁다르지	-11.5465
▁감고	-11.5465
▁늑대	-11.5465
▁정한	-11.5467
▁맺고	-11.5468
▁구경할	-11.5468
▁묶음	-11.547
▁BL	-11.5472
▁낮춰	-11.5475
가게	-11.5478
▁끼쳐	-11.5478
▁인내	-11.5479
▁수립	-11.5482
▁고백	-11.5482
▁일하지	-11.5486
공장	-11.5488
▁우울한	-11.5489
인의	-11.5491
▁예절	-11.5492
▁트랙	-11.5494
▁가득하	-11.5497
▁끓인	-11.5497
▁했는데요	-11.5499
행위	-11.5501
하셨던	-11.5501
▁부르고	-11.5502
▁귀신	-11.5503
▁해볼	-11.5504
▁초청	-11.5507
▁살아서	-11.5508
데이터	-11.5509
▁소개하려	-11.5513
▁양보	-11.5518
▁손상된	-11.5519
▁알아들	-11.5521
▁찍어야	-11.5523
▁정서	-11.5525
▁적용하여	-11.5525
리지	-11.5534
개월간	-11.5535
▁전형적	-11.5536
▁준비하	-11.5536
해드릴	-11.5539
▁설명하는	-11.5545
▁했죠	-11.5545
▁말라	-11.5546
▁호박	-11.5551
해보겠습니다	-11.5555
▁행동들	-11.5556
▁호출	-11.5557
▁주연	-11.5561
▁들었는데요	-11.5562
▁리필	-11.5563
▁세웠	-11.5564
▁청결	-11.5569
▁비만	-11.5571
▁회로	-11.5573
▁다짐	-11.5575
▁배송된	-11.5576
▁검색해	-11.5576
▁도와주실	-11.5577
▁배포	-11.5579
▁드림	-11.5581
▁시키는	-11.559
▁스케치	-11.5591
▁예정일	-11.5593
▁문제라도	-11.5594
▁아끼	-11.5595
▁원하는지	-11.5596
▁강하고	-11.5599
▁질투	-11.5604
▁만들면	-11.5605
▁코치	-11.5605
자고	-11.5606
텐	-11.5607
▁동행	-11.561
▁진보	-11.5611
▁학위	-11.5613
▁그림자	-11.5614
▁전달하는	-11.5616
▁헬	-11.5618
원의	-11.562
용하시면	-11.5622
▁주입	-11.5623
▁퍼센트	-11.5625
▁예정이	-11.5628
하셨어요	-11.563
됨	-11.5637
▁롤모델	-11.5637
▁어떨	-11.5638
▁용이	-11.5644
▁없애는	-11.5647
▁레드	-11.565
▁해주면	-11.565
▁쏘	-11.5652
년도	-11.5653
▁동상	-11.5654
▁놓을게	-11.5662
▁길고	-11.5663
▁배정	-11.5665
▁폴리	-11.5667
▁출근할	-11.5667
▁잡아야	-11.5668
희	-11.5671
성의	-11.5672
▁PD	-11.5673
즙	-11.5674
▁일전	-11.5674
▁고마운	-11.5675
▁선발	-11.5678
▁항	-11.5681
▁분명한	-11.5684
▁워싱턴	-11.5687
▁힐링	-11.5687
▁플랜	-11.5687
▁아쉬운	-11.5688
▁출처	-11.5688
▁숲속	-11.5688
▁조그마	-11.569
▁겉모습	-11.569
▁뒷자리	-11.569
▁베네치아	-11.5691
▁에버랜드	-11.5691
▁호텔리어	-11.5691
▁사계절	-11.5693
▁금형	-11.5693
▁거북이	-11.5694
▁햇	-11.5694
▁촉진	-11.5697
▁겪는	-11.5698
▁메모리	-11.5698
화면	-11.5702
▁남습니다	-11.5703
▁숨기	-11.5704
▁실례합니다만	-11.5705
▁자판기	-11.5705
▁되었다고	-11.5706
▁괜찮은가요	-11.5707
▁염증	-11.5708
▁본래	-11.5709
▁허용되	-11.5709
▁강원	-11.5709
▁가족끼리	-11.5711
▁피우는	-11.5712
▁세월	-11.5713
▁해보자	-11.5714
▁홍삼	-11.5715
▁아쉽습니다	-11.5715
▁무서워서	-11.5715
▁놀다가	-11.5716
▁택시비	-11.5717
▁어울려요	-11.5718
▁원할	-11.5718
▁엽서	-11.5719
▁있었네요	-11.572
▁자르고	-11.572
▁구절	-11.5721
▁정리하여	-11.5721
▁진료비	-11.5724
▁유효한	-11.5724
▁끄는	-11.5725
▁라이브	-11.5727
▁그려져	-11.5728
된다	-11.5731
▁가능하십니다	-11.5737
▁상업	-11.5738
▁올라가서	-11.5739
▁유저들	-11.574
▁떨어지고	-11.5745
▁무거워	-11.5746
▁지표	-11.5747
▁않음	-11.5751
▁비중	-11.5752
▁검진	-11.5753
▁맑	-11.5756
▁소개하는	-11.5759
▁프린팅	-11.5759
▁받으시면	-11.5759
▁막히	-11.5762
▁아팠	-11.5768
▁안될	-11.5771
▁다쳤	-11.5772
▁제외하고는	-11.5772
▁갖기	-11.5773
▁데려다	-11.5774
▁AI	-11.5775
▁시청자	-11.5775
▁혀	-11.5777
▁인지도	-11.5778
사와	-11.5778
▁창구	-11.5782
으러	-11.5783
▁조심스럽	-11.5786
▁산이	-11.5787
▁일어나기	-11.5789
▁원만	-11.5791
▁되자	-11.5794
▁본질	-11.5798
▁시료	-11.5801
▁하겠어	-11.5803
▁이사할	-11.5804
▁편입	-11.5806
▁배달해	-11.5809
▁버그	-11.581
▁걸리고	-11.581
여행	-11.581
▁날이야	-11.5814
▁남부	-11.5815
해줘요	-11.5817
▁리드	-11.5818
▁없던	-11.5821
▁배송될	-11.5823
▁가난	-11.5823
▁입주	-11.5826
▁가길	-11.5826
▁민	-11.5826
▁상실	-11.5832
▁구원	-11.5833
영화	-11.5833
▁소품	-11.5836
▁수정한	-11.5842
▁고모	-11.5842
▁드셔	-11.5845
▁안정성	-11.5848
▁얹	-11.5851
▁코리아	-11.5852
볕	-11.5853
▁확산	-11.5854
▁육체적	-11.5855
▁느꼈다	-11.5855
▁후면	-11.5857
▁황	-11.5857
▁존재해	-11.5857
▁설사	-11.5858
▁나빠	-11.5858
▁주문했습니다	-11.5859
시려면	-11.5861
셨을	-11.5867
▁벤	-11.5868
▁사는데	-11.5868
▁돌아갔	-11.5869
드렸던	-11.5873
▁발매	-11.5873
셨던	-11.5874
▁추구하	-11.588
▁붙어있는	-11.5881
▁끌어	-11.5882
▁무시할	-11.5882
▁거군요	-11.5886
▁핑계	-11.5888
있어	-11.5889
▁피지	-11.5891
▁구해	-11.5892
식품	-11.5895
벌	-11.5897
▁명백	-11.5902
▁똑같아	-11.5909
▁보내드려	-11.5909
았으면	-11.5911
으시면	-11.5917
▁잔인	-11.5919
명인데	-11.5919
▁남산	-11.592
▁옛	-11.5922
▁뜻깊	-11.5924
변경	-11.5925
되었다	-11.5927
▁감사하	-11.5934
마일	-11.5936
▁젊은이	-11.5937
▁든다	-11.5938
▁저축	-11.5938
원했어요	-11.5941
▁서두르	-11.5943
▁좋아질	-11.5944
▁늦는	-11.5946
▁복습	-11.5948
▁싸워	-11.595
▁조기	-11.5951
▁심각하	-11.5951
▁모으는	-11.5953
▁쓰인	-11.5954
▁돌봐	-11.5957
▁이용하지	-11.5961
▁멘토	-11.5963
▁상어	-11.5965
▁수정하고	-11.5965
▁유산	-11.5969
▁나타난	-11.5969
▁승차	-11.5971
▁깔끔	-11.5972
▁않겠어	-11.5973
▁걸리는데	-11.5974
▁PT	-11.5975
▁효력	-11.5982
▁붐비	-11.5982
▁비결	-11.5982
▁알파벳	-11.5983
▁카지노	-11.5983
▁MOU	-11.5983
▁USB	-11.5983
▁태어날	-11.5984
▁싸울	-11.5984
▁횡단	-11.5984
▁환경오염	-11.5985
▁오스트리아	-11.5985
▁안락사	-11.5986
▁공부한	-11.5986
▁부탁드리며	-11.5987
▁생일파티	-11.5987
▁학급	-11.5988
▁선적서류	-11.5989
▁단골	-11.5989
▁미네랄	-11.5989
▁뺄	-11.599
▁OS	-11.5991
▁했네요	-11.5991
▁아르바이트	-11.5992
▁어두워서	-11.5992
▁눈앞	-11.5992
▁철자	-11.5993
▁말했	-11.5993
▁해줄게	-11.5993
▁집주인	-11.5994
▁모발	-11.5994
극	-11.5997
▁남겨주세요	-11.5997
▁나타날	-11.5997
▁트럼프	-11.5998
▁속눈썹	-11.5998
▁멤버십	-11.5998
▁막혀서	-11.5999
▁방송국	-11.5999
▁돌아갑니다	-11.6
▁진행된	-11.6001
▁물어볼게요	-11.6001
▁먹다가	-11.6003
▁위험성	-11.6004
▁매콤한	-11.6004
▁박수	-11.6006
▁따뜻하고	-11.6006
▁있으리라	-11.6006
▁쓰실	-11.6006
▁지났어요	-11.6007
▁시작될	-11.6008
▁주의하세요	-11.6008
▁잉크	-11.6009
▁멀어	-11.601
▁요트	-11.6011
라니	-11.6012
▁튼튼한	-11.6013
▁교양	-11.6015
▁토양	-11.6015
▁높아서	-11.6016
▁계급	-11.6018
▁말이죠	-11.6023
▁골프장	-11.6023
▁관객들	-11.6023
▁VIP	-11.6023
▁베드	-11.6025
▁좋겠는데요	-11.6026
▁계시	-11.6026
가량	-11.6026
▁깨어	-11.6028
▁드렸는데	-11.603
▁복귀	-11.603
▁세럼	-11.603
▁안정적	-11.6031
▁연락드릴게요	-11.6031
▁실물	-11.6032
첩	-11.6033
됩니까	-11.604
▁사람인데	-11.6041
▁토스트	-11.6041
▁결제하고	-11.6041
▁꼭대기	-11.6044
▁빠졌어요	-11.6044
▁아니지	-11.6044
▁오르는	-11.6049
▁걱정할	-11.6049
▁결제해야	-11.6049
▁변경하여	-11.6049
▁자선	-11.605
▁구경하고	-11.6054
▁알약	-11.6054
▁클리	-11.6054
▁어학연수	-11.6055
▁손질	-11.6056
▁추출물	-11.6056
▁불안해	-11.6059
▁미안하고	-11.6061
다운	-11.6061
▁친근	-11.6066
부를	-11.6068
▁오른	-11.6068
당한	-11.607
▁도와줘	-11.6071
교시	-11.6074
▁없었을	-11.6074
▁경사	-11.6076
전히	-11.6076
▁못했	-11.6078
▁경제학	-11.6079
사회	-11.6082
가야	-11.6084
랜드	-11.6085
▁해제	-11.6087
▁때쯤	-11.6089
▁멀리서	-11.6092
▁삼아	-11.6092
▁둘이	-11.6094
▁명품	-11.6095
렁	-11.6096
▁부끄러워	-11.6098
샷	-11.61
▁해상	-11.6101
▁알려줘요	-11.6101
▁썰어	-11.6105
▁키우	-11.6105
▁수행하는	-11.6105
▁다르다	-11.6108
▁해볼게요	-11.6115
▁커요	-11.6116
▁단일	-11.6125
▁방영	-11.6126
▁만족하는	-11.6128
▁되겠다	-11.6128
▁비품	-11.613
▁인출	-11.6132
▁벌기	-11.6133
▁잡으	-11.6134
▁경제적인	-11.6134
▁벌어지	-11.6136
거래	-11.6136
▁것인데	-11.6137
▁엘	-11.6141
▁추가하고	-11.6141
네임	-11.6142
▁올렸	-11.6142
▁조종	-11.6145
▁유창하	-11.6145
▁잡았	-11.6147
▁불가능할	-11.6147
▁실무	-11.6149
되었다는	-11.6149
▁800	-11.6152
▁일치하	-11.6154
따로	-11.6154
▁선별	-11.6155
▁해내	-11.616
▁75	-11.6161
장님	-11.6161
코스	-11.6162
▁본문	-11.6162
▁우울해	-11.6164
철	-11.6165
▁편하고	-11.617
▁개씩	-11.6174
▁날아가	-11.6176
▁속성	-11.6177
▁걱정하는	-11.6178
핑	-11.6181
▁관리할	-11.6185
▁물어봐야	-11.6188
▁생산할	-11.6192
▁자랐	-11.6193
▁싶니	-11.6194
▁사귀는	-11.6194
▁청소하는	-11.6197
▁죽고	-11.6198
▁응대	-11.6199
▁느려	-11.6203
▁증권	-11.6208
▁분배	-11.6216
▁자가	-11.6229
▁세로	-11.6229
▁몰입	-11.6231
▁양성	-11.6232
▁불편해	-11.6241
▁신의	-11.6242
▁싫어해	-11.6243
▁더워	-11.6249
▁평균적	-11.6251
종류	-11.6254
▁매사	-11.6255
▁가동	-11.6258
▁소통하는	-11.6263
▁시켰는데	-11.6266
▁친구인	-11.6268
▁비벼	-11.6269
▁나눴	-11.6269
▁상관없어	-11.627
▁장관	-11.6279
▁귀찮	-11.6281
▁어딜	-11.6284
▁춘천	-11.6284
▁식욕	-11.6284
▁간혹	-11.6284
▁챔피언	-11.6285
▁기쁠	-11.6285
▁육아	-11.6285
▁폰트	-11.6285
▁체인	-11.6286
▁자칼	-11.6286
▁베이컨	-11.6286
▁견과류	-11.6286
▁다가올	-11.6287
▁직후	-11.6287
▁대다수	-11.6287
▁기억할	-11.6287
▁다룰	-11.6288
▁공공장소	-11.6288
▁프라하	-11.6288
▁알고리즘	-11.6289
▁마음가짐	-11.629
▁시작했어	-11.629
▁편리함	-11.629
▁전하고	-11.6292
▁거주하	-11.6292
▁즐기면서	-11.6293
드리면	-11.6295
▁포항	-11.6295
▁자매	-11.6296
인원	-11.6297
가면	-11.6298
▁이달	-11.6298
▁뷰티	-11.6299
▁섹시한	-11.6299
▁구성품	-11.6299
▁x	-11.63
▁지치	-11.63
▁글쓰기	-11.63
▁전시관	-11.6301
▁어린이집	-11.6301
▁사시	-11.6302
▁합쳐서	-11.6302
프로그램	-11.6303
▁호환	-11.6305
▁회원님	-11.6305
▁놀랍게	-11.6305
▁바뀌어서	-11.6306
▁우표	-11.6307
▁무인	-11.6307
▁아니니까	-11.6309
▁드셔도	-11.631
▁괴롭히	-11.6311
▁물어보면	-11.6311
▁노동자들	-11.6313
▁새들	-11.6314
▁느린	-11.6314
▁번호표	-11.6315
▁어댑터	-11.6315
▁열리지	-11.6316
사용	-11.6316
▁바뀌어	-11.6317
▁도심	-11.6317
▁학회	-11.6318
▁운전면허증	-11.6319
▁우물	-11.632
▁제출하면	-11.632
▁해야지	-11.6321
▁즐거웠어요	-11.6323
▁참아	-11.6323
▁차서	-11.6323
▁떠나야	-11.6323
▁있더라도	-11.6323
▁발생하여	-11.6324
져요	-11.6324
▁앤	-11.6325
13	-11.6325
▁나쁘다	-11.6327
▁지수	-11.6328
▁뜨고	-11.6332
▁유용하	-11.6333
▁부과	-11.6334
할까	-11.6335
▁세션	-11.6335
▁어울립니	-11.6336
▁소형	-11.6337
▁자석	-11.6338
▁전과	-11.6338
▁마시면서	-11.6341
▁대고	-11.6343
▁참가할	-11.6348
▁완료할	-11.6353
▁도착해	-11.6354
▁전설	-11.6356
경기	-11.6358
▁소개팅	-11.6359
▁경험하고	-11.6359
으셔야	-11.636
▁완료했습니다	-11.6365
▁지낸	-11.6374
명과	-11.638
해주시고	-11.6381
▁서식	-11.6382
▁짧	-11.6382
▁저렴하고	-11.6384
▁써주	-11.6384
▁퍼즐	-11.6384
▁멈추고	-11.6388
▁걸어야	-11.6389
▁엔	-11.6389
▁장어	-11.6389
▁주먹	-11.6391
▁함수	-11.6392
▁문명	-11.6392
▁제거하고	-11.6392
▁빌리고	-11.6401
▁드리려고	-11.6405
▁다니며	-11.6408
▁섬세	-11.6411
▁요정	-11.6412
▁수학여행	-11.6416
던가요	-11.6419
▁제품인데	-11.642
자는	-11.6421
▁알면서	-11.6422
▁해야겠다	-11.6423
▁머	-11.6424
▁긍정적이	-11.6425
▁출발합니다	-11.6427
▁통하는	-11.6429
▁끝나지	-11.6429
▁일했습니다	-11.643
▁보관해	-11.643
▁상한	-11.6433
▁타이	-11.6434
타운	-11.6435
였고	-11.6437
코트	-11.6438
하였으며	-11.6439
▁방법들	-11.6439
▁못했을	-11.644
▁그런가요	-11.6442
▁지나지	-11.6442
▁포함되	-11.6443
▁보여주기	-11.6444
▁수행할	-11.6448
찰	-11.6449
▁천재	-11.645
▁지을	-11.645
▁점프	-11.6451
▁방지하	-11.6451
▁놓여	-11.6457
▁하도	-11.6461
▁커리	-11.6464
▁고리	-11.6464
▁해보겠습니다	-11.6467
▁치명적	-11.6467
원에	-11.6469
▁신기	-11.6471
▁포기할	-11.6473
▁주인공들	-11.6475
▁찍었	-11.6478
▁느꼈습니	-11.648
▁좋아한다	-11.6482
▁불량품	-11.6483
▁여자분	-11.6486
▁나비	-11.6486
탑	-11.649
지기	-11.649
야겠네요	-11.6491
▁개발하고	-11.6491
▁찍기	-11.6494
▁게시	-11.6499
▁바빴	-11.65
▁다루	-11.6505
▁사랑하기	-11.6506
▁바뀌지	-11.6507
오는	-11.6507
▁변경하는	-11.6508
▁서서	-11.6511
▁본다	-11.6512
▁스카이	-11.6512
▁협정	-11.6513
▁금고	-11.6518
▁부족하	-11.6521
▁미쳐	-11.6525
▁공부하면	-11.6533
▁객관적	-11.6533
되었던	-11.6536
▁어려	-11.6536
▁태	-11.654
▁등교	-11.6546
▁올라갔	-11.6548
테	-11.6554
▁차감	-11.6554
▁IR	-11.6556
▁열리	-11.6556
▁여행하기	-11.6557
▁연구원	-11.6559
▁열기	-11.6559
▁원했습니다	-11.6561
▁말하세요	-11.6564
▁괜찮고	-11.6565
▁없어진	-11.6569
▁스킬	-11.6572
▁수천	-11.6573
▁잃어버렸는데	-11.6577
▁찜질	-11.6578
▁외계인	-11.6579
▁부모님들	-11.6581
퉁이	-11.6585
▁머물렀	-11.6586
▁보았	-11.659
▁자원봉사	-11.6591
▁만들어져	-11.6591
▁넣었	-11.6593
기관	-11.6594
▁활력	-11.6596
▁좌측	-11.6596
▁체코	-11.6597
▁현관	-11.6597
▁알리	-11.6597
▁포워더	-11.6598
▁향신료	-11.6598
▁재즈	-11.6599
▁샤프	-11.6599
▁고흐	-11.6599
▁찜질방	-11.6599
▁시나리오	-11.66
▁파인애플	-11.66
▁프러포즈	-11.66
▁손수건	-11.66
▁만납시다	-11.66
▁AA	-11.66
▁포트폴리오	-11.6601
▁로스앤젤레스	-11.6601
▁선물용	-11.6601
너무	-11.6603
▁쇼핑센터	-11.6603
▁좌절	-11.6603
▁가져왔는데	-11.6604
▁기다렸는데	-11.6604
▁승	-11.6606
▁월미도	-11.6606
▁높이기	-11.6609
▁인근	-11.6609
▁힘드네요	-11.6609
▁컨트롤	-11.661
▁혈액	-11.661
▁채식	-11.661
▁진행하지	-11.661
▁칼슘	-11.6611
▁어렵네요	-11.6611
▁불행하게	-11.6612
▁자켓	-11.6612
▁농사	-11.6613
▁않았습니까	-11.6613
▁뜯	-11.6613
▁결점	-11.6616
▁기쁘고	-11.6617
▁배웁니	-11.6617
▁반가워요	-11.6618
▁정당한	-11.6618
▁한우	-11.6619
분쯤	-11.6619
▁이루어져야	-11.662
▁채권	-11.6622
▁판매되고	-11.6624
▁위치해	-11.6626
이네	-11.6626
▁없으시면	-11.6627
▁명칭	-11.6628
▁익숙한	-11.6629
▁어려운데	-11.663
▁유지해	-11.663
▁빌어	-11.6631
▁일어납니	-11.6631
▁노력할게요	-11.6631
▁이상형	-11.6631
▁갔었는데	-11.6632
▁지원서	-11.6632
▁부츠	-11.6633
▁요구되는	-11.6633
▁부활	-11.664
▁옆집	-11.664
▁대본	-11.6641
▁부탁한	-11.6642
▁정리할	-11.6642
▁백성	-11.6643
▁온수	-11.6643
▁돌아보	-11.6643
슬	-11.6646
▁집중하는	-11.6647
▁감기약	-11.6648
치료	-11.6648
병원	-11.6648
▁바이오	-11.6649
▁피고인	-11.665
▁누르고	-11.6651
▁맛있을	-11.6652
▁됐다	-11.6654
▁질감	-11.6654
▁비교할	-11.6654
▁사거리	-11.6655
▁교내	-11.6655
▁책정	-11.6656
평	-11.6658
▁비교해서	-11.6659
▁무시하고	-11.666
▁어렵다는	-11.6661
▁설명하	-11.6663
▁사라	-11.6664
봤는데	-11.6664
▁조성	-11.6665
▁관람객	-11.6666
▁돔	-11.6666
▁기억하세요	-11.6667
어져	-11.6668
▁치료법	-11.6668
구이	-11.6669
▁익히	-11.6673
▁전화드렸	-11.6674
▁말하길	-11.6675
▁접종	-11.6676
▁선이	-11.6676
▁밀접	-11.6678
▁의회	-11.6679
▁넓어	-11.6682
▁아름다웠	-11.6684
▁양은	-11.6687
▁수송	-11.6687
▁의외	-11.6688
▁적응할	-11.6688
예	-11.6689
▁활성	-11.6689
▁넉넉	-11.669
▁입점	-11.6694
▁마땅	-11.6697
▁구성된	-11.6699
으론	-11.6704
▁축하해요	-11.6708
▁지불해	-11.6709
▁바꾸지	-11.6712
▁출동	-11.6712
▁하드	-11.6714
▁윤리적	-11.6714
▁처음이야	-11.6718
▁경과	-11.6718
▁질환	-11.672
▁되리라	-11.6722
▁전파	-11.6724
▁봤으면	-11.6724
▁성공하기	-11.6727
▁다가가	-11.6728
▁늦어지는	-11.673
ft	-11.6731
▁혼잡	-11.6732
▁기다리지	-11.6735
▁궁	-11.6735
▁받았다고	-11.6736
▁결정했어요	-11.6737
▁임산부	-11.6739
▁좋은지	-11.674
▁스틱	-11.674
▁도착해요	-11.6741
▁판정	-11.6743
▁사주	-11.6743
▁나아	-11.6743
▁충분할	-11.6743
▁그렇	-11.6746
▁바뀌었어	-11.675
▁변심	-11.675
▁요건	-11.6751
▁발견되	-11.6752
▁매칭	-11.6754
▁볼까	-11.6755
▁촛불	-11.6756
▁학생회	-11.6756
▁확인되지	-11.6758
여야	-11.6761
▁:	-11.6761
▁해봤는데	-11.6762
▁문제야	-11.6762
▁젤	-11.6765
▁달고	-11.6767
▁전등	-11.6768
▁발생하였	-11.6769
파크	-11.6771
▁생각하지만	-11.6773
▁말씀드리고	-11.6777
▁생각해봐	-11.6778
▁따를	-11.6778
▁두부	-11.6781
▁갖추어	-11.6781
▁용지	-11.6781
▁타사	-11.6783
▁찌	-11.6783
▁냈어요	-11.6785
▁요청하	-11.6788
▁문화재	-11.679
음식	-11.6791
▁개요	-11.6792
▁발레	-11.6793
O	-11.6793
더욱	-11.6796
▁왔던	-11.6796
▁지키고	-11.6805
▁되는데요	-11.6805
▁작성하는	-11.6806
▁준수	-11.6809
▁만족할	-11.6811
▁어리석	-11.6814
▁과실	-11.6819
▁맞서	-11.682
가면서	-11.6822
▁장염	-11.6829
▁왔다고	-11.6831
해볼게요	-11.6833
등급	-11.6834
월드	-11.6835
▁선명	-11.6835
▁도착했어	-11.6836
▁상황이라	-11.6838
▁포트	-11.6842
▁난다	-11.6843
▁걸어갈	-11.6846
▁노후	-11.6847
▁물품들	-11.6849
▁보던	-11.6853
틀	-11.6859
명씩	-11.686
볼까요	-11.686
▁되었던	-11.6863
▁동봉	-11.6863
▁맛있는데	-11.6863
▁후회할	-11.6864
▁대피	-11.6865
▁궁극적	-11.6867
▁이해해요	-11.6867
신다면	-11.6868
▁이래	-11.6869
었고	-11.6872
▁예비	-11.6873
▁브라우저	-11.6875
하오니	-11.6875
▁도와주시	-11.6876
▁홍보하는	-11.6889
▁진주	-11.6893
▁녀석	-11.6894
▁유의	-11.6895
▁부분적	-11.6899
▁합병	-11.6899
투스	-11.69
▁시급	-11.69
▁불쌍	-11.6901
▁보건	-11.6904
▁언젠	-11.6905
▁입력한	-11.6905
▁일생	-11.6907
하더라도	-11.6908
▁주최	-11.6908
▁아픈데	-11.6909
▁밝혀	-11.6909
▁최저	-11.691
▁걸음	-11.691
▁좋으니	-11.691
▁봤다	-11.6915
▁신체적	-11.6916
▁올라와	-11.6919
▁절벽	-11.6919
▁빈칸	-11.6919
▁처음이에요	-11.6919
▁동대문	-11.692
▁복무	-11.6921
▁MOQ	-11.6921
▁식습관	-11.6921
▁컨퍼런스	-11.6922
▁프로토콜	-11.6922
▁슬라이드	-11.6922
▁사라질	-11.6922
▁즉각적	-11.6922
▁하필	-11.6923
▁지날수록	-11.6923
겠니	-11.6923
▁Jackal	-11.6924
▁사랑스러워	-11.6927
▁아니더라도	-11.6931
▁감사해	-11.6931
사원들	-11.6932
▁작별	-11.6932
▁돌려받을	-11.6932
▁예상치	-11.6932
시로	-11.6933
▁느끼기	-11.6933
▁오래돼서	-11.6933
▁지쳐	-11.6934
▁유닛	-11.6934
▁알겠지만	-11.6935
름	-11.6936
▁삼각형	-11.6937
▁체온	-11.6937
▁생태계	-11.6937
▁그렇기에	-11.6937
▁이야기한	-11.6938
▁몰랐네요	-11.6938
▁재무제표	-11.6938
▁미군	-11.6938
▁찾겠어요	-11.6938
▁악마	-11.6939
▁찾아오	-11.6939
▁당겨	-11.6939
▁단말기	-11.694
▁어린이용	-11.6941
▁찾으려고	-11.6941
▁못하	-11.6941
▁사이버	-11.6942
▁작지만	-11.6942
▁PI	-11.6944
▁갓	-11.6944
▁모르기	-11.6946
▁걸렸어	-11.6946
▁빙수	-11.6946
▁생각들	-11.6947
▁끝났어요	-11.6947
▁캐다	-11.6947
▁준비되면	-11.6948
▁조별	-11.6949
▁미숙	-11.6951
▁기다렸어요	-11.6952
▁테라스	-11.6952
▁발견되었	-11.6954
▁찍어주세요	-11.696
▁받으며	-11.6962
▁튀	-11.6963
▁멀어요	-11.6964
구매	-11.6965
▁발리	-11.6966
보니	-11.6967
▁활용해	-11.6967
스탄	-11.6967
▁군사	-11.6969
▁삼계탕	-11.697
▁예정이고	-11.697
▁배웠습니	-11.697
고요	-11.6972
▁받는다	-11.6974
▁올려주	-11.6975
▁아끼는	-11.6977
▁이기적인	-11.6977
an	-11.6978
분간	-11.6979
▁말아줘	-11.6981
▁플레이어	-11.6982
▁위탁	-11.6984
▁이왕	-11.6984
▁되겠어요	-11.6987
▁실은	-11.6991
▁표시되어	-11.6991
▁점유율	-11.6992
▁연체	-11.6992
▁드네요	-11.6993
▁멋지고	-11.6998
기록	-11.6999
▁불편하지	-11.6999
▁시간이라	-11.6999
▁잊어버리	-11.7001
▁지상	-11.7002
▁이용하세요	-11.7002
▁세기	-11.7005
▁재난	-11.7005
하였는데	-11.7009
▁서적	-11.701
▁넓고	-11.7013
▁캐	-11.7016
▁4,000	-11.7017
▁하락	-11.7019
▁하려는	-11.702
▁틀렸	-11.7023
▁고집	-11.7025
▁성장하고	-11.7025
▁전면	-11.7032
▁중이라서	-11.7032
▁타세요	-11.7034
▁유연	-11.7036
으십니까	-11.7037
▁이야기해요	-11.7037
▁받으려고	-11.7038
▁볼게	-11.704
▁포맷	-11.7043
▁연주할	-11.7044
▁장사	-11.7045
▁지루해	-11.7046
▁이야기들	-11.7052
▁총괄	-11.7058
▁이륙	-11.7058
▁보거나	-11.7059
▁자사	-11.7062
▁올라온	-11.7065
▁먹을게	-11.7066
▁뿐이	-11.7067
▁생기고	-11.7069
r	-11.707
▁2019	-11.7076
아라	-11.7077
▁않으니까	-11.7079
▁마디	-11.708
▁쉬어야	-11.7082
단다	-11.7083
만큼	-11.7088
▁놔	-11.7089
▁들어오고	-11.7091
▁도착했다	-11.7092
▁꽂	-11.71
▁호스트	-11.7111
▁심리적	-11.7111
▁이란	-11.7111
▁세계화	-11.7112
▁구매하기	-11.7113
아요	-11.7116
▁체제	-11.7117
▁수십	-11.7117
▁물가	-11.7117
있을	-11.7123
▁막혀	-11.7124
▁대신해서	-11.7125
보도	-11.7126
▁연구하고	-11.7127
▁신고서	-11.7129
▁있으면서	-11.7134
▁복합	-11.7137
▁도덕적	-11.7137
▁흥미롭	-11.7137
▁CO	-11.7139
▁사용하는지	-11.714
▁보내주는	-11.714
▁하려고요	-11.7141
▁꿈입니다	-11.7142
▁올게	-11.7144
▁문제인	-11.7145
▁축적	-11.7156
▁조지	-11.7166
▁남겼	-11.7172
▁퍼지	-11.7173
▁주관	-11.7176
▁혈	-11.7179
▁기억합니다	-11.718
▁진화	-11.7181
르고	-11.7182
▁추천해주실	-11.7183
▁가져왔	-11.719
▁작가들	-11.719
▁스시	-11.7192
▁걸으면	-11.7192
▁보여드릴	-11.7196
▁해줬	-11.7198
▁보내니	-11.7207
▁폐지	-11.7207
▁어색	-11.721
▁늘어나는	-11.7214
▁변하는	-11.7215
▁부족하다	-11.7215
▁정돈	-11.7216
▁되어가	-11.7217
▁꼬	-11.7217
▁의사들	-11.722
▁상가	-11.722
▁온다	-11.722
▁주나요	-11.7222
▁도난	-11.7228
▁예외	-11.7229
▁통하지	-11.7233
▁전구	-11.7235
▁만지	-11.7235
▁찾았어	-11.7235
▁여신	-11.7237
▁가볼	-11.7237
▁실망하	-11.724
▁입어요	-11.7243
▁계속해	-11.7243
▁바쁩니	-11.7244
▁발언	-11.7249
약관	-11.7249
▁있거든	-11.7249
▁놀랄	-11.7252
▁굵	-11.7252
▁학창	-11.7252
▁북쪽	-11.7254
▁초음파	-11.7254
▁나뭇잎	-11.7254
▁쌀국수	-11.7254
▁오른손	-11.7254
▁항생제	-11.7254
▁잭슨	-11.7255
▁디바이스	-11.7255
▁하드웨어	-11.7255
▁탄산음료	-11.7255
▁계좌이체	-11.7255
▁차이나타운	-11.7256
▁지구온난화	-11.7256
▁법인카드	-11.7257
▁1,500	-11.7257
▁입학식	-11.7258
▁홍차	-11.7258
▁아시겠지만	-11.7258
▁눈빛	-11.7258
▁착용감	-11.7259
▁진열된	-11.726
▁걔네	-11.7261
▁초록	-11.7262
▁멍청한	-11.7263
▁유령	-11.7263
▁액자	-11.7263
▁내비게이션	-11.7264
▁누르세요	-11.7265
▁동맹	-11.7266
▁흥미로워	-11.7266
▁좋겠	-11.7266
▁작가님	-11.7267
▁맥락	-11.7268
▁복근	-11.7269
▁정해지면	-11.7269
▁웨이브	-11.7269
▁다행이다	-11.727
▁해상도	-11.727
▁민수	-11.7271
▁급식	-11.7272
▁응급실	-11.7275
▁불가능하다고	-11.7276
▁충격적인	-11.7277
▁착	-11.7277
▁아시안	-11.728
▁QR	-11.7281
▁등록할	-11.7282
▁함유되어	-11.7282
▁않으시면	-11.7283
▁신앙	-11.7284
▁대륙	-11.7285
▁대비해서	-11.7285
▁따라가	-11.7286
▁기대된다	-11.7287
▁도착했는데	-11.7287
▁소변	-11.7287
▁의욕	-11.7288
▁위스키	-11.7289
▁프로그래밍	-11.7289
▁집들이	-11.729
▁사람이라	-11.729
▁결제하시면	-11.729
▁일어났어요	-11.7292
▁싫다	-11.7294
▁어떡해요	-11.7296
▁탄소	-11.7297
▁일식	-11.7298
▁일본식	-11.73
▁나갔다	-11.73
▁식량	-11.73
▁켜고	-11.7301
▁계셔서	-11.7302
▁쉬세요	-11.7302
▁장군	-11.7302
▁우동	-11.7302
▁그저께	-11.7304
p	-11.7304
▁피곤하지	-11.7306
▁어긋나	-11.7307
▁아일랜드	-11.731
▁오차	-11.731
▁놓친	-11.7314
▁미뤄	-11.7315
▁굴지	-11.7316
▁극대화	-11.7318
▁있었다는	-11.7319
▁구청	-11.7319
▁머물러	-11.7321
▁잡힌	-11.7324
체계	-11.7326
▁무덤	-11.7329
▁맛있었습니다	-11.7329
DF	-11.7329
▁감사한	-11.7331
▁탱크	-11.7333
▁예보	-11.7333
▁착하고	-11.7335
▁시각적	-11.7336
하진	-11.7339
▁먹던	-11.7339
▁전신	-11.7343
▁보이는데요	-11.7346
례	-11.7346
▁되려면	-11.7348
▁살펴보고	-11.7348
▁순대	-11.7349
컷	-11.7352
▁반짝이	-11.7353
▁32	-11.7354
보셨어요	-11.7354
▁병행	-11.7355
▁대상자	-11.7355
▁시달리	-11.7358
▁잠실	-11.7363
▁원했던	-11.7365
▁사태	-11.7366
그릇	-11.7371
▁위험해요	-11.7371
▁까다롭	-11.7371
▁나왔던	-11.7372
▁활용하는	-11.7375
▁도와줄게	-11.7377
▁입금해	-11.7377
핏	-11.7379
▁외출할	-11.7379
▁뱅	-11.738
▁들어가도	-11.738
▁좋나요	-11.7381
▁팔리	-11.7381
널	-11.7382
▁처방해	-11.7383
▁자르는	-11.7385
▁일어났을	-11.7386
대학	-11.7387
▁추가적	-11.7387
▁영업시간	-11.7387
▁DB	-11.7387
▁설명해주	-11.7387
파일	-11.7391
▁한가	-11.7395
▁아랍	-11.7395
▁묻어	-11.7398
▁199	-11.7399
었다는	-11.7402
닉	-11.7406
▁연계	-11.7408
▁볼트	-11.7409
▁주고받	-11.7409
립	-11.741
▁철수	-11.7411
▁입력하면	-11.7415
▁넘어져	-11.7421
▁변비	-11.7422
▁흔	-11.7422
정작	-11.7424
▁다닌	-11.7424
주간	-11.7425
있게	-11.7425
▁기밀	-11.7426
▁불러요	-11.7427
▁영화배우	-11.7427
▁녹아	-11.7428
▁살던	-11.743
클럽	-11.7431
밖	-11.7433
▁제품인가요	-11.7433
▁도시들	-11.7438
▁구간	-11.7441
자라서	-11.7443
▁내렸	-11.7445
▁주차할	-11.7447
싶어요	-11.7451
▁제공되	-11.7455
▁앉았	-11.7457
젤	-11.7458
▁34	-11.7459
되었으며	-11.746
▁있었나	-11.7463
▁유쾌	-11.7464
▁옮기	-11.7464
▁슈	-11.7464
▁예약하는	-11.7467
▁괜찮지	-11.7469
▁제작하고	-11.747
▁지급할	-11.7471
▁곳인가요	-11.7479
▁숙박비	-11.748
▁주력	-11.7481
▁됐는지	-11.7485
▁있겠다	-11.7489
▁분해	-11.749
▁드렸어요	-11.7491
▁한대	-11.7493
▁달간	-11.7496
▁책장	-11.7497
▁흥분	-11.7497
▁발표자	-11.7502
유	-11.7506
▁말인데	-11.7506
▁이윤	-11.7507
환자의	-11.7507
▁생활하고	-11.7508
▁기적	-11.7509
▁오버	-11.7511
▁반사	-11.7513
▁신장	-11.752
▁변경되어	-11.7521
▁코인	-11.7524
▁찾았다	-11.7526
▁막걸리	-11.7528
l	-11.7538
▁복용하	-11.754
▁짧아	-11.7546
▁기장	-11.755
▁필요하니	-11.7554
▁패배	-11.7556
▁귀중	-11.7556
▁파나	-11.7557
▁첫사랑	-11.7559
▁해결될	-11.756
▁해주지	-11.7562
▁트레이너	-11.7563
▁정해야	-11.7563
▁챙겨주	-11.7563
▁곳이라	-11.7564
▁요청해	-11.7565
▁신화	-11.757
▁뵐	-11.757
▁물어보자	-11.7573
▁오퍼	-11.7574
자라는	-11.7577
▁스무	-11.7579
▁시켜서	-11.758
▁하잖아	-11.7581
▁어땠어	-11.7583
이구나	-11.7584
▁새끼	-11.7584
▁놀랐어	-11.7585
▁썼어	-11.7586
▁않나	-11.7589
▁도전하는	-11.7591
▁딜러	-11.7591
▁s	-11.7593
승	-11.7595
▁볼륨	-11.7595
▁뚱뚱	-11.7596
▁강릉	-11.7597
되는지	-11.7597
▁평창	-11.7597
▁체벌	-11.7597
▁55	-11.7598
▁입시	-11.7598
▁단풍	-11.7598
▁시끄러운	-11.7598
▁기저귀	-11.7599
▁브런치	-11.7599
▁발코니	-11.7599
▁꽃다발	-11.7599
▁요즈음	-11.7599
▁소름	-11.7599
▁바깥쪽	-11.76
▁이스라엘	-11.76
▁맥도날드	-11.76
▁컴플레인	-11.76
▁세종대왕	-11.76
▁광경	-11.76
▁에드워드	-11.76
▁참으로	-11.76
▁메이저	-11.76
▁뮤직비디오	-11.7601
▁보시다시피	-11.7601
▁축하드려요	-11.7602
▁차갑	-11.7603
▁쉬울	-11.7604
▁먹는다	-11.7604
▁맞춘	-11.7605
▁카드사	-11.7606
▁대규모	-11.7606
▁수취인	-11.7607
▁OEM	-11.7608
▁올라가시면	-11.7608
인과	-11.7609
▁한창	-11.7612
▁장애물	-11.7613
▁단품	-11.7613
▁그랬는데	-11.7614
▁뜯어	-11.7614
▁자요	-11.7615
▁응급	-11.7616
▁읽으면서	-11.7617
▁다이빙	-11.7617
▁좋네	-11.7617
▁생명체	-11.7618
▁희망하는	-11.7619
▁방문객	-11.762
▁심플한	-11.7621
▁고르는	-11.7621
▁부족하여	-11.7621
▁그려진	-11.7622
▁내구성	-11.7622
▁극복할	-11.7623
▁꿈속	-11.7624
했더니	-11.7629
버거	-11.763
▁예정이며	-11.763
▁시련	-11.7633
▁타격	-11.7634
▁식사할	-11.7634
▁접착제	-11.7635
▁힘든데	-11.7635
▁닫았	-11.7635
▁t	-11.7637
▁배워서	-11.7637
▁생활비	-11.7637
▁연착	-11.7637
▁물론이지	-11.7637
해놓은	-11.7638
▁이해한	-11.7639
펜	-11.7639
▁간직	-11.764
▁달성하	-11.7641
▁남겨두	-11.7641
▁그러다가	-11.7642
▁틀리	-11.7643
▁보내주시겠어요	-11.7644
▁복원	-11.7644
▁개혁	-11.7645
▁시작되는	-11.7646
해주면	-11.7647
▁리버	-11.7648
▁루	-11.7652
▁운동선수	-11.7653
▁영웅들	-11.7655
▁모음	-11.7656
징	-11.7658
▁들어주셔	-11.7658
▁힘들지만	-11.7662
▁소화기	-11.7662
였을	-11.7662
▁법규	-11.7664
▁안의	-11.7665
▁사용권	-11.7665
▁재미있어요	-11.7668
▁느	-11.7669
▁측정하는	-11.7671
▁해주신	-11.7672
▁48	-11.7672
▁따뜻해	-11.7673
▁차들	-11.7674
▁하다니	-11.7676
▁협약	-11.7677
▁때문인	-11.7677
▁안내문	-11.7678
▁불편해서	-11.7679
▁뜨겁	-11.768
▁FW	-11.7681
▁전학	-11.7681
▁각인	-11.7682
▁도박	-11.7686
▁찍힌	-11.7687
▁개발팀	-11.7688
▁근대	-11.7689
▁않죠	-11.7689
▁재밌을	-11.7693
▁만나자고	-11.7695
염	-11.7696
▁몽골	-11.7702
▁충족시키	-11.7703
▁최우선	-11.7705
▁여러가지	-11.7705
셔	-11.7706
▁추천해주	-11.7708
▁바디	-11.7709
▁꾸미	-11.771
투명한	-11.771
▁하반기	-11.7711
▁철저한	-11.7712
조각	-11.7712
▁진행하려고	-11.7714
▁지리	-11.7714
▁발견했어	-11.7719
▁알려주시겠	-11.7722
▁들여	-11.7722
▁구매해	-11.7723
▁받으려	-11.7725
▁가능하지	-11.7725
▁개별적	-11.7725
▁가운	-11.7729
▁전화하는	-11.773
패	-11.773
▁눈사람	-11.7732
▁재입고	-11.7732
달라는	-11.7733
▁올라가면	-11.7736
▁넣어주	-11.7737
떡	-11.7741
일째	-11.7744
차례	-11.7744
▁발급받	-11.7748
살입니다	-11.7749
▁촉촉	-11.7749
▁포함하는	-11.7753
죄	-11.7756
▁드러나	-11.7757
▁남긴	-11.7758
▁학년	-11.7761
▁태워다	-11.7763
▁입자	-11.7765
▁사무	-11.7765
▁아래층	-11.7768
▁놓으세요	-11.7768
▁사용량	-11.7771
▁선물할	-11.7772
문서	-11.7773
▁고마	-11.7777
▁기다렸다	-11.7779
▁부하	-11.7779
▁원활하	-11.7781
▁읽어보	-11.7781
▁하였고	-11.7781
▁괜찮으신	-11.7784
▁파업	-11.7787
▁닫아	-11.7787
▁경험한	-11.7798
▁전부입니다	-11.78
▁생각하여	-11.7802
▁교체해	-11.7802
▁구사	-11.7807
▁고맙	-11.781
▁입학한	-11.7813
▁면도	-11.7814
메일	-11.7816
▁작문	-11.7817
▁양심	-11.7818
▁보다가	-11.7818
머신	-11.782
▁무지개	-11.7821
▁보아야	-11.7826
박물관	-11.7827
▁트	-11.7831
▁관리하고	-11.7831
▁운송비	-11.7833
I	-11.7836
뜻	-11.7838
▁하차	-11.7838
▁형사	-11.7846
▁않으셨	-11.7849
▁워드	-11.7849
▁막내	-11.7853
▁이상해	-11.7858
▁놈	-11.7859
갖	-11.7859
▁재확인	-11.7861
▁구비	-11.7861
▁결혼하면	-11.7862
▁동등	-11.7864
▁출전	-11.7864
▁볼까요	-11.7868
▁완료되어	-11.7871
▁전복	-11.7872
베	-11.7873
▁나아질	-11.7878
꽃	-11.7882
보험	-11.7882
▁견인	-11.7885
싶습니다	-11.7885
▁분장	-11.7887
지원	-11.79
▁장소들	-11.7904
▁경기도	-11.7907
▁우는	-11.7908
놓고	-11.7908
▁사세요	-11.7909
▁문제라고	-11.791
도로	-11.7912
▁선행	-11.7912
▁그러면서	-11.7913
▁곤충	-11.7914
게임	-11.7915
▁잃어버렸어	-11.7915
▁로맨틱	-11.7918
▁배신	-11.7918
부턴	-11.7918
▁사라진	-11.7919
▁리얼	-11.7919
▁적용하는	-11.7922
▁신기한	-11.7923
▁이분	-11.7925
▁라이트	-11.7926
▁구상	-11.7928
▁산출	-11.793
▁말씀드려	-11.7931
▁빼는	-11.7931
▁주었	-11.7931
치는	-11.7933
▁마녀	-11.7934
▁재활	-11.7936
낀	-11.7936
원씩	-11.7936
도서관	-11.7938
▁말았어야	-11.7939
▁신청하	-11.7944
▁사용했	-11.7944
▁걸리니	-11.7944
▁36	-11.7944
▁버렸어	-11.7946
▁침착	-11.7947
▁빌려줄	-11.7947
▁성적표	-11.7951
▁한해	-11.7952
▁스팸	-11.7953
▁트래픽	-11.7955
▁밀라노	-11.7955
▁퓨리토	-11.7955
▁크레딧	-11.7956
▁GMO	-11.7956
▁구급차	-11.7956
▁액수	-11.7956
▁쾌적	-11.7956
▁시너지	-11.7956
▁잦은	-11.7957
▁차근차근	-11.7957
▁마일리지	-11.7957
▁가전제품	-11.7957
▁이용해야	-11.7957
▁해리포터	-11.7957
▁웃으며	-11.7957
▁체육대회	-11.7957
▁벨기에	-11.7958
▁그러시군요	-11.7958
▁절실	-11.7959
▁위안부	-11.7959
▁야생	-11.7959
▁브러시	-11.7959
▁생계	-11.7959
▁해지	-11.796
▁해보	-11.7961
▁여의도	-11.7961
▁100,000	-11.7961
번씩	-11.7961
▁판매하	-11.7961
▁호감	-11.7962
마을	-11.7962
▁원재료	-11.7963
▁완제품	-11.7963
▁추울	-11.7964
▁괜찮으시면	-11.7965
라미	-11.7968
▁마찰	-11.7969
▁첨가	-11.7969
▁일으	-11.797
▁신축	-11.7973
▁URL	-11.7973
▁외화	-11.7973
▁자동화	-11.7973
▁달팽이	-11.7973
▁비교했을	-11.7973
▁음반	-11.7973
▁그리스도	-11.7973
▁앓고	-11.7974
▁답답	-11.7974
▁벌어	-11.7974
▁정밀	-11.7974
하였으나	-11.7975
▁판매하기	-11.7975
▁원합니까	-11.7975
▁케이블카	-11.7975
▁제품인지	-11.7978
▁걱정했는데	-11.7979
가며	-11.7981
▁수정사항	-11.7981
▁봐주시겠어요	-11.7981
▁잔잔	-11.7982
▁친밀	-11.7982
▁맞는다면	-11.7983
▁부탁할게요	-11.7983
뿐	-11.7983
▁늦었어요	-11.7983
▁없었지만	-11.7983
▁미루	-11.7984
▁흥미롭게	-11.7984
▁켜져	-11.7987
▁부재	-11.7987
▁하는군요	-11.7988
on	-11.7988
▁참가자들	-11.799
▁가능하다는	-11.799
▁박사님	-11.799
▁일으키는	-11.7991
▁도마	-11.7992
▁청년들	-11.7992
▁개구리	-11.7992
▁직물	-11.7993
▁라이프	-11.7994
▁다루고	-11.7995
▁없군요	-11.7995
▁정하고	-11.7996
▁실망했습니다	-11.7997
▁개발하는	-11.7997
귄	-11.7998
▁되돌려	-11.7998
▁주저	-11.8
▁가르쳤	-11.8
▁밴	-11.8
▁인수인계	-11.8001
▁생활하는	-11.8001
▁못하겠어요	-11.8001
▁신청했는데	-11.8003
▁조교	-11.8004
보다	-11.8004
▁연습할	-11.8005
▁예뻐요	-11.8007
▁히터	-11.8008
▁드레싱	-11.8008
▁하트	-11.8009
▁스트레스받	-11.8009
겠구나	-11.8009
▁내려갈	-11.8011
담	-11.8011
▁단발	-11.8011
투어	-11.8012
▁화성	-11.8014
▁용액	-11.8015
▁보류	-11.8015
▁치우	-11.8016
▁없잖아요	-11.8016
▁인터	-11.8016
▁흘리	-11.8017
▁미안한	-11.8018
▁축하하고	-11.802
▁SM	-11.8022
▁두어야	-11.8027
▁클립	-11.8028
▁참석해	-11.8028
▁문제없습니다	-11.803
▁유혹	-11.8031
갑시다	-11.8031
▁농도	-11.8032
▁1,	-11.8032
▁장기적	-11.8033
▁서술	-11.8035
▁음악회	-11.8035
▁판단할	-11.8037
▁쓰면서	-11.8037
▁포장해주세요	-11.8037
▁져야	-11.8039
▁만났다	-11.8043
▁봐주	-11.8043
목욕탕	-11.8043
▁불고	-11.8043
▁피곤하고	-11.8045
▁원하세요	-11.8046
▁보이면	-11.8047
▁사람인지	-11.8049
▁다르고	-11.8053
▁사라지고	-11.8055
▁주목받	-11.8057
▁시원	-11.8057
▁실업	-11.8058
▁요구하	-11.8058
▁거잖아요	-11.8063
▁고통받	-11.8067
▁않네	-11.807
▁실수한	-11.8072
▁매니저님	-11.8072
▁출판사	-11.8072
실적	-11.8073
▁나니	-11.8074
▁달라지	-11.8075
▁절망	-11.8076
민들	-11.8077
▁재미있습니다	-11.8079
▁검출	-11.8081
▁첨부하였	-11.8081
▁빠져서	-11.8082
▁인성	-11.8084
▁이룬	-11.8084
▁테스트해	-11.8084
내드린	-11.8086
▁임의	-11.8094
▁믿기	-11.81
센	-11.8106
▁응원해	-11.8108
▁동반자	-11.8113
한데	-11.8113
▁가라	-11.8114
▁무난	-11.8114
▁금이	-11.8115
▁빕	-11.8117
▁보았어	-11.8118
▁시작했고	-11.812
해져서	-11.812
▁적절하	-11.8121
려주세요	-11.8123
▁확정된	-11.8123
▁자란	-11.8124
100	-11.8124
▁그러던	-11.8128
▁오니까	-11.8128
▁적용해	-11.8128
▁싸우지	-11.8129
▁편해요	-11.8135
대화하고	-11.8135
때로	-11.8137
▁일괄	-11.8138
▁부릅니	-11.8138
▁오키	-11.8138
▁다가와	-11.8139
단체	-11.8147
▁달려가	-11.815
▁현대인	-11.815
▁포커	-11.8151
되었고	-11.8153
는구나	-11.8153
으실	-11.8153
▁시가	-11.8155
▁지나갔	-11.8156
▁가면서	-11.8157
▁Q	-11.8158
▁몫	-11.8159
▁귀엽	-11.8161
줬어요	-11.8163
▁재밌고	-11.8165
▁이겨	-11.8169
▁원하는데	-11.817
▁왕국	-11.8173
▁됐고	-11.8179
▁것일까요	-11.8179
▁돌려받	-11.8181
▁얘기한	-11.8184
전략	-11.8185
▁않겠다	-11.8191
▁든든	-11.8191
▁윗	-11.8192
이드	-11.8193
되었다고	-11.8194
▁수평	-11.8195
▁올려놓	-11.8198
▁집중적	-11.8202
▁따라와	-11.8208
▁직원분	-11.821
▁들어도	-11.821
▁생수	-11.8211
▁거듭	-11.8211
▁하셨어	-11.8211
▁설치하는	-11.8212
▁알리기	-11.8214
버릴	-11.8215
▁회계사	-11.8217
▁처리하고	-11.8223
▁받으시	-11.8233
▁이어지는	-11.8233
▁배려심이	-11.8234
는군요	-11.8236
▁가까워	-11.8237
▁두지	-11.8237
▁문신	-11.8239
▁필요하고	-11.8239
▁수액	-11.8244
▁찍지	-11.8245
▁택배비	-11.8246
▁참석해야	-11.8248
▁싱싱	-11.825
▁들기	-11.825
▁중력	-11.8253
칭	-11.8257
▁활동하고	-11.8259
되도록	-11.8262
▁입증	-11.8264
▁단축	-11.8264
▁생활할	-11.8265
▁해피	-11.8268
▁마셨어	-11.8271
▁탐험	-11.8271
▁체형	-11.8272
MS	-11.8276
▁돌고	-11.8277
로드	-11.8277
▁진리	-11.8281
▁덥	-11.8281
▁푼	-11.8284
▁들렀다	-11.8285
▁거대	-11.8287
▁주문하는	-11.8288
▁제자리	-11.8291
▁마요	-11.8296
져야	-11.8297
▁비슷해	-11.8298
▁신고할	-11.8299
▁국경	-11.8299
신청	-11.8301
▁빠지면	-11.8305
▁갖춰	-11.8306
▁남았어	-11.8311
버리	-11.8311
▁드러	-11.8313
▁화해	-11.8315
▁평가하는	-11.8315
▁열렸	-11.8316
▁들리는	-11.832
▁뽑는	-11.832
▁편해	-11.8321
▁트윈	-11.8323
▁큐빅	-11.8323
▁비쌀	-11.8325
▁겉옷	-11.8325
▁증가할	-11.8325
▁텍사스	-11.8326
▁스웨덴	-11.8326
▁코코넛	-11.8326
▁리더쉽	-11.8326
▁아크릴	-11.8326
▁윗부분	-11.8326
▁핸들	-11.8326
▁유기견	-11.8327
▁찾아온	-11.8327
▁그나저나	-11.8327
▁블록체인	-11.8327
▁스프레이	-11.8327
▁성취감	-11.8327
▁자연재해	-11.8327
▁보이네	-11.8327
▁자가용	-11.8328
▁버킷리스트	-11.8328
▁유연성	-11.8328
▁단맛	-11.8328
▁연못	-11.8329
▁이산화탄소	-11.8329
▁정션	-11.8331
▁조처	-11.8331
▁창피	-11.8333
▁딱딱한	-11.8335
▁마시며	-11.8337
▁첨부하니	-11.8337
▁총금액	-11.8337
▁관여	-11.8338
▁수의사	-11.8338
그룹	-11.834
▁가능하신데	-11.8341
▁워터	-11.8341
▁유해	-11.8341
▁읽으면	-11.8341
▁놀랍	-11.8341
▁서울대학교	-11.8342
▁쓸데없	-11.8342
▁밀크	-11.8342
▁비싸네요	-11.8342
▁데려다줄	-11.8343
▁순간들	-11.8343
▁탕수육	-11.8344
▁테두리	-11.8344
▁청중	-11.8344
▁찾아보자	-11.8344
▁건강검진	-11.8346
▁본체	-11.8346
▁분리수거	-11.8346
▁거냐	-11.8347
▁그렇네요	-11.8347
▁진열	-11.8347
▁힘들었을	-11.8348
▁확답	-11.8348
버린	-11.8349
▁위안	-11.8349
▁족발	-11.8349
▁낙지	-11.835
▁세심한	-11.835
▁쉬면	-11.8352
▁페이스	-11.8353
추	-11.8354
▁제안해	-11.8354
▁준다는	-11.8356
▁시원하고	-11.8356
▁진술	-11.8356
▁기법	-11.8357
▁하위	-11.8359
▁2010	-11.8359
▁엄	-11.836
▁포럼	-11.836
▁옮기고	-11.8362
▁성탄	-11.8362
▁일이든	-11.8363
▁통신사	-11.8364
▁매출액	-11.8364
▁장이	-11.8367
▁새집	-11.8369
▁해결하고	-11.8369
▁떨어지지	-11.837
▁로	-11.837
▁적혀있는	-11.8372
▁말씀하세요	-11.8372
▁치열	-11.8373
▁목격	-11.8374
용할	-11.8374
▁금주	-11.8375
▁살았어요	-11.8376
▁찾았어요	-11.8376
▁사이클	-11.8376
▁융합	-11.8377
▁낳고	-11.8378
▁배차	-11.8379
젠	-11.8381
▁이력	-11.8383
▁절단	-11.8384
▁버는	-11.8385
하거든요	-11.8385
▁학부	-11.8387
▁주문하기	-11.839
▁가까워지	-11.839
▁나오네요	-11.8392
기업	-11.8392
▁예약금	-11.8396
▁특	-11.8397
▁내기	-11.8398
어지는	-11.8399
▁등기	-11.8399
▁사물함	-11.8403
▁세우는	-11.8403
▁도와줍	-11.8404
▁살게요	-11.8404
▁맞추는	-11.8404
▁법안	-11.8404
▁묵으	-11.8405
▁전류	-11.8406
▁무엇이든지	-11.8407
밀	-11.8408
▁하지요	-11.841
▁만들려고	-11.841
▁교체할	-11.8411
깐	-11.8412
▁이기는	-11.8412
▁책임지고	-11.8412
▁서쪽	-11.8412
▁매입	-11.8415
▁잠겨	-11.8415
▁안내서	-11.8416
▁기다려줘	-11.8417
▁가져가는	-11.8417
▁기다렸어	-11.8418
▁연구실	-11.8418
▁놓쳤	-11.8422
▁세울	-11.8422
▁방침	-11.8423
머	-11.8423
▁고급스러	-11.8423
졌	-11.8424
▁대변	-11.843
시인데	-11.8433
▁소홀	-11.8433
셨네요	-11.8434
▁진행하여	-11.8438
▁칼라	-11.8439
▁메달	-11.8441
그램	-11.8442
▁어벤져스	-11.8443
▁리듬	-11.8445
▁보호하	-11.8447
▁가르쳐주	-11.8448
▁공제	-11.8454
▁캡	-11.8454
▁시식	-11.8456
▁날들	-11.8459
▁형편없	-11.8462
▁바쁘지	-11.8463
▁합법적	-11.8463
▁멀미	-11.8465
▁기다	-11.8468
▁놓으면	-11.8477
▁도와준	-11.8481
▁직진	-11.8483
▁되었지만	-11.8483
▁놀기	-11.8486
취하고	-11.8488
▁넘어지	-11.849
▁계층	-11.8492
▁8,000	-11.8493
▁재밌었	-11.8495
▁깎	-11.8496
▁신어보	-11.85
▁지어진	-11.8501
▁연락해주시	-11.8501
▁주방장	-11.8504
▁문단	-11.8507
넷	-11.8508
▁아껴	-11.8509
▁도착하여	-11.851
▁모델들	-11.851
▁자아	-11.8514
▁급속	-11.8516
▁났	-11.8516
▁잊어	-11.8517
▁체포	-11.8517
▁취하	-11.8518
▁이민자	-11.8518
장비	-11.8519
분입니다	-11.8523
일수록	-11.8526
▁되잖아	-11.8526
▁제출하는	-11.8526
▁날이라	-11.8528
50	-11.8532
▁발신	-11.8533
▁전후	-11.8535
▁이사회	-11.8535
▁풀기	-11.8538
▁견본	-11.8541
▁무지	-11.8541
▁지니	-11.8542
▁가리지	-11.8544
일정	-11.8544
▁LC	-11.8548
▁발전할	-11.8553
▁있다던데	-11.8553
바랍니다	-11.8554
▁소용이	-11.8555
▁사용하신	-11.8561
▁한달	-11.8562
▁선주	-11.8562
부분	-11.8564
▁떴	-11.8564
▁해주시는	-11.8565
▁별개	-11.8569
▁킹	-11.857
▁가야지	-11.8571
▁촉촉하	-11.8571
▁유창	-11.8571
왔던	-11.8573
▁타도	-11.8573
▁상상해	-11.8573
▁끊기	-11.8575
었지만	-11.8582
▁선택해야	-11.8582
▁이뤄	-11.8586
▁사랑한	-11.8587
▁풀릴	-11.8588
▁공유하	-11.8592
장이	-11.8592
▁해드리고	-11.8593
▁이마	-11.8593
▁수락	-11.8594
▁남았	-11.8595
▁탐색	-11.8598
▁없어야	-11.8599
▁가니	-11.86
▁신뢰성	-11.8602
▁추가됩니다	-11.8602
▁괜찮은지	-11.8608
▁검토한	-11.8609
▁했나	-11.8609
▁알아보겠	-11.8615
▁쳤	-11.8617
▁요구한	-11.8618
▁들릴	-11.8618
모습	-11.8627
▁뷰	-11.8629
▁비우	-11.8631
▁교통비	-11.8634
▁낮아	-11.8637
▁수거	-11.8638
▁이야기하지	-11.8641
▁판단하	-11.8648
▁권유	-11.865
▁떠오르	-11.8651
▁풀이	-11.8654
▁지정한	-11.8656
▁작업할	-11.8659
▁미인	-11.866
▁불러야	-11.8663
▁만족하지	-11.8663
하다	-11.8663
▁적용되지	-11.8665
▁자율	-11.8665
▁챙겨야	-11.8665
▁과다	-11.867
▁적고	-11.867
▁포장된	-11.8672
▁기다려주	-11.8673
▁변경해야	-11.8676
야겠다	-11.8678
▁지형	-11.8679
▁정치인	-11.8679
▁논리	-11.8683
▁많은가요	-11.8683
▁잘하면	-11.8684
▁심리	-11.8685
운전해서	-11.8687
▁그레이	-11.8687
▁반가워	-11.8689
▁답변해	-11.8691
▁도전해	-11.8694
▁나아졌	-11.8694
린다고	-11.8694
▁읽었어	-11.8694
▁기다리시	-11.8694
▁미나	-11.8696
▁대략적	-11.8698
▁플러그	-11.87
▁즐거웠어	-11.8701
▁반성	-11.8702
▁러브	-11.8702
▁유대인	-11.8702
왕	-11.8705
▁비싼데	-11.8706
▁붙어있	-11.8707
▁엠마	-11.8708
▁낙태	-11.8708
▁풍습	-11.8709
▁피겨	-11.8709
▁팔꿈치	-11.871
▁어르신	-11.871
▁호찌민	-11.871
▁덴마크	-11.871
▁폴란드	-11.871
▁앨리스	-11.871
▁동남아	-11.871
▁무작위	-11.8711
▁침구	-11.8711
턴	-11.8711
▁ATM	-11.8711
▁에디	-11.8711
▁탄자니아	-11.8711
▁그만둘	-11.8711
▁박테리아	-11.8711
▁포스트	-11.8712
▁장바구니	-11.8712
▁마스크팩	-11.8712
▁해결방안	-11.8712
▁헤어스타일	-11.8713
▁거짓말쟁이	-11.8713
▁흔들어	-11.8713
▁혼선	-11.8713
▁불평등	-11.8714
▁계시죠	-11.8714
▁소유권	-11.8714
▁진행되	-11.8714
▁있으므로	-11.8715
▁북극	-11.8715
▁커리어	-11.8715
▁밀린	-11.8715
▁비닐봉지	-11.8716
▁말씀이세요	-11.8717
▁지난밤	-11.8717
나갈	-11.8717
▁익혀	-11.8717
▁아마추어	-11.8718
▁사고방식	-11.8718
비자	-11.8718
▁가축	-11.8719
▁내버려	-11.872
▁발생하	-11.8721
▁되었기	-11.8722
▁지나갈	-11.8723
▁일련	-11.8723
▁있더라	-11.8724
▁탄산	-11.8724
▁철분	-11.8725
▁싫으면	-11.8726
▁세우	-11.8727
▁옮겼	-11.8727
▁홍수	-11.8728
▁즐기세요	-11.8728
▁컨설팅	-11.8729
▁관계없이	-11.8729
표현	-11.873
▁혈압	-11.873
▁볶	-11.873
▁감사하지만	-11.8731
▁고등어	-11.8731
▁안돼	-11.8731
▁신청해야	-11.8731
▁요청하면	-11.8731
▁샤워실	-11.8732
▁2009	-11.8732
▁고용주	-11.8732
▁브라이언	-11.8733
▁보내드릴까요	-11.8735
▁출생	-11.8735
▁시원하게	-11.8736
▁선배님	-11.8737
▁다칠	-11.8737
▁설명하기	-11.8738
▁마칠	-11.8738
▁체증	-11.8739
▁인간들	-11.874
▁제공된	-11.874
▁사다리	-11.874
▁나와야	-11.874
▁사회생활	-11.8741
▁리스크	-11.8743
▁않더라도	-11.8744
▁잡으려	-11.8745
▁어떨지	-11.8746
▁햇살	-11.8746
▁바꾸면	-11.8747
▁가져왔어요	-11.8747
▁실린더	-11.8748
▁지내세요	-11.8748
▁또래	-11.8748
▁걸리면	-11.8748
▁원장님	-11.8748
▁찍었어	-11.8748
▁배고파	-11.8749
▁미련	-11.8749
▁분담	-11.8751
줌	-11.8751
▁좋아한다면	-11.8752
▁투수	-11.8752
▁투숙객	-11.8754
▁VR	-11.8754
▁노선도	-11.8754
▁탑니다	-11.8758
▁어딘가요	-11.8761
▁발송될	-11.8761
▁낮추	-11.8763
▁홍보팀	-11.8765
▁들어왔어요	-11.8765
▁자제	-11.8766
▁중이어서	-11.8767
▁이사님	-11.8767
▁빼야	-11.8768
▁웃긴	-11.8768
▁별들	-11.8772
시네요	-11.8774
▁강화도	-11.8775
▁거친	-11.8775
▁EU	-11.8776
▁되네	-11.8777
▁동선	-11.8779
▁써주세요	-11.878
▁싶어졌	-11.8781
받지	-11.8782
▁지나면서	-11.8783
▁침묵	-11.8785
▁차려	-11.8787
▁토플	-11.8787
▁핑크	-11.8788
▁출발해서	-11.8789
▁협동	-11.8789
▁진급	-11.8789
▁그만둬	-11.879
▁채택	-11.8791
▁착용하고	-11.8791
▁쏙	-11.8795
▁설명하고	-11.8796
▁병동	-11.8798
▁사실이에요	-11.8798
▁정신없	-11.88
▁제조업	-11.88
▁묻지	-11.8804
계좌	-11.8804
녀	-11.8804
▁고난	-11.8805
▁분말	-11.881
▁경영자	-11.8811
싼	-11.8813
▁업	-11.8814
▁보증서	-11.8814
독	-11.8815
▁발전이	-11.8817
계약	-11.8817
물질	-11.8818
▁잡으면	-11.8821
▁견디	-11.8821
▁가든	-11.8823
말고	-11.883
▁촬영한	-11.883
▁참고할	-11.883
백화점	-11.8831
▁이웃들	-11.8832
▁비싸다	-11.8834
▁독립적	-11.8834
▁떨어	-11.8836
▁만드는데	-11.8836
▁자발적	-11.8837
▁맛있고	-11.8839
▁미흡	-11.8842
▁지연되어	-11.8846
하셨으면	-11.8849
전쟁	-11.8849
주기	-11.885
나가기	-11.885
▁많아졌	-11.8852
▁헤어졌	-11.8859
▁도와야	-11.886
▁놀자	-11.8863
▁관중	-11.8866
▁재직	-11.8866
▁경우엔	-11.8866
하늘	-11.8867
▁하겠지만	-11.8872
▁요점	-11.8876
하우스	-11.8878
▁교대	-11.8886
▁좋아하던	-11.8886
▁취약	-11.8893
▁사용하려고	-11.8893
▁SD	-11.8896
죽	-11.8897
▁마찬가지입니다	-11.8897
▁돌아가셨	-11.8903
▁다문화	-11.8906
▁안돼요	-11.8907
▁국기	-11.8907
털	-11.8908
황	-11.8911
▁살까	-11.8911
▁방울	-11.8914
▁스토어	-11.8916
되었을	-11.8919
▁했잖아요	-11.8919
▁경험해	-11.8919
▁예술적	-11.8927
▁나오는지	-11.893
▁끄	-11.8932
▁작성하고	-11.894
축	-11.894
▁재발	-11.8942
▁여겨지	-11.8942
▁전국적	-11.8943
▁가나	-11.8945
폰	-11.8945
학생들	-11.8948
▁냉면	-11.8949
▁선호해	-11.8952
클	-11.8954
▁기대해	-11.8954
▁내어	-11.8954
▁다녀야	-11.8958
▁일주일간	-11.8959
▁좋다면	-11.8961
▁죽지	-11.8961
▁생리	-11.8963
▁어디예요	-11.8969
▁하노	-11.8972
▁숨어	-11.8972
▁가져가야	-11.8973
▁곱	-11.8978
▁판매되는	-11.8978
▁파크	-11.8979
▁연락해주	-11.8979
▁자문	-11.898
▁지워지	-11.898
▁묻혀	-11.8981
▁부당	-11.8984
▁변함	-11.8986
MP	-11.8986
▁공증	-11.8987
▁더러워	-11.8987
정한	-11.8988
▁순차	-11.8988
비실	-11.899
일까	-11.899
▁제사	-11.8993
▁색조	-11.8993
▁유독	-11.8994
▁눈가	-11.8994
▁경쟁자	-11.8995
오늘	-11.8996
▁합리적	-11.8999
▁완료되는	-11.9001
▁사람인가요	-11.9003
▁존스	-11.9004
▁끼칠	-11.9012
▁준비되는	-11.9013
▁놓쳐	-11.9014
▁수백	-11.9015
▁정교	-11.9017
베드	-11.902
일지	-11.9021
닝	-11.9021
▁문제집	-11.9021
▁되며	-11.9024
▁교장	-11.9026
신다고	-11.9029
하셨는데	-11.9037
▁곳들	-11.9039
핀	-11.9048
이란	-11.9049
▁판사	-11.905
▁꺾	-11.9051
▁공급할	-11.9055
▁분석하고	-11.9056
▁스노보	-11.9057
▁광범위	-11.9058
▁세균	-11.9059
▁부족할	-11.9061
▁할당	-11.9062
▁담백	-11.9064
니아	-11.9065
축제	-11.9067
▁제니	-11.9068
▁화산	-11.9068
▁시연	-11.9069
되면서	-11.907
▁선교	-11.9072
해왔던	-11.9074
▁응시	-11.9075
▁빌렸	-11.9076
▁쳐다보	-11.9078
▁미터	-11.908
▁진찰	-11.908
▁노출되	-11.9083
▁알아봐야	-11.9083
▁떠올랐	-11.9085
해둔	-11.9086
▁꽂아	-11.9086
▁찾았	-11.9087
▁거긴	-11.9087
▁치기	-11.9088
▁기대돼	-11.909
▁주거	-11.9091
▁바랐	-11.9094
▁연락하면	-11.9097
▁말씀하셨	-11.9098
▁주행	-11.9098
▁자기소개	-11.9098
▁민원	-11.91
▁700	-11.9101
했으나	-11.9103
카이도	-11.9103
▁추는	-11.9104
▁연주하는	-11.9106
▁전달하	-11.9107
이래	-11.9107
▁랜덤	-11.9107
▁갯벌	-11.9108
▁빨강	-11.9108
▁척추	-11.9108
▁찹쌀	-11.9108
▁로컬	-11.9108
▁파일들	-11.9109
▁가급적	-11.9109
▁서커스	-11.911
▁간다는	-11.911
▁바느질	-11.911
▁자물쇠	-11.911
▁낱개	-11.911
▁쇠고기	-11.911
▁위약금	-11.911
▁박지성	-11.911
▁충치	-11.911
▁스펀지	-11.911
▁OSD	-11.9111
▁혈액형	-11.9111
▁생크림	-11.9111
▁파라미터	-11.9111
▁된장찌개	-11.9111
▁목도리	-11.9111
▁푸딩	-11.9111
하겠어요	-11.9112
▁토론토	-11.9112
▁유산소	-11.9112
▁편의시설	-11.9112
▁더블룸	-11.9112
▁보다시피	-11.9113
▁공중전화	-11.9113
▁보고해야	-11.9113
▁2008	-11.9113
▁생각해보니	-11.9114
▁정시	-11.9114
▁직면	-11.9114
▁얻으려	-11.9114
▁싫은데	-11.9114
▁생일선물	-11.9115
▁근방	-11.9115
▁친구예요	-11.9115
▁초청장	-11.9115
▁미성년자	-11.9116
상자	-11.9116
이나	-11.9116
▁플래시	-11.9117
▁악성	-11.9117
▁인사동	-11.9118
▁깊숙	-11.9119
하느냐	-11.9121
▁일몰	-11.9121
▁만드세요	-11.9123
▁예쁘네요	-11.9124
▁처음인데	-11.9126
▁가졌는지	-11.9126
▁조종사	-11.9126
▁헌법	-11.9127
▁버릇	-11.9128
▁석유	-11.9128
▁솔	-11.9128
▁소감	-11.9129
▁쌍둥이	-11.913
▁다녀오세요	-11.913
▁확인해볼게요	-11.9131
▁표현해	-11.9131
▁라켓	-11.9132
▁세계대전	-11.9132
▁참조하	-11.9132
▁찍으	-11.9133
헨	-11.9133
▁밀려서	-11.9133
▁낭비하지	-11.9135
해라	-11.9136
▁신속히	-11.9137
▁기도할게요	-11.9138
▁멀어서	-11.9138
▁끄고	-11.9139
▁나아갈	-11.914
▁해로운	-11.9141
▁들리지	-11.9144
▁팔아요	-11.9147
▁탁월한	-11.9147
▁제출해주세요	-11.9147
▁사랑하게	-11.9147
▁좋으니까	-11.9149
▁기재해	-11.9149
▁돌고래	-11.915
▁소프트	-11.915
▁보일러	-11.915
▁증명할	-11.9151
▁괜찮으니까	-11.9151
▁디스플레이	-11.9152
▁귀한	-11.9152
▁복잡하고	-11.9154
▁어렵다면	-11.9154
▁뻔했어요	-11.9154
▁관계자	-11.9155
▁반복적	-11.9155
▁혐	-11.9155
문의	-11.9155
▁숙녀	-11.9156
▁독해	-11.9157
▁곁들여	-11.9157
▁블라	-11.916
▁작전	-11.9162
▁잊어버려	-11.9163
▁강요	-11.9164
▁음원	-11.9164
▁늘어난	-11.9164
▁유지해야	-11.9165
동적인	-11.9165
▁구매하셔야	-11.9166
▁싫다고	-11.9167
▁들어가셔서	-11.9168
▁반대해요	-11.9168
▁똥	-11.9169
▁발전시키	-11.917
▁헤매	-11.917
▁사교육	-11.9172
▁얘기했던	-11.9175
▁풀려	-11.9176
▁비슷해서	-11.9178
▁지내자	-11.9179
▁찾아주세요	-11.9179
▁있든	-11.918
같아요	-11.9181
▁취급하는	-11.9181
▁죽었	-11.9182
▁초대하고	-11.9182
▁샤워하고	-11.9183
식사	-11.9184
▁받으셔야	-11.9185
▁해주길	-11.9185
▁견학	-11.9186
▁적용한	-11.9188
▁상품권	-11.9189
▁클릭하면	-11.919
▁선택하여	-11.9191
▁익힌	-11.9192
▁해결하	-11.9192
▁살았다	-11.9194
했으니까	-11.9195
▁바빴어	-11.9196
▁멸종	-11.9196
▁쌓여	-11.9197
▁낫다	-11.9198
▁매치	-11.9198
▁약해서	-11.9198
하셨는지	-11.92
▁구성하는	-11.9202
▁그러시는	-11.9203
▁발표하는	-11.9204
and	-11.9204
▁수축	-11.9206
▁소통하고	-11.921
▁대결	-11.921
▁들여다보	-11.9212
반적인	-11.9213
▁뭐라	-11.9213
▁기대하지	-11.9214
강해서	-11.9216
▁연합	-11.9217
▁외우	-11.9217
▁핸들링	-11.9218
▁도안	-11.9219
▁번개	-11.922
▁커플들	-11.922
▁사진작가	-11.9222
범	-11.9222
▁고래	-11.9223
▁않은데요	-11.9224
▁1.5	-11.9229
▁달라졌	-11.9235
▁날이었어요	-11.9236
▁준비물	-11.9238
고작	-11.9238
▁사용하나요	-11.9238
▁않거나	-11.9239
▁작성하면	-11.9239
▁신청하려고	-11.924
▁먹나요	-11.9242
▁알려졌	-11.9242
▁초코	-11.9247
▁기울이	-11.925
▁꼴	-11.9251
▁이용권	-11.9253
▁돋보이	-11.9253
▁도우	-11.9255
▁일방적	-11.9256
혈	-11.9258
▁얹어	-11.9258
취	-11.926
▁선호합니	-11.926
▁싸인	-11.9263
▁부킹	-11.9263
▁재무팀	-11.9263
▁제거하	-11.9264
▁풍부하	-11.9266
▁나온다고	-11.9271
▁수동	-11.9272
▁상관없	-11.9274
▁안나	-11.9276
리라고	-11.9278
▁센스	-11.9283
▁집중하	-11.9283
▁약정	-11.9285
▁당기	-11.9286
었거든요	-11.9286
▁결혼해서	-11.9288
▁볶아	-11.9289
▁생각해보고	-11.9291
단지	-11.9292
▁판다	-11.9292
▁몰리	-11.9292
목록	-11.9293
▁추가하여	-11.9293
참	-11.9296
▁포도주	-11.9297
▁전시장	-11.9298
마트	-11.9301
▁네모	-11.9303
▁훼손	-11.9306
▁백업	-11.9306
▁저장해	-11.9306
▁사용하는데	-11.9306
▁불편하신	-11.9307
▁외교관	-11.9308
▁길러	-11.9308
▁주며	-11.9308
▁정차	-11.9308
▁얘기했어요	-11.9313
▁영화들	-11.9314
▁거였어요	-11.9315
수의	-11.9317
▁지켜봐	-11.9321
▁코코	-11.9324
▁지원하고	-11.9325
▁특징들	-11.933
▁삐	-11.9332
▁본부	-11.9334
하시네요	-11.9336
▁있으신지	-11.9342
▁꾸며	-11.9343
▁막히는	-11.9348
▁졸업할	-11.9349
▁범	-11.935
컬	-11.9352
▁의뢰인	-11.9354
▁증오	-11.9355
밴드	-11.936
▁부드러워	-11.9361
롱	-11.9362
▁막대	-11.9363
▁생겼습니	-11.9365
드는	-11.9368
▁동작하는	-11.9369
▁능숙	-11.9372
빵	-11.9373
행사	-11.9375
땐	-11.9376
▁중지	-11.9377
람	-11.9379
▁요금제	-11.938
▁확인하신	-11.9383
▁원작	-11.9383
▁결혼하기	-11.9386
▁기억하지	-11.9388
▁구매했어요	-11.9389
▁회복되	-11.9389
▁도전하고	-11.9395
▁행복해지	-11.9397
▁옥	-11.9402
▁미치지	-11.9404
▁결정된	-11.9404
▁고전	-11.9406
▁만들게	-11.9409
▁지연될	-11.9411
▁유학생	-11.9412
오니	-11.9414
▁날카로	-11.9415
삼	-11.9415
▁권위	-11.9418
▁떨어지면	-11.9419
f	-11.9422
▁취합	-11.9425
▁통과하	-11.9426
냥	-11.9427
▁아니었	-11.9428
▁계속할	-11.9429
▁얻지	-11.943
백만	-11.9435
▁피워	-11.9437
▁잘생겼	-11.9441
▁변화하는	-11.9442
▁모르겠	-11.9446
▁했으나	-11.9448
▁닮아	-11.9454
▁달랐	-11.9455
▁위장	-11.9457
▁억압	-11.9457
▁했으니까	-11.9459
▁비비	-11.9459
▁젊	-11.9459
▁피어	-11.9464
▁연령	-11.9465
▁학습자	-11.9466
▁비극	-11.9473
▁내시면	-11.9476
▁따르지	-11.948
분석	-11.9481
대에	-11.9482
▁선택하고	-11.9482
▁학부모	-11.9485
▁찾아올	-11.9485
▁만나도	-11.9488
▁확인해주	-11.9492
▁혁신적	-11.9492
▁총기	-11.9493
빙	-11.9499
▁John	-11.9501
부서	-11.9502
▁참석하기	-11.9504
▁피곤했	-11.9507
▁크리스	-11.9507
▁이루지	-11.951
▁변한	-11.951
▁조사해	-11.9511
▁럭비	-11.9511
▁실패한	-11.9514
▁학	-11.9518
▁형광	-11.952
▁예쁜데	-11.9521
▁전시되어	-11.9522
▁달리고	-11.9522
▁체계적	-11.9522
▁버블	-11.9524
▁p	-11.9524
▁해치	-11.9524
▁셔터	-11.9524
▁꿀벌	-11.9524
▁베토벤	-11.9526
▁몰디브	-11.9526
▁밴쿠버	-11.9526
▁북극곰	-11.9526
▁DVD	-11.9526
▁친화력	-11.9526
▁유모차	-11.9526
▁아쉬움	-11.9526
▁타이완	-11.9526
▁PPT	-11.9526
▁게으름	-11.9526
▁필통	-11.9527
▁노르웨이	-11.9527
▁엔화	-11.9527
▁해열제	-11.9527
▁창의력	-11.9527
하겠네요	-11.9527
▁영유아	-11.9527
▁신데렐라	-11.9527
▁고정관념	-11.9528
▁성형수술	-11.9528
▁네티즌	-11.9528
▁꼬마	-11.9528
▁창의성	-11.9528
▁AAA	-11.9528
▁왕관	-11.9528
▁궁금한데	-11.9528
▁프랜차이즈	-11.9528
▁에이미	-11.9529
▁억제	-11.9529
▁오리엔테이션	-11.9529
▁그러시다면	-11.9529
▁와이어	-11.9529
▁달콤	-11.9529
▁안정감	-11.9529
▁배낭여행	-11.953
▁발가락	-11.953
▁인천국제공항	-11.953
▁호두	-11.953
▁실크	-11.953
▁첨부하오니	-11.9531
▁가이드라인	-11.9531
▁가능하신가요	-11.9531
▁두드려	-11.9531
▁목재	-11.9531
▁식초	-11.9531
▁반가웠	-11.9532
▁빨대	-11.9532
▁서른	-11.9532
▁없던데	-11.9534
▁가신	-11.9535
▁웃으면서	-11.9535
▁탈모	-11.9536
▁접근법	-11.9537
▁내려가시면	-11.9537
▁결정하기	-11.9537
▁문화생활	-11.9537
▁원하십니까	-11.9538
▁여름휴가	-11.9539
▁제외하면	-11.9539
▁청주	-11.9539
▁않으셨나요	-11.954
▁끝부분	-11.954
▁포함하	-11.954
▁시작했습니	-11.9541
▁지나도	-11.9541
▁찾아볼게요	-11.9541
▁예약하지	-11.9541
▁멈췄	-11.9541
▁상황인데	-11.9541
사이트	-11.9541
▁선불	-11.9542
▁좋겠지만	-11.9542
▁정규	-11.9543
▁금발	-11.9543
▁막는	-11.9543
▁격식	-11.9544
▁접근성	-11.9544
▁타이밍	-11.9545
▁식빵	-11.9545
▁달콤하고	-11.9545
▁만족스럽	-11.9546
▁만족시키	-11.9546
▁USD	-11.9546
▁몬스터	-11.9546
▁주파수	-11.9547
▁모티브	-11.9547
▁은색	-11.9547
▁없으나	-11.9548
▁달릴	-11.9548
▁퍼레이드	-11.9548
▁선진국	-11.9548
▁택	-11.9548
▁자본주의	-11.9549
▁보내드렸습니다	-11.9552
▁엄격하게	-11.9552
▁끝납니다	-11.9552
▁결혼하는	-11.9556
대씩	-11.9557
▁보내줬	-11.9557
▁괜찮지만	-11.9558
▁휠	-11.9558
▁들어갔어요	-11.9559
▁잡스	-11.956
▁건전지	-11.956
▁무인도	-11.9563
▁영양분	-11.9563
▁전화했는데	-11.9563
▁말해주면	-11.9565
▁정당화	-11.9565
▁먹거나	-11.9566
▁키우기	-11.9567
이잖아	-11.9568
▁완벽하지	-11.9568
▁회의록	-11.9569
▁아몬드	-11.957
▁확인되면	-11.957
▁팔로우	-11.9572
▁자유시간	-11.9573
▁프로그램들	-11.9574
▁여학생	-11.9574
▁보유한	-11.9574
▁개강	-11.9576
▁스승	-11.9577
▁노을	-11.9578
▁두면	-11.9578
▁괜찮으	-11.9579
▁호스	-11.9579
▁바르면	-11.958
▁전압	-11.958
더라고	-11.958
▁쓰려고	-11.9581
▁안전성	-11.9583
▁푸른	-11.9583
▁일했어요	-11.9586
▁이해하지만	-11.9586
▁나뉘어	-11.9587
격	-11.9588
▁왔네요	-11.959
▁윈도	-11.9592
▁묘	-11.9593
▁1000	-11.9594
▁대왕	-11.9595
▁표현하지	-11.9597
▁끊고	-11.9597
▁예정인지	-11.9599
▁몰랐다	-11.9599
▁일인	-11.96
▁보여줘	-11.96
▁할수록	-11.9601
연한	-11.9605
▁복사기	-11.9605
수업	-11.9607
▁보냈다고	-11.9613
▁나눈	-11.9614
▁연인들	-11.9614
▁오는지	-11.9617
▁수확	-11.9617
▁서부	-11.9618
▁늘리고	-11.962
▁앉아있	-11.9621
▁선택하면	-11.9625
▁수속	-11.9628
▁적혀있	-11.963
▁가입하	-11.9631
▁식민지	-11.9632
▁않는데요	-11.9633
▁그만하고	-11.9634
한가요	-11.9635
▁법칙	-11.9635
▁고려하고	-11.9635
▁개월	-11.9637
▁뿌	-11.9637
▁페리	-11.9638
▁생각한다면	-11.9639
▁울지	-11.964
▁만족하	-11.9642
▁뜰	-11.9643
▁빈도	-11.9643
▁시도해보	-11.9645
▁많았고	-11.9646
▁가지세요	-11.9648
▁마주치	-11.965
▁존재할	-11.9651
▁제공될	-11.9654
▁가져갔	-11.9654
▁돌아서	-11.9661
▁붙이고	-11.9661
▁산다	-11.9663
▁개봉한	-11.9664
▁화내	-11.9668
▁예쁘지	-11.9669
▁대행사	-11.967
▁매매	-11.967
이거나	-11.967
▁버린	-11.9671
▁토지	-11.9671
▁떼어	-11.9671
▁상관없으니	-11.9672
▁파우더	-11.9673
장된	-11.9675
▁이러	-11.9685
▁보여준다	-11.9685
▁애쓰	-11.9685
▁허니	-11.9689
▁헨리	-11.969
▁용서해	-11.969
▁싸웠	-11.969
▁바쁘고	-11.9694
▁어플	-11.9695
가기	-11.9695
▁총액	-11.9695
▁해보지	-11.9695
▁공유합니다	-11.9696
▁이쁘	-11.9696
▁울리	-11.9698
▁골랐	-11.9698
▁가지기	-11.9699
▁달라지는	-11.9702
▁넘어졌	-11.9702
▁허락해	-11.9702
필	-11.9703
▁싶습니까	-11.9704
▁전시된	-11.9704
촌	-11.9705
▁손길	-11.9706
▁적재	-11.9707
되거나	-11.9709
▁베어	-11.971
▁지루하	-11.9712
▁여자입니다	-11.9714
▁인용	-11.9717
짓	-11.9718
을까	-11.9719
▁나가시면	-11.9719
b	-11.9719
▁명상	-11.972
하실래요	-11.9721
▁때문이지	-11.9721
있었습니다	-11.9722
▁양치	-11.9722
▁라운드	-11.9724
▁후원자	-11.9726
분씩	-11.9726
▁반복되는	-11.9727
▁증	-11.973
▁입이	-11.9734
▁강렬	-11.9734
▁최고야	-11.9735
늘	-11.9736
▁걸어가야	-11.9737
▁홀리데이	-11.9737
▁거란	-11.9738
있다	-11.9738
▁주체	-11.9741
▁구매자들	-11.9742
▁듯해	-11.9744
보기	-11.9749
▁인상적인	-11.9752
돼야	-11.9752
▁잘못되어	-11.9752
▁아무렇	-11.9754
▁두드러	-11.9755
▁가졌다	-11.9756
▁해드립니다	-11.9756
▁예고	-11.9761
▁운반	-11.9766
▁위치하고	-11.9769
▁Z	-11.9769
▁인정하는	-11.9771
▁사랑받	-11.9773
▁겪었	-11.9775
▁점심때	-11.9777
▁제작자	-11.9777
조사	-11.9778
▁기뻤어	-11.978
▁등장하는	-11.9785
▁문어	-11.9786
▁조달	-11.9791
▁괜찮으시겠	-11.9794
원인데	-11.9796
의하여	-11.9796
▁적어야	-11.9798
▁국민의	-11.9799
▁정도예요	-11.9799
▁자유의	-11.9803
▁번역해	-11.9806
▁설치하고	-11.9806
▁설치한	-11.9808
하였으니	-11.981
▁읽어야	-11.9811
▁찰	-11.9811
▁이뤄지	-11.9813
▁올까	-11.9819
▁접어	-11.9824
시켜야	-11.9826
▁형편	-11.9827
▁전제	-11.983
▁시원해	-11.9835
▁쉽다	-11.9836
었더니	-11.9837
▁간섭	-11.9837
▁유지되	-11.9838
▁원고	-11.9839
▁있는걸	-11.9839
▁운영자	-11.9842
▁밝혀졌	-11.9846
▁전화하	-11.9849
▁거지요	-11.9856
▁가보려고	-11.9857
▁양고기	-11.9858
▁눈길	-11.9859
쿠	-11.9859
▁달려있	-11.9859
▁심리학	-11.986
▁무리하지	-11.9861
국의	-11.9862
▁취지	-11.9862
▁잃었어	-11.9864
▁숙련	-11.9867
▁계산하는	-11.9867
▁모방	-11.9868
▁기아	-11.9873
▁기간이라	-11.9874
▁넣기	-11.9874
▁웨이	-11.9874
▁입실	-11.9875
▁설치해야	-11.9875
Z	-11.9876
폭	-11.9877
▁답답해	-11.9881
w	-11.9882
▁반납할	-11.9883
▁구입할	-11.9885
아래	-11.9889
▁싶었다	-11.9893
▁타시	-11.9895
▁미쳤	-11.9895
▁구조적	-11.9896
▁영토	-11.9898
타워	-11.99
▁이어져	-11.9902
▁연금	-11.9903
▁소매치기	-11.9906
▁보편적	-11.9909
▁마르	-11.9909
▁치지	-11.9909
▁룰	-11.991
▁보내신	-11.9912
▁찾아왔	-11.9913
▁전달해주	-11.9914
명이	-11.9915
▁키웠	-11.992
하던데	-11.9921
▁얘기하자	-11.9923
▁개조	-11.9925
▁빙하	-11.9926
까봐	-11.9928
▁단정	-11.9928
▁딜레이	-11.9928
▁좋은가요	-11.9929
했었어	-11.9929
▁180	-11.993
균	-11.993
▁다뤄	-11.9932
호실	-11.9932
▁끓이	-11.9935
▁연방	-11.9936
했었다	-11.9937
▁착수	-11.9941
을지	-11.9948
▁산책하	-11.9948
▁기도할게	-11.995
▁해적	-11.995
▁심화	-11.9952
▁것임	-11.9954
▁났다	-11.9955
▁수령하	-11.9957
▁말했잖아	-11.9957
▁싱폴	-11.9958
▁청춘	-11.9958
▁염두	-11.9959
▁쉬퍼	-11.996
▁귤	-11.996
▁생애	-11.996
▁부르지	-11.996
▁태블릿	-11.9961
▁눈동자	-11.9961
▁KTX	-11.9961
▁코엑스	-11.9961
▁트윈룸	-11.9961
▁헤드폰	-11.9961
▁화살표	-11.9961
▁스폰서	-11.9961
▁타이틀	-11.9961
▁튀긴	-11.9962
▁아나운서	-11.9962
▁브로슈어	-11.9962
▁생년월일	-11.9962
▁ASMR	-11.9962
▁마스카라	-11.9962
▁삼성전자	-11.9962
▁악보	-11.9963
▁스테인리스	-11.9963
▁할인쿠폰	-11.9963
▁원자재	-11.9963
▁이코노미	-11.9964
▁입어볼	-11.9964
▁불안감	-11.9964
▁자랑스러운	-11.9964
▁속담	-11.9964
▁사업자등록증	-11.9964
▁인천아시안게임	-11.9964
▁유능한	-11.9964
▁안녕하십니까	-11.9964
▁서랍장	-11.9965
▁걱정되네요	-11.9965
▁기쁘네요	-11.9965
▁배탈	-11.9966
▁사원증	-11.9966
▁싶으시면	-11.9966
▁좁아서	-11.9966
▁양복	-11.9966
▁최후	-11.9966
▁외로운	-11.9967
▁스크립트	-11.9968
▁즐기며	-11.9968
▁감당할	-11.9969
이었기	-11.9969
▁좋으세요	-11.9969
▁만족감	-11.9969
▁불렀어	-11.997
▁고맙지만	-11.9971
▁밤새도록	-11.9972
▁일인데	-11.9972
▁이렇듯	-11.9972
▁스페이스	-11.9973
▁스테이지	-11.9973
▁확정되면	-11.9973
▁올리브	-11.9975
h	-11.9976
▁잘됐네요	-11.9978
▁적합하다	-11.9978
▁돌면	-11.9979
▁촉감	-11.9979
▁곁들	-11.998
▁잼	-11.998
▁월세	-11.998
▁걱정이네요	-11.998
▁좋았는데	-11.9981
▁키트	-11.9981
▁청구할	-11.9981
▁스프링	-11.9982
▁똑똑하고	-11.9982
▁휠체어	-11.9982
▁양배추	-11.9982
▁입국심사	-11.9982
▁소규모	-11.9982
▁곳인데	-11.9982
▁사각형	-11.9983
▁울음	-11.9983
▁라이센스	-11.9983
▁피라미드	-11.9983
▁두려워하지	-11.9985
▁덥지	-11.9986
▁일인가요	-11.9986
▁시범	-11.9986
워	-11.9986
▁답신	-11.9987
▁부어	-11.9988
▁이겼	-11.9988
▁만족스러운	-11.9989
▁덮개	-11.999
▁응원하는	-11.9993
▁반영하여	-11.9993
리도록	-11.9994
▁냉각	-11.9994
▁극도	-11.9994
▁닿을	-11.9994
거니	-11.9994
▁폼	-11.9996
▁공부해요	-11.9997
▁한정식	-11.9998
▁좋아졌어요	-11.9998
▁날이	-11.9999
▁선생	-11.9999
▁하체	-12.0001
▁속상해	-12.0001
▁입금되	-12.0001
▁인삼	-12.0002
▁모델링	-12.0005
▁산다면	-12.0005
▁완료되었고	-12.0005
▁패밀리	-12.0006
▁모금	-12.0007
▁있냐고	-12.0007
▁추리	-12.0009
▁노화	-12.0009
▁편하	-12.0012
▁실감	-12.0013
▁전표	-12.0015
▁선배들	-12.0015
▁동의해요	-12.0016
▁부탁드리고	-12.0017
받았어요	-12.0019
▁적정	-12.0019
▁제작하여	-12.0019
▁가던	-12.002
▁참조하시	-12.0021
▁연령대	-12.0021
▁않으면서	-12.0026
▁종점	-12.0026
▁심해	-12.0028
나가고	-12.003
▁지지하는	-12.003
▁루트	-12.0031
▁이해해줘	-12.0032
▁자취	-12.0033
▁구속	-12.0034
▁도와주지	-12.0034
▁역대	-12.0035
▁계십	-12.0035
▁입었	-12.0038
▁만족해요	-12.0039
▁가졌어요	-12.0042
▁인천역	-12.0042
▁서브	-12.0046
▁답안	-12.0046
압	-12.0047
▁수입자	-12.0047
▁조심하고	-12.0048
▁뻔한	-12.0049
▁기호	-12.0052
▁리사	-12.0052
▁당황하	-12.0053
틱	-12.0054
▁데이지	-12.0055
▁위험하지	-12.0057
▁만들어지는	-12.0059
▁유제품	-12.0062
▁학자	-12.0062
▁안된다고	-12.0062
할거에요	-12.0063
▁덕분입니다	-12.0063
GB	-12.0064
▁밀도	-12.0065
▁각오	-12.0066
▁장부	-12.0067
되므로	-12.0069
▁속상	-12.0071
▁가리	-12.0074
▁말이지	-12.0074
▁맞는다고	-12.0075
▁부럽	-12.0076
▁떠들	-12.0079
▁빙	-12.008
▁새롭고	-12.008
▁계획이야	-12.008
▁수첩	-12.0085
▁함께라면	-12.0086
▁동계	-12.0087
▁보호해	-12.0087
▁폭탄	-12.009
있는지	-12.009
▁참조해	-12.0091
▁공구	-12.0092
▁돌아가기	-12.0097
해볼	-12.0098
▁예약하면	-12.0104
▁레고	-12.0104
▁이해하	-12.0105
▁삼가	-12.011
▁휘	-12.011
어질	-12.0112
▁요원	-12.0114
▁장담	-12.0117
▁똑바	-12.0117
▁보라	-12.0118
▁발생했을	-12.0119
▁주시나요	-12.0119
▁등록증	-12.0124
▁자체적	-12.0125
▁스푼	-12.0126
▁왔다는	-12.0127
▁197	-12.0129
▁가져오는	-12.0131
▁친숙	-12.0131
▁돌봐주	-12.0131
웠던	-12.0131
▁적용되어	-12.0132
▁사신	-12.0134
주문	-12.0134
▁일등	-12.0138
▁별로야	-12.0138
▁그래서인지	-12.014
갔어요	-12.014
▁몰아	-12.0141
00	-12.0142
▁소녀들	-12.0143
▁도출	-12.0144
▁명시되어	-12.0148
▁온다는	-12.0148
▁만점	-12.0149
▁팀들	-12.015
염료	-12.0151
콩	-12.0151
▁하더라고	-12.0152
▁확인해봐	-12.0153
했잖아	-12.0155
▁찾아가는	-12.0157
▁짐작	-12.0159
▁막힌	-12.016
▁유명하다	-12.0163
▁이탈	-12.0165
▁시중	-12.0165
해주셔야	-12.0166
▁개당	-12.0166
들어	-12.0166
▁집합	-12.0167
보고서	-12.0167
▁포함할	-12.0168
▁억울	-12.0168
▁곤	-12.0168
와줘서	-12.0168
▁것이나	-12.0168
▁폐쇄	-12.0169
▁결정되	-12.0172
▁기자들	-12.0175
▁것이라면	-12.0176
▁진흙	-12.0176
▁입고가	-12.0177
▁보시기	-12.0178
▁쓰일	-12.0179
▁축하한다	-12.018
▁표기되어	-12.018
▁160	-12.0181
▁전선	-12.0181
▁평화롭	-12.0183
▁수신자	-12.0185
▁쪽지	-12.0188
▁심해지	-12.0193
▁쓸모	-12.0194
▁사랑한다	-12.0194
▁부주의	-12.0195
▁해준다	-12.0195
▁작업한	-12.0196
▁자기야	-12.0196
부탁드립니다	-12.0199
▁뒤집어	-12.0201
펠	-12.0202
▁것일	-12.0203
▁정면	-12.0203
점입니다	-12.0206
▁말하지만	-12.0206
▁STI	-12.021
케이스	-12.021
▁구동	-12.0214
버전	-12.0216
이라서요	-12.0217
▁된장	-12.022
▁들리	-12.0223
▁동원	-12.0235
▁달라진	-12.0236
▁창원	-12.0238
▁차지하는	-12.024
점수	-12.0242
▁곤란	-12.0243
▁괴롭	-12.0245
▁제시하	-12.0246
▁움직	-12.0247
▁따르고	-12.0247
▁느껴졌어	-12.0251
▁시켰	-12.0252
▁신청해	-12.0255
▁은	-12.0259
▁확신해	-12.0259
▁누리	-12.0262
▁소유자	-12.0265
▁후추	-12.0269
▁약품	-12.027
▁읽었	-12.027
▁폭력적	-12.0272
▁출금	-12.0275
▁역시나	-12.0276
▁잃어	-12.0278
▁정당	-12.0279
▁조정해	-12.028
▁유명하	-12.0283
▁밝혔	-12.0283
▁도와줬	-12.0283
▁모른	-12.0285
데이	-12.0285
▁영국인	-12.0287
▁무용	-12.0287
▁놓쳤어	-12.0288
▁동사	-12.029
▁있으십니	-12.0291
하셨다면	-12.0292
▁있었지	-12.0293
▁투자가	-12.0293
▁끼칩니	-12.0293
▁세부적	-12.0293
▁안전합니다	-12.0294
▁위험해	-12.0296
▁무시해	-12.0299
블	-12.0301
▁배고프	-12.0304
쇠	-12.0304
▁결정한	-12.0306
▁분산	-12.0311
▁196	-12.0312
▁사로잡	-12.0314
▁국회	-12.0316
▁빠르다	-12.0317
해주시는	-12.0317
▁넉넉하	-12.0321
▁여길	-12.033
▁자연적	-12.0331
▁낯	-12.0332
▁일하면	-12.0332
▁망설이	-12.0337
▁불타	-12.0337
정의	-12.0338
▁자도	-12.0338
▁둘러볼	-12.0339
▁괴로	-12.0339
▁사시면	-12.0341
▁침입	-12.0343
▁얘	-12.0344
▁계획한	-12.0345
▁깨워	-12.0346
▁결정해야	-12.0348
▁사드	-12.0348
▁인사팀	-12.0351
▁벌고	-12.0354
▁피하고	-12.0356
▁부족해	-12.0357
보호하는	-12.0358
위원회	-12.0361
면증	-12.0361
▁귀엽다	-12.0361
▁런칭	-12.0364
▁충분하	-12.0366
▁조사하고	-12.0367
▁송부해	-12.037
세계	-12.0371
▁신비	-12.0374
철도	-12.0374
▁기다린	-12.0377
▁낳았	-12.0378
▁해줘야	-12.0379
▁원하니	-12.0382
▁평면	-12.0382
▁생겼을	-12.0384
▁헤어졌어	-12.0384
▁바랄	-12.039
▁못하여	-12.0393
▁스타일링	-12.0395
▁된다니	-12.0396
▁하나야	-12.0398
▁후보자	-12.0399
▁온전	-12.04
▁플로리다	-12.0401
원이라고	-12.0406
▁확인해주실	-12.0408
12	-12.0409
시스	-12.041
▁일치하는	-12.041
▁셀카	-12.0413
▁왼손	-12.0413
▁잇몸	-12.0413
▁립밤	-12.0413
▁육류	-12.0413
▁액정	-12.0413
▁문맥	-12.0413
▁안타까	-12.0414
▁모은	-12.0414
▁젊음	-12.0414
▁머릿결	-12.0415
▁칠면조	-12.0415
▁DVR	-12.0415
▁메르스	-12.0415
▁DNA	-12.0415
▁다이얼	-12.0415
▁MCS	-12.0415
▁발자국	-12.0415
▁지내기	-12.0415
▁아울러	-12.0416
▁참기름	-12.0416
▁인센티브	-12.0416
▁구내식당	-12.0416
▁스킨케어	-12.0416
▁요구르트	-12.0416
▁핵무기	-12.0416
▁리무진	-12.0417
▁방탄소년단	-12.0417
▁에스프레소	-12.0417
▁여주인공	-12.0417
▁연세대학교	-12.0417
▁치매	-12.0418
▁찬물	-12.0418
▁캐러	-12.0418
▁국내외	-12.0418
▁위임장	-12.0419
▁놓칠	-12.0419
▁늦었지만	-12.0419
▁책임져야	-12.042
▁수행하고	-12.042
▁교통편	-12.042
▁담임	-12.0421
▁깜박	-12.0421
▁카이	-12.0421
▁우버	-12.0422
▁일으켜	-12.0422
▁당황스럽	-12.0423
▁소방	-12.0424
▁운전기사	-12.0424
▁연관성	-12.0425
▁힘들겠지만	-12.0425
▁휴양지	-12.0427
▁건배	-12.0427
▁겨울철	-12.0427
▁쉐프	-12.043
▁원천	-12.043
▁가볍고	-12.0432
▁명백히	-12.0432
▁별거	-12.0432
▁거쳐야	-12.0433
▁체리	-12.0433
▁멜론	-12.0435
받아서	-12.0435
▁재배	-12.0435
▁배추	-12.0435
▁면접관	-12.0436
▁아니잖아요	-12.0436
▁길어요	-12.0436
▁차분하게	-12.0436
▁말투	-12.0437
▁법무팀	-12.0437
▁미역국	-12.0437
▁고르세요	-12.0437
▁미백	-12.0438
▁곰팡이	-12.0439
▁오케스트라	-12.0439
▁데모	-12.044
흘	-12.0441
▁미스터리	-12.0441
▁이탈리	-12.0442
▁흡수시켜	-12.0444
▁부재중	-12.0444
▁저스틴	-12.0446
▁드셨	-12.0446
▁이상하네요	-12.0446
▁판매한	-12.0446
▁보내주셔야	-12.0446
▁보내드리니	-12.0447
▁한방	-12.0447
▁축구팀	-12.0448
▁특강	-12.0448
▁보여주면	-12.0449
▁압	-12.0449
▁큰돈	-12.0449
▁가해자	-12.0449
▁어학	-12.045
▁낫겠어	-12.0451
▁감사함	-12.0451
▁다녀왔는데	-12.0452
▁광고주	-12.0452
점들	-12.0452
▁차지하	-12.0452
▁고정된	-12.0455
▁1990	-12.0456
▁벼락	-12.0456
▁크롬	-12.0457
▁양육	-12.0458
▁전통음식	-12.0458
▁맡아서	-12.0459
▁튀겨	-12.0459
▁도표	-12.0459
▁토크	-12.0459
▁수잔	-12.0459
▁신세	-12.046
공학	-12.0461
▁학사	-12.0462
▁몸통	-12.0462
▁따위	-12.0462
▁다니엘	-12.0462
▁의무적	-12.0462
▁숙	-12.0463
▁좋습니까	-12.0463
▁KC	-12.0463
▁공연하는	-12.0463
▁예약번호	-12.0463
▁경관	-12.0463
▁관람할	-12.0464
▁학대	-12.0465
▁출근길	-12.0467
▁옳다	-12.0468
▁뻔했어	-12.0469
▁남아있어요	-12.047
▁바우	-12.0472
▁가르쳐주세요	-12.0472
▁작아요	-12.0473
▁변경사항	-12.0475
▁핸드	-12.0477
▁만지지	-12.0477
▁따지	-12.0479
▁코딩	-12.0481
는걸요	-12.0481
▁관례	-12.0481
▁세무	-12.0482
▁스커트	-12.0482
▁아니네요	-12.0484
▁33	-12.0484
▁친구네	-12.0484
▁제대	-12.0484
▁없었다면	-12.0485
▁보여줬	-12.0487
▁화난	-12.0488
▁경보	-12.0488
▁놓인	-12.0489
▁살해	-12.0491
▁화질	-12.0491
▁부러진	-12.0492
▁실패했습니다	-12.0492
▁확인했고	-12.0493
▁처음이라서	-12.0493
▁들어갔	-12.0493
▁보군요	-12.0496
▁보인다는	-12.0496
▁당할	-12.05
▁만들어주	-12.05
▁잘한	-12.0501
▁깼	-12.0501
▁UI	-12.0503
▁심정	-12.0505
▁챙기고	-12.0506
▁길가	-12.0509
▁동의하는	-12.0509
▁제출하지	-12.0509
▁과도	-12.0509
▁알려줬	-12.0511
니스	-12.0512
▁강당	-12.0513
▁집중하기	-12.0514
▁부담스럽	-12.0515
▁사격	-12.0515
▁건네	-12.0515
▁전화하면	-12.0516
▁가곤	-12.0516
▁늙어	-12.0516
▁승부	-12.0518
▁마네	-12.0518
▁줄어	-12.0519
▁팸플	-12.052
▁더럽	-12.0521
▁출근해서	-12.0522
▁접착	-12.0526
▁품종	-12.0531
▁사용하시는	-12.0531
▁아름다웠어	-12.0531
▁추가하면	-12.0533
▁취해서	-12.0537
▁하든지	-12.0538
▁MP	-12.0538
▁유명하고	-12.0538
▁사용료	-12.0539
▁조원	-12.0539
▁갔는지	-12.0541
▁이용하시는	-12.0542
▁없을지	-12.0542
하신다면	-12.0545
▁제공해야	-12.0547
▁식사하는	-12.055
▁레일	-12.0552
▁설정하고	-12.0552
하셨죠	-12.0554
▁부르기	-12.0554
▁보내드리고	-12.0556
파이	-12.0556
▁머지않	-12.0556
▁거구나	-12.0557
▁뵈	-12.0558
▁소방관	-12.0559
▁사이다	-12.056
▁편안하고	-12.056
▁남성들	-12.0561
▁시켜야	-12.0563
이세요	-12.0565
▁못했기	-12.0565
▁썰	-12.0568
▁안개	-12.0569
▁지어졌	-12.057
▁놀지	-12.0572
▁퍼져	-12.0574
▁색소	-12.0574
▁무엇이고	-12.0575
▁말았어	-12.0578
▁시키면	-12.058
▁확인된	-12.0581
▁보호하고	-12.0583
▁우선시	-12.0585
▁예상하고	-12.0585
▁만족도	-12.0587
▁강해	-12.0588
▁꼬치	-12.059
▁황제	-12.059
▁놓겠습니다	-12.0592
▁참여했	-12.0595
▁일정표	-12.0595
▁모카	-12.0596
▁근로	-12.0597
▁유익	-12.0601
▁노력했	-12.0604
수행	-12.0605
▁부탁하는	-12.0605
에너지	-12.0607
▁감탄	-12.0611
▁돌아간	-12.0612
▁비유	-12.0613
▁김이	-12.0615
▁얘기하지	-12.0616
▁편이라서	-12.0617
테스트	-12.0617
▁환기	-12.062
▁멜	-12.0624
이지요	-12.0624
▁행동할	-12.0625
▁정전	-12.0625
무리	-12.0628
▁설명한	-12.0629
▁도망치	-12.0629
치즈	-12.0631
▁찍혀	-12.0635
▁못했고	-12.0635
여름	-12.0635
▁신청하는	-12.0637
▁핏	-12.0641
▁해봤	-12.0641
▁아름답다	-12.0642
▁이념	-12.0642
▁비례	-12.0643
▁구경하	-12.0645
하자마자	-12.0646
경우	-12.0647
▁같을	-12.0649
▁입어봐	-12.065
▁운용	-12.0651
▁뭘까	-12.0653
▁차선	-12.0653
▁울려	-12.0655
▁타일	-12.0656
조직	-12.0659
▁라이언	-12.0659
▁마셔야	-12.066
▁재미없	-12.0661
▁추가되는	-12.0664
▁곳이	-12.0665
▁먹으니	-12.0667
▁되요	-12.0671
하였을	-12.0673
▁빠지고	-12.0675
▁것보단	-12.0676
▁화목	-12.0679
▁용산	-12.0679
▁보냈으니	-12.068
났다고	-12.0681
▁설치해	-12.0682
▁흥미로웠	-12.0686
▁중이었어요	-12.0688
▁쏟	-12.0688
▁배우면	-12.0688
▁등록해	-12.0695
▁혹	-12.07
주셨던	-12.07
▁유입	-12.07
▁멋지다	-12.0702
▁공부하	-12.0704
▁질리	-12.0706
▁났을	-12.0707
먼	-12.0708
라이트	-12.071
▁여수	-12.0711
▁난리	-12.0712
▁무단	-12.0717
▁기다립	-12.0719
▁접대	-12.072
마음	-12.0721
왔는데	-12.0722
▁발견하고	-12.0723
▁말해줄게	-12.0727
▁용인	-12.0728
▁정리한	-12.0729
▁거칠	-12.073
▁데미	-12.0732
▁운동하면	-12.0733
오래	-12.0734
▁있단	-12.0735
▁사용되지	-12.0738
수량	-12.0739
▁빵이	-12.0739
▁의도적	-12.074
▁수고	-12.0743
있다고	-12.0743
▁침착하	-12.075
▁보죠	-12.0753
▁섭외	-12.0754
▁색칠	-12.0756
하잖아	-12.0756
▁거주지	-12.0759
스럽게	-12.076
▁확인하려고	-12.0767
▁입원해	-12.0769
▁게이	-12.0769
으로	-12.0771
보시면	-12.0771
▁열광	-12.0772
▁성의	-12.0774
▁해보려고	-12.0775
▁상품이라	-12.0775
▁논리적	-12.0776
▁포함되는	-12.0778
▁부패	-12.0779
▁원자력	-12.0781
▁쉬었다	-12.0781
▁만들었습니	-12.0783
▁발급해	-12.0785
▁반전	-12.0786
▁펼	-12.0787
워서	-12.0791
▁흑	-12.0792
▁싫어하지	-12.0794
▁싸이	-12.0798
▁하시죠	-12.0798
▁요청해서	-12.0799
업계	-12.08
▁통근	-12.0803
순위	-12.0804
▁관련되어	-12.0806
▁신입생	-12.0806
▁하라	-12.081
▁맞다	-12.0814
▁흥	-12.0815
▁모욕	-12.0816
▁넘쳐	-12.0816
▁문서들	-12.0816
▁높지	-12.0817
▁다룬	-12.082
▁담당자들	-12.0821
▁아니겠지	-12.0821
▁예약되어	-12.0822
▁감상할	-12.0823
▁긁	-12.0825
▁던져	-12.0825
▁m	-12.0828
▁고양	-12.0835
▁있냐	-12.0836
▁순한	-12.0837
▁수염	-12.0838
▁서운	-12.084
▁재현	-12.084
▁익숙해지	-12.084
▁함께해서	-12.084
25	-12.0841
▁긍정	-12.0841
벽	-12.0842
▁해주실래요	-12.0845
▁방해하는	-12.0848
▁효	-12.085
▁기념하는	-12.0851
▁간접적	-12.0851
▁기억하는	-12.0853
곽	-12.0854
▁시간입니다	-12.0855
르게	-12.0855
토리	-12.0857
춥	-12.0857
영수증	-12.0858
▁없다니	-12.0862
▁혼동	-12.0862
▁신라	-12.0863
였기	-12.0863
▁동성애	-12.0864
대들	-12.0865
▁헬스	-12.0865
▁살다	-12.0866
▁표준화	-12.0866
▁제품명	-12.0866
▁하시네요	-12.0866
▁분포	-12.0868
▁봐줄	-12.0868
▁도와주면	-12.0872
해주고	-12.0874
해보려고	-12.0875
▁바닷	-12.0877
▁타코	-12.0879
▁스탠드	-12.0882
▁이체	-12.0882
▁일하며	-12.0883
▁타월	-12.0883
▁문의하고	-12.0888
▁벗겨	-12.0888
▁빅뱅	-12.0889
▁반가웠어	-12.0889
▁악몽	-12.0889
▁튜터	-12.0889
▁둥근	-12.0889
원짜리	-12.0889
▁토큰	-12.089
▁앤디	-12.089
무지	-12.089
▁면담	-12.0891
▁유튜버	-12.0891
▁EXO	-12.0891
▁iOS	-12.0891
▁방사능	-12.0891
▁미얀마	-12.0891
▁브라켓	-12.0891
▁로버트	-12.0891
▁스피킹	-12.0891
▁UCC	-12.0891
▁맞기	-12.0891
▁승인된	-12.0891
▁당뇨병	-12.0891
▁협동심	-12.0892
▁늦어져	-12.0892
▁빅토리아	-12.0892
▁알루미늄	-12.0892
▁먹을래	-12.0892
▁일기예보	-12.0892
▁안타까워	-12.0892
▁발렌타인	-12.0892
▁한정판	-12.0892
▁코코아	-12.0892
▁분실신고	-12.0893
▁외투	-12.0893
▁유나이티드	-12.0893
▁프로그래머	-12.0893
▁터질	-12.0893
▁비상구	-12.0894
▁무제한	-12.0894
▁데이터베이스	-12.0894
▁아이패드	-12.0894
▁헬리	-12.0894
▁활기차	-12.0896
▁전자기기	-12.0896
▁사귀었	-12.0896
▁출입구	-12.0896
▁밟	-12.0896
▁데려갈	-12.0896
▁됐을	-12.0896
▁어땠는지	-12.0896
▁부산항	-12.0897
▁탑승권	-12.0899
▁지역사회	-12.0899
▁음력	-12.0899
▁차장님	-12.0901
▁복권	-12.0901
▁늘지	-12.0902
▁건강관리	-12.0902
▁철회	-12.0903
▁220	-12.0903
▁전달받은	-12.0903
픕니	-12.0903
▁인상적이었어	-12.0904
▁매직	-12.0904
▁외교	-12.0906
in	-12.0906
▁지경	-12.0907
▁모던	-12.0907
봉지	-12.0908
▁학생증	-12.0909
▁보냈지만	-12.0909
붙여서	-12.0909
엘	-12.0909
▁천안	-12.0909
▁빨라요	-12.091
▁접속할	-12.091
▁모인	-12.0911
▁넘겨	-12.0911
배송	-12.0911
▁섹션	-12.0911
▁늘어날	-12.0912
▁않았는지	-12.0912
▁스릴	-12.0912
▁구슬	-12.0913
▁수족관	-12.0914
▁스탬프	-12.0914
▁포워딩	-12.0914
▁얘들	-12.0914
▁어우러져	-12.0915
▁여성분들	-12.0915
▁화학물질	-12.0916
먼트	-12.0917
▁거치대	-12.0918
▁제조업체	-12.0919
▁이해심	-12.0919
▁문화유산	-12.0919
▁귀찮은	-12.0919
▁깨져서	-12.092
▁자른	-12.0922
▁복잡해서	-12.0922
▁도와줘서	-12.0924
▁많네	-12.0925
▁잠수	-12.0926
Y	-12.0926
▁받으시고	-12.0926
▁받았는지	-12.0927
▁내리시면	-12.0927
▁없어졌어요	-12.0927
▁HQ	-12.0928
▁골목길	-12.0928
▁문화권	-12.0929
▁갈아입고	-12.093
▁바빴어요	-12.0931
▁강좌	-12.0932
▁면세	-12.0933
▁재미있어서	-12.0934
▁부족하면	-12.0935
▁맞추면	-12.0935
▁베를린	-12.0937
▁물론이고	-12.0937
▁장기간	-12.0939
▁바쁘신	-12.094
▁시작했는데	-12.094
▁함량	-12.094
▁성실하고	-12.0942
▁너머	-12.0942
▁죽었어	-12.0944
▁맑고	-12.0944
▁안정화	-12.0944
▁걱정돼서	-12.0945
▁아니며	-12.0946
▁공부하러	-12.0947
▁연습장	-12.095
▁벤더	-12.095
▁번식	-12.0951
▁7,000	-12.0951
▁견	-12.0952
▁이동해야	-12.0952
▁쌓인	-12.0953
▁암호화	-12.0953
조절	-12.0954
▁동부	-12.0954
▁인상적	-12.0958
▁걷지	-12.0959
▁녹이	-12.096
▁미루는	-12.0961
▁들려서	-12.0964
▁만만	-12.0964
▁누수	-12.0965
▁대응할	-12.0965
▁엔터테인먼트	-12.0965
확인	-12.0965
▁예술가들	-12.0966
▁f	-12.0968
▁동해	-12.0971
했음	-12.0971
▁속해	-12.0972
셨는데	-12.0973
▁72	-12.0974
▁흘려	-12.0975
▁용의자	-12.0976
▁백만	-12.0977
▁어디쯤	-12.0977
▁삼바	-12.0978
▁혼란스러워	-12.0979
▁그리울	-12.0979
▁절친	-12.0979
▁등심	-12.0979
▁삭제하고	-12.098
▁붕괴	-12.0982
▁물성	-12.0984
서로	-12.0984
동아리	-12.0988
▁배송받을	-12.0989
▁주의해	-12.099
▁생겨요	-12.099
▁교차	-12.0991
▁등본	-12.0992
▁도달하	-12.0993
▁지칠	-12.0996
▁흐	-12.0998
▁힘들다는	-12.0998
크래프트	-12.0998
▁바쁘다	-12.0999
▁취해야	-12.0999
▁유선	-12.0999
▁시작하려고	-12.1
▁붙일	-12.1001
▁찍었던	-12.1001
▁불필요	-12.1002
▁받거나	-12.1005
▁지옥	-12.1007
공사	-12.1009
▁있더라고요	-12.1014
▁알죠	-12.1014
▁mo	-12.1016
▁귀족	-12.1022
▁대단해	-12.1024
▁미신	-12.1026
▁임상	-12.1027
▁되실	-12.1027
▁기대할	-12.1029
▁입대	-12.103
▁사랑한다면	-12.103
▁한자	-12.1031
▁불안정	-12.1031
▁같았	-12.1031
▁받아주세요	-12.1033
▁지름길	-12.1035
▁작물	-12.1037
▁홍길동	-12.1037
▁나가도	-12.1038
한번	-12.1039
▁바람직	-12.104
▁끝냈어	-12.104
▁겨울옷	-12.1042
▁표시되	-12.1042
하겠다는	-12.1042
▁확인되는	-12.1044
▁킴	-12.1045
리에	-12.1046
▁보낸다	-12.1046
▁초래	-12.1048
▁인물들	-12.1049
▁빔	-12.105
비스	-12.1054
▁졸업하는	-12.1054
▁열대	-12.1055
틴	-12.1057
▁난감	-12.1058
▁원씩	-12.1059
▁머신	-12.106
▁떨어뜨리	-12.106
▁튼튼	-12.106
▁많았습니	-12.1061
▁한다니	-12.1062
보려고	-12.1062
▁싹	-12.1063
▁그만두는	-12.1066
▁밝은색	-12.1066
▁맞으	-12.1067
▁지울	-12.1067
▁계획서	-12.1069
▁증대	-12.1069
▁포근	-12.107
▁무렵	-12.1072
PS	-12.1074
▁길어	-12.1075
▁뒤면	-12.1076
시된	-12.1076
▁깨졌	-12.1079
▁말씀해주시	-12.108
▁컷	-12.1082
▁원자	-12.1082
▁되나	-12.1083
▁느꼈고	-12.109
▁않을	-12.1093
▁예약해주세요	-12.1093
▁해야겠어	-12.1096
스러움	-12.1097
▁다가왔	-12.1097
▁살면	-12.1099
▁보험사	-12.1106
▁겹	-12.1106
▁다량	-12.1106
서도	-12.1106
쳐	-12.1107
▁어필	-12.1107
▁000	-12.1109
▁받으셨	-12.1109
▁날인데	-12.111
▁작동되	-12.1111
▁싸서	-12.1112
▁조심하	-12.1113
▁극단적인	-12.1114
▁보강	-12.1116
▁청소하고	-12.1118
▁뜻하는	-12.1121
호입니다	-12.1121
▁확연	-12.1123
▁배송되	-12.1123
해보자	-12.1124
▁제기	-12.1125
▁쓸모없	-12.1126
▁앞두	-12.1127
▁낭만적	-12.1127
▁준비될	-12.113
▁전달받았	-12.1131
▁대리인	-12.1133
▁자기들	-12.1136
▁녹여	-12.1137
▁아실	-12.1138
주택	-12.114
▁고독	-12.1142
▁전공과	-12.1143
▁저자	-12.1145
▁집중해	-12.1145
▁해야할	-12.1146
▁적지	-12.1148
▁빌려주	-12.115
▁대신해	-12.1152
▁이상하다	-12.1155
▁만화책	-12.1156
▁추천해줄	-12.1156
▁지우개	-12.1157
▁서양의	-12.1158
▁수정했습니다	-12.1158
하시죠	-12.1159
▁저지르	-12.116
▁지워	-12.1161
▁소중하	-12.1165
우면	-12.1166
▁암기	-12.1166
오스	-12.1167
아이	-12.1171
▁생일날	-12.1173
▁지각할	-12.1174
▁건강해	-12.1174
▁대화하기	-12.1174
받기	-12.1175
들었습니다	-12.1176
둥	-12.1177
▁많아졌어	-12.1179
▁재촉	-12.1182
▁알아주	-12.1183
롭게	-12.1187
▁기억들	-12.1188
커버	-12.119
▁불리	-12.1191
▁수사	-12.1193
▁뜻인	-12.1194
▁이해해야	-12.1204
▁맞았어	-12.1208
▁만들어주는	-12.121
▁창작	-12.1211
▁기다려봐	-12.1214
▁철저하	-12.1217
건지	-12.1218
▁CS	-12.1219
스틱	-12.1223
▁여름철	-12.1224
▁디자인한	-12.1224
▁실천하	-12.1225
▁마치면	-12.1226
보니까	-12.1226
▁어우러	-12.1233
▁출시한	-12.1243
▁밝히	-12.1246
▁나왔다	-12.125
▁먹으라	-12.125
세포	-12.1251
▁뻗	-12.1253
하겠다	-12.1254
▁파악하	-12.1256
▁보았는데	-12.1258
▁다녀왔습니	-12.1258
▁닫혀	-12.1258
기기	-12.1259
▁일으켰	-12.126
▁비추	-12.1261
▁높을	-12.1261
올림픽	-12.1262
▁분수	-12.1262
▁클라	-12.1268
▁신상	-12.127
유실	-12.1271
▁인정해	-12.1272
▁소심	-12.1273
▁사건들	-12.1277
▁다운받아	-12.1282
▁소개하	-12.1285
▁사무소	-12.1288
▁분자	-12.129
▁그치	-12.1292
▁조이	-12.1292
▁도착하고	-12.1294
▁별일	-12.1294
이던데	-12.1294
놓지	-12.1295
▁배관	-12.1296
▁노래들	-12.1298
▁낳아	-12.1301
체육관	-12.1302
▁타요	-12.1307
▁발송하	-12.1307
가세	-12.1312
▁불확실	-12.1316
상하게	-12.1318
▁좋아했	-12.1318
le	-12.1318
세대	-12.1319
▁송금한	-12.1319
▁수리비	-12.1322
▁암호	-12.1327
▁얘기하면	-12.133
▁집회	-12.133
▁윌	-12.1333
▁진행되지	-12.1334
▁보여주실	-12.1335
▁열지	-12.1339
▁교환하	-12.134
▁받아들여	-12.1342
▁처음이	-12.1342
줄게	-12.1342
셜	-12.135
▁감정들	-12.1352
▁가져주	-12.1352
▁지겨워	-12.1353
장식	-12.1357
▁멈추는	-12.1359
있는데	-12.1359
군데	-12.1359
▁어디야	-12.1362
▁완료되었	-12.1364
▁피트	-12.1365
▁가맹점	-12.1373
▁오려고	-12.1373
▁아팠어	-12.1375
▁돌아왔어	-12.1375
▁지연된	-12.1375
▁놀았어	-12.1376
▁마다	-12.1379
▁경매	-12.1381
▁당당	-12.1381
치지	-12.1382
▁작용하는	-12.1384
▁65	-12.1386
▁하마	-12.1387
▁부평	-12.1387
▁없앨	-12.1388
▁폭풍	-12.1388
▁셜록	-12.1388
▁둬	-12.1389
▁누굴	-12.1389
▁윌리엄	-12.1389
▁억양	-12.1389
▁긴밀	-12.139
▁영희	-12.139
▁노벨	-12.139
▁스티븐	-12.139
▁밤낮	-12.139
▁컨텐츠	-12.139
▁호치민	-12.139
▁페널티	-12.139
▁심부름	-12.139
▁노폐물	-12.139
▁유심칩	-12.139
▁빈티지	-12.139
▁아가씨	-12.139
▁기다림	-12.1391
▁오른편	-12.1391
▁싱글룸	-12.1391
▁도넛	-12.1391
▁단짝	-12.1391
▁재벌	-12.1391
▁데일리	-12.1391
▁의료관광	-12.1391
▁메커니즘	-12.1392
▁안토니오	-12.1392
▁코카콜라	-12.1392
는걸	-12.1392
▁타투	-12.1392
▁블루베리	-12.1392
▁부끄러움	-12.1392
▁카푸치노	-12.1392
▁궁금증	-12.1392
▁열쇠고리	-12.1392
▁산책하는	-12.1392
▁애교	-12.1392
▁카타르	-12.1392
▁블로거	-12.1392
▁판소리	-12.1392
▁시뮬레이션	-12.1392
▁베스트셀러	-12.1393
▁동창	-12.1393
15	-12.1393
▁합당한	-12.1393
▁상관관계	-12.1393
▁주었던	-12.1393
▁현대사회	-12.1394
▁웹페이지	-12.1394
ss	-12.1394
▁먹었더니	-12.1394
▁크리스마스이브	-12.1394
▁붉은색	-12.1394
▁다방면	-12.1395
▁수영복	-12.1396
▁민호	-12.1396
▁성실함	-12.1396
▁서포	-12.1397
▁외환	-12.1397
인용	-12.1398
▁싫었어	-12.1398
준다면	-12.1398
▁표절	-12.1399
▁잠실역	-12.1399
▁입혀	-12.1399
공항	-12.1399
▁걸어가시면	-12.14
▁불가능하다면	-12.14
▁본보기	-12.1401
▁격차	-12.1401
▁앉는	-12.1402
▁삽화	-12.1402
▁미끄러져	-12.1403
▁채울	-12.1403
▁말해봐	-12.1403
▁피부색	-12.1406
▁무더운	-12.1407
▁우편함	-12.1407
▁확정되	-12.1408
▁단호	-12.1408
▁추천해준	-12.1409
▁어느새	-12.1409
▁혼란스럽게	-12.1409
▁알잖아	-12.1409
해야겠다	-12.1409
▁확실	-12.141
▁독특	-12.1412
▁보쌈	-12.1412
▁빠짐	-12.1412
▁드럼	-12.1413
▁더운데	-12.1413
▁리뉴얼	-12.1414
▁심심할	-12.1414
▁배운다	-12.1414
▁스쿼트	-12.1414
▁주황색	-12.1415
▁전염병	-12.1415
▁요코하마	-12.1416
▁없겠네요	-12.1417
▁에스	-12.1417
▁계산할게요	-12.1417
▁의료기기	-12.1417
▁크리에이터	-12.1417
거죠	-12.1417
▁돌아옵니다	-12.1418
▁환승해야	-12.1418
▁돌아가면서	-12.1418
▁솔로	-12.1418
▁좋군요	-12.1419
▁불릴	-12.142
스테이트	-12.142
▁하늘색	-12.142
▁탄탄한	-12.142
▁공군	-12.1421
▁육지	-12.1421
▁합창	-12.1421
▁대체품	-12.1421
▁북부	-12.1421
▁추가금액	-12.1422
▁즈음	-12.1422
▁않았네요	-12.1423
▁소장	-12.1425
▁누적	-12.1426
▁넘어가는	-12.1426
▁협력하여	-12.1427
▁괜찮아질	-12.1428
▁환전해	-12.1428
▁테마파크	-12.1428
▁노력했어	-12.1428
나무들	-12.1429
▁다루기	-12.143
된다는	-12.1433
▁기억력	-12.1434
▁광택	-12.1434
▁앉아있는	-12.1435
▁결제할게요	-12.1435
▁한국인이	-12.1436
들립니다	-12.1436
께요	-12.1437
▁사슴	-12.1437
▁춥지	-12.1437
▁재계약	-12.1438
▁본받고	-12.1438
▁탐사	-12.1439
짱	-12.1439
▁식용유	-12.144
▁활발하고	-12.144
▁받았으면	-12.144
▁벌점	-12.1441
▁놓치면	-12.1442
▁축소	-12.1443
▁온대	-12.1443
▁점검해	-12.1444
▁좁	-12.1446
▁240	-12.1446
▁마찬가지야	-12.1446
▁물어볼게	-12.1446
▁감정적	-12.1448
▁할거야	-12.1448
▁방해해서	-12.1449
▁숨기고	-12.145
▁만날까요	-12.145
▁도와드리고	-12.1451
▁대비하여	-12.1452
나서	-12.1452
▁그러네요	-12.1452
▁걸렸다	-12.1453
▁춥고	-12.1454
▁아담	-12.1455
▁품질관리	-12.1456
▁기울여	-12.1456
▁넘었는데	-12.1458
▁스쳐	-12.1458
▁받아들이고	-12.1459
어주세요	-12.1459
▁의약품	-12.146
▁맞네요	-12.146
품의	-12.1461
▁배우면서	-12.1462
▁들게	-12.1462
▁되겠지	-12.1462
▁엄지	-12.1463
▁설문지	-12.1463
▁헤어지고	-12.1463
▁보험료	-12.1464
▁생태	-12.1464
▁호스텔	-12.1465
▁했었지	-12.1466
▁호흡기	-12.1468
▁왔으니	-12.147
▁물기	-12.147
▁간직하고	-12.1472
▁촉박하	-12.1473
▁아시안게임	-12.1473
▁반영되	-12.1474
▁전세계	-12.1474
▁소유주	-12.1474
▁보내십시오	-12.1475
▁보급	-12.1476
▁장수	-12.1476
좀	-12.1477
▁왔지만	-12.1478
▁갱	-12.1478
나온	-12.1479
▁희생자	-12.1481
▁배너	-12.1486
▁뛰어놀	-12.1489
▁날이네요	-12.1489
▁침투	-12.149
19	-12.149
▁부르면	-12.1491
▁지루할	-12.1491
▁읽어보고	-12.1495
▁날아	-12.1495
▁취소하려고	-12.1496
▁태아	-12.1499
▁후배	-12.15
▁올라서	-12.15
▁들어왔는데	-12.15
▁나타났	-12.15
▁씁	-12.1501
▁진행되는지	-12.1501
▁무스	-12.1502
레이션	-12.1503
▁사실이야	-12.1503
▁삼키	-12.1503
악한	-12.1505
였다면	-12.1507
됐다는	-12.1509
▁가설	-12.151
▁캡슐	-12.1511
▁깔아	-12.1513
▁간편하	-12.1513
▁마리아	-12.1514
▁가래	-12.1516
▁수육	-12.1518
▁찢어	-12.1518
▁가입하고	-12.1519
▁익명	-12.1519
▁상무	-12.152
▁스케	-12.1523
▁맵지	-12.1524
▁호의	-12.1524
▁이미지들	-12.1524
▁깊고	-12.1524
▁시도할	-12.1524
▁계시는데	-12.1526
▁세력	-12.1526
▁오셨	-12.1526
▁말해줘요	-12.1527
기한	-12.1527
▁쉬어요	-12.1529
▁캣	-12.1531
▁발열	-12.1532
▁지속할	-12.1533
▁이토	-12.1534
▁시리아	-12.1535
▁취하는	-12.1536
▁들려주	-12.1536
▁짜릿	-12.1536
▁잠그	-12.1537
▁것이냐	-12.1537
▁모토	-12.1537
24	-12.1538
▁태어나고	-12.1542
▁끝낸	-12.1544
▁음악가	-12.1545
▁웃어	-12.1546
▁되찾	-12.1549
▁공급하고	-12.1551
▁정통	-12.1551
▁연말이라	-12.1553
▁받으면서	-12.1555
▁이끌고	-12.156
▁동의서	-12.1561
인드	-12.1561
▁버려야	-12.1564
▁물었어요	-12.1564
▁취직하	-12.1568
▁열어서	-12.157
▁구경하는	-12.157
▁뿐인데	-12.157
▁준비하면	-12.1572
사들	-12.1573
▁고문	-12.1578
▁운동회	-12.1579
존	-12.1579
▁시각화	-12.1579
▁표시해	-12.1581
구역	-12.159
▁금식	-12.1593
▁격	-12.1594
▁얻었다	-12.1595
했다	-12.1596
도구	-12.1597
▁논의하고	-12.1598
▁길이에요	-12.1598
▁고지	-12.1598
조금	-12.1599
▁결제하겠습니다	-12.1602
했네요	-12.1603
▁잃는	-12.1609
경험	-12.161
▁해볼까	-12.1612
▁예방하	-12.1614
▁발견하	-12.1614
▁악수	-12.1615
▁바이	-12.1616
▁중재	-12.1616
▁받으시는	-12.1617
▁충원	-12.1625
▁운영되	-12.1625
▁가져다줄	-12.1626
▁비교하면	-12.1626
▁이기고	-12.1628
▁모순	-12.1633
▁확인해봐야	-12.1636
▁붙인	-12.1638
▁포기했	-12.1639
▁설정할	-12.1642
▁생일인	-12.1642
▁넥	-12.1645
▁좋아진	-12.1646
▁이어지	-12.1646
▁배부르	-12.1646
▁짤	-12.1648
했다가	-12.1648
▁생소	-12.165
▁발송된	-12.1652
▁개발할	-12.1653
▁알았	-12.1655
▁주겠다	-12.1657
경기장	-12.1657
▁보내드	-12.1659
▁비참	-12.1659
▁효과적이	-12.1664
▁되었으니	-12.1664
▁기사들	-12.1665
▁생김	-12.1665
▁부수	-12.1666
▁필요한가	-12.1666
▁있으니까요	-12.1666
▁건강하지	-12.167
다던데	-12.1672
▁노력하	-12.1677
▁지면	-12.1678
▁주말이라	-12.168
드리고	-12.168
▁세운	-12.1683
MI	-12.1686
▁법학	-12.1686
▁변경한	-12.1691
▁올려야	-12.1694
▁문의할	-12.1695
▁행복했	-12.1696
▁유명해	-12.1696
▁혐오	-12.1699
▁감사합니다만	-12.1699
▁시작하지	-12.1701
▁존중해	-12.1703
하려	-12.1703
▁피해야	-12.1703
▁미로	-12.1704
▁대장	-12.1704
택	-12.1715
▁상황들	-12.1724
▁밟아	-12.1728
▁성사	-12.1729
▁결제하는	-12.173
▁지불하면	-12.1733
▁연락해야	-12.1734
▁민지	-12.1736
려고요	-12.1737
거라고	-12.174
▁고체	-12.174
▁주안	-12.1741
▁가져다주실	-12.1742
▁죽었다	-12.1744
▁항해	-12.1746
▁운전해	-12.1747
▁팔리는	-12.1747
▁발행된	-12.1748
▁마이	-12.1748
으	-12.1749
▁부리	-12.1752
모로	-12.1752
▁청소해	-12.1752
▁영화제	-12.1753
▁테스트할	-12.1756
객들	-12.1758
버려서	-12.1759
▁바라지	-12.176
속력	-12.1761
증명서	-12.1764
▁보육	-12.1765
▁착용한	-12.1767
▁다닌다	-12.1769
▁부천	-12.1773
▁요리해	-12.1775
▁굿	-12.1775
▁연관되어	-12.1779
▁뚫	-12.1781
보지	-12.1782
▁해고	-12.1784
▁내리지	-12.1785
익	-12.1787
▁맞춰야	-12.1788
▁조속	-12.1789
▁높아졌	-12.1792
▁보답	-12.1792
부의	-12.1793
16	-12.1795
▁선택지	-12.1797
▁헤어져	-12.1797
▁해보니	-12.1799
덕	-12.1799
▁장점들	-12.18
▁연결되는	-12.1805
▁보이니	-12.1806
▁장마	-12.1807
▁걱정해	-12.1807
▁마일	-12.1816
겨	-12.1817
▁기도해	-12.1817
▁짓기	-12.1821
▁이동해	-12.1825
▁웨딩	-12.1826
▁배제	-12.1828
▁룩	-12.1829
▁스톤	-12.1831
▁커질	-12.1832
▁말씀해주실	-12.1832
▁동경	-12.1838
▁110	-12.1842
▁따기	-12.1843
▁파악하는	-12.1843
▁방출	-12.1844
▁소개해주	-12.1844
▁건성	-12.1851
▁처리하면	-12.1852
▁어지럽	-12.1855
▁선정되었	-12.1857
▁소극적	-12.1858
▁갚	-12.1859
▁집중해야	-12.186
사고	-12.1863
▁장비들	-12.1865
▁않냐	-12.1868
▁언제인가	-12.1868
▁파운드	-12.1868
이의	-12.1872
자원	-12.1872
▁번화가	-12.1874
가족	-12.1874
▁정도야	-12.1875
▁날아오	-12.1877
▁검은색이	-12.1878
▁살펴	-12.1888
▁우대	-12.1892
▁드러내	-12.1892
▁38	-12.1894
었네요	-12.1894
▁좋아하면	-12.1894
련된	-12.1895
▁큰일이네	-12.1896
▁빠져들	-12.1897
터미널	-12.1897
▁도망가	-12.1898
▁소개할게	-12.1899
▁놀라워	-12.19
▁바둑	-12.1901
▁유명하지	-12.1901
파티	-12.191
▁송금해	-12.1912
▁대담	-12.1912
켓	-12.1913
▁숙취	-12.1914
▁버틸	-12.1914
이었는지	-12.1914
▁식혜	-12.1914
▁당뇨	-12.1914
▁팬덤	-12.1914
▁운전하기	-12.1915
▁멀티	-12.1916
▁칠레	-12.1916
걸음	-12.1916
▁토마스	-12.1916
▁오바마	-12.1916
▁개츠비	-12.1916
▁세라믹	-12.1916
▁인건비	-12.1916
▁허벅지	-12.1916
▁루브르	-12.1916
▁광저우	-12.1916
▁맙시다	-12.1916
▁OTA	-12.1916
▁마틴	-12.1916
▁FOB	-12.1916
▁설악산	-12.1916
▁홈쇼핑	-12.1916
▁멜로디	-12.1916
▁CIF	-12.1916
▁돌잔치	-12.1916
▁PCN	-12.1917
▁옷걸이	-12.1917
▁외로울	-12.1917
▁사무직	-12.1917
▁그럭저럭	-12.1917
▁마드리드	-12.1918
▁만리장성	-12.1918
▁응급처치	-12.1918
▁스노클링	-12.1918
▁토너먼트	-12.1918
▁블랙헤드	-12.1918
▁손목시계	-12.1918
▁셰익스피어	-12.1918
▁피아니스트	-12.1918
▁에티오피아	-12.1918
▁엘리자베스	-12.1918
▁아이라이너	-12.1919
▁특권	-12.1919
▁라스베이거스	-12.1919
▁늙은	-12.1919
▁환경보호	-12.1919
▁가져다드릴	-12.192
▁1,200	-12.192
▁증명사진	-12.192
al	-12.1921
▁시장조사	-12.1921
▁줄무늬	-12.1922
▁흉내	-12.1922
▁실생활	-12.1922
▁골반	-12.1922
▁받았다는	-12.1922
▁변함없이	-12.1922
▁많으셨습니다	-12.1922
▁컵라면	-12.1923
▁준비하여	-12.1923
▁잔소리	-12.1924
▁헤어질	-12.1924
▁온돌	-12.1925
▁끊을	-12.1926
▁감축	-12.1926
▁감사하죠	-12.1926
▁안고	-12.1927
▁우주선	-12.1927
▁두어	-12.1928
▁담겨있	-12.1928
▁한가운데	-12.1929
▁많아져서	-12.193
▁결정해	-12.193
▁비판적	-12.193
▁개척	-12.193
▁완성되면	-12.1931
▁사랑하	-12.1931
▁니트	-12.1931
▁당직	-12.1932
▁남색	-12.1932
▁교체하는	-12.1933
▁레저	-12.1933
▁걸리네요	-12.1933
▁남겨진	-12.1934
▁비행편	-12.1935
▁리턴	-12.1937
▁머핀	-12.1939
▁사용해보	-12.194
▁모텔	-12.194
▁25,000	-12.1941
▁들어있	-12.1941
▁비교하여	-12.1942
▁원주민들	-12.1942
▁까만	-12.1942
▁바라볼	-12.1943
▁스크래치	-12.1943
▁주재료	-12.1943
▁가까워서	-12.1944
▁조원들	-12.1944
▁알아차리	-12.1945
▁뜻대로	-12.1945
▁짧아서	-12.1945
리며	-12.1946
▁기대감	-12.1947
▁흡연자	-12.1947
장소	-12.1947
▁깨질	-12.1947
▁보컬	-12.1947
▁참석자	-12.1948
▁화내지	-12.1949
▁곤란합니다	-12.1949
▁아주머니	-12.1949
▁있었죠	-12.195
▁비싸지만	-12.1951
▁돌릴	-12.1951
▁좋아하니까	-12.1951
▁많아지고	-12.1951
▁판단하는	-12.1951
▁선적될	-12.1952
▁직행	-12.1952
▁있느냐	-12.1952
▁상관없는	-12.1953
▁245	-12.1953
▁넓혀	-12.1953
▁죽이는	-12.1954
▁바삭한	-12.1955
▁표기된	-12.1955
▁이동하기	-12.1957
▁나빠요	-12.1958
▁평평	-12.1958
▁페인트칠	-12.1959
▁뽑기	-12.1959
▁고열	-12.196
▁프라	-12.196
▁덥고	-12.196
▁제시할	-12.1961
▁한식당	-12.1961
▁넘으면	-12.1961
▁발령	-12.1962
▁공유해주세요	-12.1962
▁한결	-12.1964
▁여건	-12.1964
▁재밌었어요	-12.1965
▁잘못되었	-12.1966
▁페어	-12.1967
▁들판	-12.1967
▁넣었어요	-12.1967
저런	-12.197
▁흥미롭고	-12.197
▁인문학	-12.1974
운송	-12.1975
▁엔딩	-12.1975
▁해왔	-12.1977
▁친해질	-12.1978
▁알았지	-12.1978
▁돌아가면	-12.1979
▁화기	-12.1979
▁환불받고	-12.198
▁들려요	-12.1981
▁전부예요	-12.1982
▁않겠습니까	-12.1983
▁팥	-12.1983
▁이겨내	-12.1985
▁편하신	-12.1985
▁가야겠어	-12.1986
▁신선하고	-12.1986
▁질량	-12.1986
▁죄송하고	-12.1986
▁내장	-12.1987
▁있대요	-12.1987
있던	-12.1988
▁위성	-12.1989
▁본관	-12.199
표가	-12.1991
▁마쳐야	-12.1991
▁꺼져	-12.1993
i	-12.1995
페	-12.1995
▁검역	-12.1996
▁양상	-12.1996
결혼	-12.1996
▁900	-12.1997
▁살살	-12.1997
▁한정	-12.1999
▁돌리고	-12.1999
▁회상	-12.1999
▁되겠죠	-12.1999
▁불안한	-12.1999
▁195	-12.2001
▁감독관	-12.2002
▁명심해	-12.2003
▁갔다고	-12.2004
▁놀라웠	-12.2005
▁떨리	-12.2005
▁쫄깃	-12.2005
▁공급받	-12.2007
▁사랑하지만	-12.2007
▁체크인할	-12.2008
▁줌	-12.2009
▁로맨틱한	-12.201
▁예상하지	-12.2011
▁동정	-12.2012
▁누구라도	-12.2013
시대	-12.2013
▁개체	-12.2014
17	-12.2017
▁분유	-12.2017
▁드시지	-12.2018
▁약혼	-12.2019
▁설명회	-12.202
▁쓰도록	-12.2021
치수	-12.2022
▁혼인	-12.2023
▁아쉽	-12.2023
▁격렬	-12.2024
▁보살	-12.2024
▁친구분	-12.2024
거리는	-12.2024
▁라떼	-12.2025
▁반품할	-12.2025
수당	-12.2026
덧	-12.2026
▁이동이	-12.2027
▁주석	-12.2029
▁전시하고	-12.203
▁배웠다	-12.203
▁일출	-12.2032
Q	-12.2032
▁불행한	-12.2033
법입니다	-12.2035
▁한국문화	-12.2036
▁버클	-12.2036
▁먹여	-12.2037
▁퀸	-12.2037
▁수백만	-12.2037
▁가시겠어요	-12.2039
▁못하는데	-12.204
▁연꽃	-12.2041
▁빨라	-12.2043
▁원주민	-12.2044
▁붕대	-12.2044
▁하더니	-12.2045
▁선보	-12.2047
▁들어가요	-12.2047
▁세련	-12.2048
▁한순간	-12.2049
▁기다릴게	-12.2051
▁지연되는	-12.2054
▁따듯	-12.2054
▁걷다	-12.2055
▁사랑해서	-12.2056
▁무방	-12.2057
▁때론	-12.2058
▁끝났으니	-12.2059
▁마블	-12.2059
되었으니	-12.206
▁속한	-12.206
▁설명해야	-12.2061
▁수저	-12.2061
▁싫어해서	-12.2061
행하는	-12.2061
▁양궁	-12.2062
샤	-12.2064
▁관련해	-12.2064
▁떨고	-12.2065
▁헤어지는	-12.2065
증권	-12.2066
▁꿈인	-12.2071
▁솜씨	-12.2072
▁압도적	-12.2073
▁사랑스럽	-12.2073
▁편하지	-12.2073
▁한국사	-12.2074
▁양치질	-12.2075
▁자연적인	-12.2077
▁신입사원들	-12.2077
▁특기	-12.2078
▁빠져나가	-12.208
▁그랜드	-12.2081
▁모른다고	-12.2082
텐데	-12.2083
▁덩어리	-12.2083
▁듯한데	-12.2085
▁죄송한데요	-12.2085
▁입력할	-12.2092
▁체험해	-12.2093
▁사와	-12.2094
▁높이고	-12.2094
▁130	-12.2095
▁추가될	-12.2097
▁자라고	-12.21
▁정리하는	-12.2104
멘	-12.2105
▁쇼핑하는	-12.2106
▁발생해서	-12.2106
▁상환	-12.2107
▁대도시	-12.2109
볼까	-12.211
▁기대하는	-12.211
▁예약자	-12.2111
예술	-12.2111
▁말해줄래	-12.2113
▁불가피	-12.212
▁총무	-12.2121
▁이어졌	-12.2121
▁됐네요	-12.2125
▁관여하	-12.2126
Ex	-12.2127
▁일어나요	-12.2131
전화	-12.2132
▁뻔	-12.2133
▁결혼기념일	-12.2135
▁플라	-12.2135
▁해체	-12.2136
▁상인	-12.2137
▁가입되어	-12.2138
▁기다리기	-12.2138
결과	-12.214
▁배수	-12.214
▁단종	-12.2141
▁신고하	-12.2141
▁해줄래	-12.2142
▁이유야	-12.2142
꾸고	-12.2143
▁적용되	-12.2148
▁쏟아	-12.2149
신의	-12.215
케이크	-12.2151
는데도	-12.2152
▁만들었고	-12.2153
▁행동하지	-12.2154
하더라고요	-12.2158
방향	-12.2159
▁보냈고	-12.216
▁들어있는	-12.2161
▁반납하	-12.2161
▁멀어지	-12.2164
▁이바지	-12.2165
▁DM	-12.2166
슈	-12.2168
▁일제	-12.217
▁청혼	-12.2171
해졌어요	-12.2174
▁지금쯤	-12.2175
▁알려달라	-12.2175
년동안	-12.2176
▁끝났어	-12.2178
▁보정	-12.2179
▁중식	-12.2181
▁재사용	-12.2181
▁이해했어요	-12.2182
▁사회복지	-12.2183
오네요	-12.2183
▁선의	-12.2184
커피	-12.2184
▁재정적	-12.2185
았을	-12.2186
▁복잡하	-12.2192
▁날인	-12.2193
앱	-12.2194
▁일이지만	-12.2196
▁어려우	-12.2199
▁추우니	-12.22
▁잠들어	-12.22
약한	-12.2202
▁타당	-12.2204
▁앞이	-12.2204
▁만들어내는	-12.2205
▁회의하는	-12.2206
▁인정할	-12.2206
▁않지	-12.2207
▁옮겨야	-12.2208
▁부드럽	-12.2209
▁예뻤	-12.2214
일날	-12.2215
▁줄까요	-12.2216
▁봤지	-12.222
▁세련되	-12.2221
▁근원	-12.2222
해드린	-12.2222
▁101	-12.2227
▁아메리카	-12.223
▁가격인가요	-12.2231
▁두렵	-12.2233
▁먹으	-12.2233
로우	-12.2233
재료	-12.2234
▁도발	-12.2235
▁벌어진	-12.2235
대상	-12.2242
▁동성	-12.2243
▁들를	-12.2243
▁탐구	-12.2246
▁닿아	-12.2247
▁다진	-12.2249
▁소년들	-12.2252
거라	-12.2253
▁유아용	-12.2259
야겠군요	-12.2262
▁둡	-12.2264
학적	-12.2269
이동	-12.227
▁명사	-12.2272
▁할래	-12.2272
▁살균	-12.2272
▁담는	-12.2272
▁전달되	-12.2274
▁제집	-12.2274
있고	-12.2274
▁찬성하는	-12.2275
으면서	-12.2276
▁설정해	-12.2278
였는지	-12.2278
▁적응하는	-12.2278
줄래	-12.2278
▁크면	-12.2282
▁식별	-12.2282
▁독특하	-12.2282
▁권고	-12.2286
▁반영하	-12.2287
▁누구야	-12.2288
▁궁금하지	-12.2289
▁데려오	-12.229
▁고생이	-12.2293
▁베이	-12.2294
▁제철	-12.2295
기준	-12.2296
▁보자고	-12.2297
▁위임	-12.2301
▁불면	-12.2301
스톤	-12.2301
▁정도인가요	-12.2302
▁양사	-12.2304
▁잘못해서	-12.2304
▁아쉬웠	-12.2306
들이에요	-12.2311
▁겪을	-12.2312
▁제거해	-12.232
▁칭	-12.2321
념	-12.2324
▁까먹었어	-12.2325
▁높았	-12.233
▁초보자	-12.2331
▁기울	-12.2331
리겠습니다	-12.2333
▁일원	-12.2333
W	-12.2335
▁연락드려	-12.234
▁수컷	-12.2343
▁상장	-12.2347
▁왕따	-12.235
▁브리	-12.235
▁취소하	-12.2352
내는	-12.2352
과학	-12.2353
▁기다려요	-12.2354
▁작을	-12.2354
정할	-12.2356
▁다듬	-12.2358
▁구장	-12.2361
작품	-12.2364
▁믿는다	-12.2364
▁냉	-12.2367
▁펼쳐	-12.2368
▁요청해요	-12.2368
▁대관	-12.2369
▁서류상	-12.2369
▁탈퇴	-12.237
이잖아요	-12.237
상한	-12.2371
▁특색	-12.2372
▁BB	-12.2374
되게	-12.2375
▁무엇이라	-12.2375
▁구이	-12.2376
주지	-12.2378
▁세정	-12.2378
▁계속된	-12.2378
▁그늘	-12.2379
▁잡혔	-12.238
국가	-12.2381
▁평가할	-12.2386
▁이목	-12.2386
▁추억들	-12.2388
▁황사	-12.2389
▁터지	-12.2391
▁좋더라	-12.2392
▁고려한	-12.2393
▁포기해야	-12.2396
▁포옹	-12.2397
▁역사의	-12.2398
▁말인	-12.2398
▁제공하여	-12.2399
▁흘러가	-12.2402
▁제안할	-12.2407
▁것이든	-12.241
▁길어지	-12.241
▁웅장	-12.241
▁남고	-12.2413
▁애써	-12.2416
▁한명	-12.2417
필요한	-12.2426
▁나이트	-12.2426
▁투자할	-12.2431
선생님	-12.2432
▁마십니	-12.2432
▁모습들	-12.2433
▁맡기는	-12.2433
▁순조롭	-12.2434
사랑	-12.2434
▁사랑해줘	-12.2434
▁새겨	-12.2435
▁똑	-12.2435
▁때문일	-12.2437
▁전단	-12.2439
카메라	-12.244
▁절제	-12.2442
보실래요	-12.2444
▁바꿔주실	-12.2446
렬	-12.2446
▁순천	-12.2447
▁g	-12.2452
큼	-12.2454
▁소개서	-12.2455
▁섹시	-12.2455
▁늦었는데	-12.2457
▁애견	-12.2457
▁사라졌어	-12.2458
뻑	-12.246
▁있겠네	-12.2461
▁올라간	-12.2462
▁맛있었어	-12.2463
▁서빙	-12.2464
▁충성	-12.2464
내기	-12.2464
수단	-12.2464
▁작곡가	-12.2466
▁적극	-12.2466
▁빠졌어	-12.2467
▁계약자	-12.2467
▁반가운	-12.2469
▁꼼짝	-12.2469
▁투쟁	-12.2469
▁훔친	-12.2469
▁넷째	-12.2469
▁두껍	-12.247
▁규율	-12.247
▁크롱	-12.247
▁암벽	-12.247
▁아낄	-12.247
▁로열	-12.2471
▁풍미	-12.2471
▁좋아져	-12.2471
▁일어났어	-12.2471
▁외곽	-12.2471
▁이삿짐	-12.2471
▁라푼젤	-12.2471
▁센텔라	-12.2471
▁유람선	-12.2471
▁재채기	-12.2471
▁오두막	-12.2471
▁휴스턴	-12.2471
▁유산균	-12.2471
▁인턴쉽	-12.2471
▁밸런스	-12.2471
▁괴롭힘	-12.2471
▁프랭크	-12.2471
▁색연필	-12.2472
▁우크라	-12.2472
▁닭갈비	-12.2472
▁바이킹	-12.2472
▁게시글	-12.2472
▁구직	-12.2472
▁에피소드	-12.2473
▁컨사이니	-12.2473
▁온실가스	-12.2473
▁클라이브	-12.2473
▁워터파크	-12.2473
▁글씨체	-12.2473
▁아랫부분	-12.2473
▁예방접종	-12.2473
▁알렉스	-12.2473
▁1998	-12.2473
▁생선구이	-12.2473
▁스코틀랜드	-12.2474
▁임대료	-12.2474
▁일관성	-12.2474
▁액체류	-12.2474
▁늦었어	-12.2474
▁변신	-12.2474
▁바쁘시겠지만	-12.2474
▁남아프리카	-12.2475
▁요양원	-12.2475
▁막힐	-12.2475
▁모닝	-12.2475
▁구강	-12.2475
▁공지사항	-12.2475
▁한밤중	-12.2475
▁치즈케이크	-12.2475
▁두뇌	-12.2475
▁성관계	-12.2475
▁라이터	-12.2476
▁같았는데	-12.2476
▁호환성	-12.2476
▁제이슨	-12.2476
▁효율적이	-12.2477
이길래	-12.2477
▁생활용품	-12.2478
▁위험하니	-12.2478
▁찰리	-12.2478
ed	-12.2479
▁육상	-12.2479
▁국방	-12.248
▁모피	-12.248
▁가로등	-12.248
▁뒤늦게	-12.248
▁합계	-12.2481
▁신기하네요	-12.2481
▁클릭하세요	-12.2483
린스	-12.2483
▁받아보실	-12.2485
▁추운데	-12.2486
▁지내시나요	-12.2486
▁돌아왔을	-12.2487
▁붐	-12.2488
▁있겠군요	-12.2488
▁너구리	-12.2489
▁금색	-12.249
▁산뜻	-12.249
▁찢어진	-12.249
▁저녁식사	-12.249
▁가져가도	-12.249
▁나고	-12.2491
▁병사들	-12.2491
▁바쁜데	-12.2492
▁이빨	-12.2492
▁다듬어	-12.2492
▁벙	-12.2492
▁세워야	-12.2492
▁지내면서	-12.2493
▁확실해	-12.2494
▁결정하	-12.2494
▁재앙	-12.2496
▁전자제품	-12.2496
▁일회용품	-12.2496
▁예언	-12.2496
심해요	-12.2497
▁염소	-12.2497
▁가봤는데	-12.2497
▁레슬링	-12.2498
▁육회	-12.2498
▁술자리	-12.2498
▁난민	-12.2498
▁배송업체	-12.2499
▁설치하기	-12.2499
▁앞뒤	-12.25
▁되겠군요	-12.25
▁패션쇼	-12.25
▁올리세요	-12.25
▁엔지니어링	-12.2502
▁활발하	-12.2502
▁루시	-12.2502
▁떨어뜨려	-12.2502
▁쓰여있는	-12.2503
▁감사하며	-12.2503
▁상세페이지	-12.2504
▁공급업체	-12.2504
▁나누었	-12.2506
▁담당자분	-12.2506
▁말씀하시면	-12.2506
▁뇌물	-12.2507
▁자연스러	-12.2508
▁떠났어요	-12.2508
▁가입한	-12.2508
▁출장비	-12.2508
국제공항	-12.2509
▁식전	-12.251
▁고려하면	-12.251
▁가까워요	-12.2512
▁끝나요	-12.2512
▁아팠어요	-12.2513
▁40,000	-12.2514
▁노숙자	-12.2514
▁교체해야	-12.2514
▁실용성	-12.2515
▁옆방	-12.2516
▁물어봤는데	-12.2516
▁살았던	-12.2517
▁CC	-12.2517
▁식비	-12.2517
▁고가	-12.2518
▁흘리고	-12.252
▁납득	-12.2522
▁미루고	-12.2523
했었던	-12.2523
▁도착하는데	-12.2524
▁협력업체	-12.2524
▁되시고	-12.2525
▁잠자는	-12.2528
▁탄수화물	-12.2528
▁지고	-12.2529
▁범죄자들	-12.2531
▁악용	-12.2532
▁맛있네요	-12.2533
▁치안	-12.2534
▁배송비용	-12.2534
▁리우	-12.2536
▁퇴원하	-12.2537
▁들어갔어	-12.2538
▁가르칩니	-12.2538
섭	-12.254
▁편리하고	-12.254
▁특가	-12.2541
▁불안정한	-12.2541
▁물어보려고	-12.2542
▁사용해보세요	-12.2542
송이	-12.2542
힘	-12.2542
▁마모	-12.2543
▁맛있었어요	-12.2543
▁환승하는	-12.2543
▁담보	-12.2544
▁셈	-12.2544
▁제정신	-12.2545
겹	-12.2547
▁비정상	-12.2547
▁토니	-12.2548
▁보행자	-12.2548
▁급한데	-12.2548
▁썼는데	-12.2549
해주시	-12.2549
▁무서워요	-12.255
혀	-12.2551
크림	-12.2552
▁브로	-12.2553
▁남자야	-12.2554
▁수출입	-12.2555
▁학술	-12.2555
▁컨설턴트	-12.2556
▁말했지만	-12.2556
이냐	-12.2559
조치	-12.2559
▁열리고	-12.256
▁페이퍼	-12.256
▁선언	-12.2561
▁말했을	-12.2561
▁상처받	-12.2561
▁뻔했	-12.2562
▁이루어지고	-12.2563
▁늦춰	-12.2564
▁물리학	-12.2564
뱀	-12.2566
▁대답할	-12.2567
▁DC	-12.257
▁아니냐	-12.2572
▁유명해서	-12.2572
▁출원	-12.2572
▁0.5	-12.2573
▁겪어	-12.2577
▁대기오염	-12.2579
▁민감	-12.258
▁눈부	-12.258
▁물어보지	-12.2582
▁스캔들	-12.2582
▁분리된	-12.2585
▁나갔	-12.2586
▁태평양	-12.2587
웨어	-12.2587
▁곡물	-12.2588
▁발견한	-12.2589
▁요청했는데	-12.259
▁결제하	-12.2591
▁기체	-12.2592
▁비린	-12.2593
▁뭐지	-12.2593
▁보았지만	-12.2594
▁버리면	-12.2595
▁선도	-12.2597
▁없어질	-12.2599
▁역경	-12.2599
▁졸업했어요	-12.2599
▁도착했고	-12.26
▁돌아왔	-12.26
집단	-12.2602
▁제시하고	-12.2604
▁유적	-12.2605
▁축구선수	-12.2605
▁내렸어	-12.2606
▁여행가	-12.2607
▁돌이	-12.2612
▁멈추게	-12.2613
▁개발된	-12.2614
▁섰	-12.2616
▁후회하고	-12.2617
▁버스터미널	-12.2618
이신	-12.2618
▁닮고	-12.2619
▁특화	-12.2621
▁마진	-12.2621
▁상식	-12.2624
댓	-12.2627
[...]
